{"\uc124": 1849, "##\ube5a": 5208, "\uc7a5\uc0ac\uafbc": 19887, "\ubd88\ubc95\uc744": 17638, "\ubd84\uc774": 11311, "\uc548\ud558\ub294\ub370": 16775, "##\ud3ed\ub9dd": 12706, "##\uc49d": 4055, "##\ud83d\ude91": 7855, "31\ubc88": 14726, "##\uacf5\uc7a5": 14473, "\uc6b0\uc8fc": 18805, "\ud37c\uc904": 17414, "\uc790\uc6d0\ubd09\uc0ac": 23861, "\ud6fd": 3498, "\ud560\uac74\ub370": 26400, "##\uc0c1\uc73c\ub85c": 10274, "\uba85\ubc31\ud788": 26058, "##\uae5d": 4816, "\uac00\ucd95": 27982, "##\ud558\ub97c": 29204, "\ud3b8\ub9ac": 29242, "\ub1a8": 704, "\uc774\ub099\uc5f0\uc740": 29322, "\uacbd\uc81c\ub97c": 11066, "##\ud591": 6998, "\uc608\uacac": 23951, "\ub2c8\ub4e4\ub9cc": 22096, "##\uc544\ub2d9": 17930, "##\ubc14\ub85c": 9097, "\uc742": 2422, "\ub178\ub987": 11664, "##\ud3b4": 5533, "##od": 29498, "\ucc0c\uc9c8": 11702, "\ud134": 3136, "\uc8fc\ub465\uc544\ub9ac": 13006, "\uc8c4\uc559": 18271, "\uc5ed\ub300": 9144, "\uac1c\uc18c\ub9ac\ub0d0": 22883, "##\ud559\uad50": 9696, "\uc6b8\ubd80\uc9d6": 28284, "\uadf8\ud6c4": 25077, "##\uc9ed": 6117, "\uc790\ube60\uc84c": 14375, "\uc9c0\ud718": 17015, "\ub410\uace0": 19945, "##\uc904\ub798": 27294, "\uae00\uc744": 12342, "\uc4f0\ub7ec": 13606, "\uc608\ubc30\ub97c": 23992, "\ud83d\ude0a": 3859, "##\uc548\ud574\uc11c": 29557, "\ub625\ud1b5": 28249, "\uc774\uc790\uc2a5": 28659, "##\uce5c\ub2e4": 10606, "##\ubc1c\ud45c": 17911, "##\ubec8": 7907, "\uac00\uc138\uc694": 14574, "\uacbd\ud5a5": 16434, "##\uc9cb": 7815, "\ub450\ub835\ub2e4": 27811, "\uad50\ud1b5": 11382, "##\ud589": 4080, "\uc11c\ubbfc\ub4e4": 11735, "##\ub304\ub2e4": 16150, "\uc670": 2336, "##\ubb4c": 7227, "\uba4f": 1352, "##\uba39\uc740": 9741, "##\uac01\uc774": 19889, "##\uc774\ub2c8\uae4c": 11387, "##\ud0a4": 4379, "\uc27d": 1970, "##\ud83d\udc0e": 6349, "\uc0dd\uac01\uc774": 8882, "##\ub2a5": 4711, "\ud558\uc2dc\ub124": 24231, "\ucde8\uc57d": 23503, "\uc9c8\ubb38\uc5d0": 27224, "\ubbf8\uc131\ub144": 13701, "\uc55e\uc5d0\uc11c\ub294": 21025, "\ucc55": 2860, "\uc791\uac00": 16290, "##\ubb38\uc11c\ub2f5": 26926, "\ubd80\uc871": 9633, "\uadf8\ub4e4\ub3c4": 26307, "##\uc911\uacc4": 26956, "\uc800\uac83\ub4e4\uc740": 15718, "##\ubed4": 4603, "##\ud558\ub2c8\uae50": 16045, "##\uae08\uc744": 10304, "##\ucea3": 6827, "##\ub9d0\ub3c4": 12438, "\uc81d": 2546, "\uac10\uc0ac": 8848, "##\uc778\ub4e4\uc774": 9787, "\ubcf4\uc218\uc758": 14948, "\ubcf4\ub0b4\uc57c": 15630, "##\ubb38\uc81c\uc5d0": 28400, "\ub618": 1057, "##\uc790\uc640": 13167, "##\uad6d\ub2f9": 13792, "\uc800\ubc88\uc5d0": 23196, "##ctv": 17753, "\ud0dc\uadf9": 8972, "##\ub7b5": 4873, "\ubd88\uc548\ud574\uc11c": 23783, "##\ud314\uc544\uc11c": 25161, "##\ud54d": 5896, "\uc65c\uc774\ub7ec": 20591, "##\ub530\uc708": 28395, "\uac70\ub77c": 21616, "\uae30\uc0ac\ub4e4": 23393, "\ud560\uc218\uc788\ub294": 16548, "##\ub771": 7663, "\ub098\uc640\ub77c": 18474, "##\ud568\uc73c\ub85c": 25229, "##\uc2dc\ub2c8": 25012, "##\uc6d0\uc778": 23261, "\ubabb\ubc30\uc6b4": 19467, "##\ub9cc\ub4dc\ub294": 19928, "\uc790\uc218": 23349, "\uc720\uc785": 18740, "##\ud2b8\ub294": 21384, "\ub098": 587, "##\ud558\ub354\ub9cc": 15377, "\uc560\uad6d\ubcf4\uc218": 25858, "\ubc14\ub974\uac8c": 22254, "##\ubc8d": 7616, "54\uc870": 20300, "##\ud83d\ude32": 6456, "\uc870\uc9c1": 10147, "\uacf5\ubb34\uc6d0\uc740": 19764, "\uba85\ubd84": 12040, "\uc18c\ube44\uc790\uac00": 25214, "\ubc15": 1481, "##\uc13a": 5818, "\ubb34\uad00": 14881, "\ub9f4": 1319, "\uc958": 2659, "\uc81c2\uc758": 12453, "\uc68c": 2344, "\uc555\uc0c9": 19967, "##\uac78\ub85c": 9297, "\uc211": 1929, "\ub3c5\uc77c": 11766, "\uc395": 2075, "\ub354\uc2ec": 29707, "##\ub4e4\uacfc\ub294": 29924, "\ud0c1\uc6d4": 25756, "##\ud480": 4749, "##\ubd24\ub2e4": 12763, "##\uc6c0\uc774": 21486, "\ud1b3": 3166, "\ub9dd\ud55c": 17268, "\ud751\uc6b0": 25282, "##\uc2f8\uac8c": 29081, "\ub118\uc5c8\ub2e4": 25137, "\uc2ec\ud558\ub2e4": 18570, "\ud45c\ud604": 9436, "\ub098\uc624\ub124": 13409, "\uc560\uafce\uc740": 24127, "##\uc2a4\uce74": 28633, "\ub110": 639, "\ud0c4\ud575": 8252, "##\ub300\uba70": 19470, "\uc5ec\uc2e4\ud788": 26296, "\ud558\uad6c": 23176, "##\uc5b4\ub3c4": 8194, "##\uc137": 7694, "##\uba39\uc5b4\ub77c": 20623, "\uc0ac\uace0\ub098\uba74": 29084, "##\ud558\ub294\ucc99": 23385, "\uc0b4\ub9ac\uace0": 19991, "##\uc5c6\uc560": 14606, "##\uad81": 4977, "##\uc8fc\ubcc0": 22063, "\uacb0\ub860\uc740": 14175, "\ud0d3\ub9cc": 27772, "##\ub098\ub2e4": 13253, "##\uae30\uba74\uc11c": 27359, "##\ub08d": 6574, "\uc882": 2583, "\ub9dd\ud574": 10950, "##\ubd80\ub4e4": 11472, "\uc2dc\ub07c": 26040, "\uc8fc\uad8c": 20360, "\uc138\uc6cc": 13357, "sk": 19558, "##\uc786": 5730, "\uc8fc\uba74\uc11c": 22486, "##\uac19\ub124": 13325, "\uac1c\uafc0": 18783, "\uc800\ub7f0\uac74": 22291, "##\ucefc": 5791, "\uacf5\ub3d9\uccb4": 24139, "\ucd9c\uc0b0\uc728": 19743, "\ub0c4\ube44\uadfc\uc131": 25650, "##\uc5cd": 6948, "##\uc8fc\uc758": 8055, "##\uc640": 4196, "\ub77c\uace0": 9056, "\uad50\ub3c4\uc18c": 12164, "\uc788\ub294\uac83\ub3c4": 24230, "##\uac83\ub4e4": 8379, "\uc778\uac74\ube44": 15009, "\ucd5c\uace0\uc758": 11446, "\uc815\uad8c\uacfc": 18977, "##\uadf8\ub7a8": 12641, "\uc4f0\ub808\uae30\ub4e4\uc774": 14348, "\uc601\uc591": 20871, "\uae5c\ubc29": 14815, "##\uc904\uc544\ub0d0": 23186, "\uc544\ubca0": 8261, "##\ud1b0": 5161, "\uc138\ub825": 10371, "\uc0ac\uc5c5\uc744": 22624, "\uc0ac\uc2a4": 23200, "OOO\uac00": 25744, "\ub300\ud1b5\ub839\uc774\ub2e4": 21200, "##\uc9c8\uc11c": 26383, "\uc9c0\ub9d8\ub300\ub85c": 23115, "##\uc9c1\uc5c5": 25770, "##\uc5c5\ubb34": 27830, "\uaf34\ub791": 19331, "\ubbf8\ub798\ub294": 15459, "\uc120\uac70\uc5d0\uc11c": 15575, "##\ud558\ub294\uac70\ub791": 24325, "\uc9d6\uc5b4": 14248, "\uad6d\ubbfc\uc740": 8919, "\uc5b4\ub824\uc6b4\ub370": 23676, "\ubc14\ub77c\uc9c0": 28662, "##\ud144": 6465, "\uae40\uc815\uc740\uc758": 18761, "\ud310\uc0c8": 27293, "##\ubc84\ub824": 11688, "##\uc9c0\ub124\uc694": 22296, "##\uc804\ubd80\ud130": 14352, "##\ud83d\ude3b": 7237, "\ub299": 754, "\uaf43\ubc40": 23694, "\uc804\ub77c\ub3c4\uac00": 17850, "\uc884": 2585, "\ubcf4\ub0b4": 8413, "\ubee3": 1726, "\uce58\ub8e8": 20843, "\uc5e3": 2263, "\ub9cc\ud589": 22897, "i": 74, "\uc99d\uc5ec": 17968, "\uc548\uc368": 19047, "\uc8fc\ud734": 23375, "\uac31\uc774": 23615, "\ud5e4\ub4dc": 29274, "\uba85\uc774": 29724, "\ub9de\uc73c\uba74": 20780, "\ud83d\ude04": 3853, "\ud004": 3075, "\uc0b4\ub9ac": 16446, "##\uc84c\uc5b4": 21180, "\ub429": 905, "\uc804\uc7c1": 8563, "##\uc542": 7063, "\uc774\ub984\uc740": 25542, "\ub125": 655, "\ud761\uc218": 21626, "##\ucb48\ucb48": 29062, "\uadf8\ub798\ubd24\uc790": 23315, "##\uc218\uae09": 22646, "##\ubd82": 7111, "\uc2a4\ud2b8\ub808\uc2a4": 11462, "\ubd81\uc5d0\uc11c": 20944, "##\ud558\ub358": 8587, "\uc5f7": 2276, "75": 23639, "\uc790\ub77c": 15262, "\ud83d\udc8c": 3770, "\ud55c\uaca8\ub808": 13141, "\ub3cc\uc544\ub2e4\ub2c8\ub294": 26986, "\uc18c\ub9ac\ud558\uace0": 12921, "\ub2e8\uccb4\uac00": 24506, "3\ub144": 9669, "\uc0c1\ud0dc\uc5d0\uc11c": 20390, "\ud575\uc2dc\uc124": 22724, "\ud55c\uad6d\ub0a8": 23011, "##\uc2d5": 6839, "\ub289": 747, "##\ub9cc\ub3c4": 10010, "\ub73b\uc740": 24801, "##b": 4545, "\ud569\ubc95\ud654": 25573, "\ubabb\ud558\uc9c0": 14145, "\ub8f8": 1239, "\uc5b4\ub9b0": 8911, "\uc0dd\uae34": 9614, "\ud0a4\uc6b0\uace0": 20246, "\uc5ec\ub300": 25295, "\uc9d1\uac12": 8998, "\uc0dd\uacbc\ub124": 14280, "\ub625\uc740": 20547, "\uc88b": 2592, "the": 19941, "##\ub5e0": 7322, "\uacbd\uc545": 24738, "\uc8fc\uc7a5\uc740": 28980, "##\ud558\uc9c0\ub9c8\uc138\uc694": 17267, "##\ud83c\udfff": 6145, "\uae40\uacbd\uc218\ub294": 28794, "##\ub984\uc774": 27794, "\ud1b5\ud569\ub2f9\uc740": 25781, "\uba40\uca61": 10915, "\uc790\uaca9\uc99d": 29701, "\u3131\u3145\u3132": 28520, "##\uc397": 6048, "##\ubef0": 6595, "\uc870\uae08\uc740": 27402, "##\uce68\uc5d0": 19448, "##\ub4f1\uc73c\ub85c": 22256, "\ud83d\udc6e": 3751, "##\uac78\ub824": 18225, "\uaeed": 480, "\ud83d\udece": 3929, "\ube44\uad50\ud574": 29774, "\ubb38\uc7ac\uc778\uc5d0\uac8c": 21287, "90": 10718, "##\uc815\uad8c\uacfc": 29117, "\ud0c0\uc6cc": 29497, "\ub450\ub2ec": 19284, "\uc18d\uc544": 16459, "\uccad\uad6c": 11453, "\uadfc\ubcf8\uc801\uc778": 22472, "##\ub290\ub77c\uace0": 29650, "\uc0dd\uac01\uacfc": 21838, "\ubbff\uc5b4\uc57c": 29381, "\uc790\ub825\uac31\uc0dd": 27636, "##\uc0dd\uc5d0": 23946, "\uc0ac\ubb38\uc11c": 23561, "\uad6d\uc815\ub18d\ub2e8": 11354, "##\uc4f0\uba74\uc11c": 29558, "\ub5a2": 1024, "##\ucf30": 4844, "\ub3c5\uc7ac\ub294": 26555, "##\uc815\uad8c\uc758": 12106, "\uc774\ub8ec": 21153, "\ud604\uc2e4": 8454, "\ud3ed\ub825\uc744": 26086, "\uc598\uae30\ud574\ub77c": 26616, "##\uc528": 4616, "\uc9c0\ucd9c": 21767, "\uc5c6\uc560\uc790": 24989, "##\uc790\ub3d9\ucc28": 25442, "201": 10755, "\ucc44\uc6a9": 14347, "\uc545\uc5b4": 29520, "\uacf6": 315, "\uc5b4\ub9bc": 26681, "##\uacbd\uc81c\uac00": 18695, "\ud558\uc544": 21037, "\uc790\ube60\uc84c\ub0d0": 28757, "\uc2e0\ubd84": 14033, "##\ub69d": 5360, "\ub50d": 973, "\uacbd\ucc30\uc740": 14270, "\uc785\ub9c9": 29269, "##\uce5c\ub2e4\uace0": 22912, "##\ud560\uba38\ub2c8": 14800, "\uc804\ud22c\uae30": 27683, "\ub0b4\uace0": 10628, "\uc6d0\uc0c1": 29157, "\uc5bc\uc5b4\uc8fd": 23129, "##\uca4d": 5127, "\ub9dd": 1308, "\ud248": 3188, "\uc758\uc6d0\ub4e4": 16774, "##\uc5c8\uaca0\uc9c0": 19969, "##\ub9c8\uc0ac\uc624": 28046, "\ud53c\uac19\uc740": 20206, "\ube8d": 1701, "##\uc45d": 5888, "##\uc79b": 7288, "\uc5b4\ub527": 23868, "\ud604\uae08\uc73c\ub85c": 25764, "##\uc870\uae30": 16498, "\uc7a5\uc81c\uc6d0": 13749, "##\uccb5": 4909, "\ud558\uace0\uc2f6": 11520, "\ubab0\ube75": 21871, "\uc720\uce58": 9587, "\ub450\uc190": 26443, "\uc9c0\ud0a4\uc9c0": 23637, "\ud130\ubb34\ub2c8": 26880, "##\uc4b4": 6918, "##\uc218\uc9c0": 17226, "\uc791\ub144": 12384, "\uc6b0\ud55c\uc5d0": 27492, "\uc49d": 2125, "\uc2e0\ub3c4\ub4e4": 22384, "\ud568\ubc15": 22583, "\uc804\ubb38\uac00\uac00": 27324, "##\uc600\ub124": 12184, "\ud83d\udc8a": 3768, "\ucc28\ub294": 22487, "\uc8fc\ub294": 9663, "\ud3c9\ud654\uacbd\uc81c": 24328, "\uace0\uc815\uac04\ucca9": 22864, "##\uae54\uace0": 28254, "\ud759": 3520, "\ud559\uc0dd": 8842, "##\uc8fc\uba74": 9128, "\uc790\uccb4\ub97c": 14442, "##\uc68d": 6728, "\ucc4c": 2858, "\ub2e4\ud589": 9786, "\ub9c8\uc744": 28016, "\uc791\uae08\uc758": 21875, "\uc68b": 2343, "\ud560\ub9dd": 25462, "##\ubed0": 5077, "\uc641": 2321, "##\ub2ec\ub77c\uace0": 9637, "\uac00\uc9c0\ub3c4": 26016, "##\uc11c": 4072, "##\uc544\uc11c": 8115, "\ubc1d\ud788": 10093, "##\uc778\uac83": 12368, "\ubb34\uc5c7\uc774": 13005, "3\uc8fc": 29748, "\uc171": 1888, "\ud83e\udd87": 3985, "\uacf5\ub9e4": 15060, "##\ub0ec": 5320, "\uc544\ub098\ubcf4\ub124": 27468, "##\ud338": 4928, "\uc885": 2586, "\ube4b": 1668, "\uc5ed\uc0ac\ub294": 15950, "OOO\uac19\uc740": 21397, "##\ud0d3\uc73c\ub85c": 23566, "\uae38\ub7ec": 29337, "\uba85\ub839": 12511, "\uc77c\ub9d0\uc758": 25671, "\uba64\ubc84": 24889, "##\uac00\uc57c": 9545, "##\uac70\uc9d3\ub9d0": 27286, "##\uae30\uc0ac\uac00": 20126, "##\ub2d8": 4275, "\uad00\ub300\ud55c": 29164, "\uc774\uad6d\uc885": 19983, "##\ud278": 6844, "##\uc5f3": 6521, "\uc9d2": 2700, "\ub418\ucc3e": 27720, "\ud326": 3246, "\ub2f9\uc2e0\ub124": 24802, "_": 64, "\uc9d5\uacc4": 15041, "##\ud2cd": 5251, "##\ud310\ub2e8": 17807, "##\ubd41": 7585, "\ub108\uc57c\ub9d0\ub85c": 27875, "\ub298\ub9ac\ub294": 29032, "##\uc900": 4152, "##\uce58\uae30": 10825, "##\ubcb9": 7441, "\uc131\uc778\uc774": 22956, "\ub3c8\uc744": 9189, "\ud574\ub300\ub294": 20310, "\ub418\uaca0\ub124": 11654, "\uc804\uad6d\ubbfc\uc5d0\uac8c": 28034, "##\uc8fd": 4627, "##\uccad\ubb38\ud68c": 18620, "\uae64": 443, "\ub3d9\uc870": 13956, "##\uc774\uc8e0": 10759, "\uac70\uc758": 8966, "\ubd80\ub9ac\ub294": 21671, "##\ub2e4\ub2c8\ub294": 12460, "\ubcf4\uc774\uace0": 16932, "##\uce84": 5583, "\ub3c8\uc774": 9120, "\uc778\uac04\uc774\uae38": 26605, "##\uba85\uc774": 8693, "##\uc8fc\ub098": 15813, "\uc9c0\uba74": 22314, "\uc6c3\uae30\uace0": 13324, "##\ud560\ub9cc\ud55c": 24580, "\ub5d7": 1046, "##\uad6c\ub824": 13880, "\ubd88\uccb4": 21724, "\ud560\uba38\ub2c8\ub4e4\uc744": 22221, "\ub9dd\ud574\ub3c4": 18706, "\ub098\uc774": 8803, "\ub9e1\uae30": 25030, "\uc6fd": 2396, "\ud55c\ubbfc\uc871": 15873, "##\ub974\uac8c": 10389, "\uc4f8\ub370": 11007, "\uc774\ub798\ub3c4": 11347, "##N": 4581, "\ub3d9\uc0ac\ubb34": 18218, "\uc5b8\uc8fc": 24006, "\ubc1c\ud718": 23460, "##\ubd80\uc5d0\uc11c": 26021, "\uc886\uc120": 16728, "\ub418\uaca0\uc9c0": 20556, "\uc797": 2482, "##\ubd80\uc758": 24289, "\uc63c": 2317, "\ube68\uac31\uc774\ub77c\uace0": 19890, "\uc8fc\ub294\uac8c": 17999, "3\ub958": 21947, "\uc774\ub798": 8635, "\uafdc": 541, "\ub77c\uc784": 28428, "\uc5b4\ub5a0": 11711, "\uc544\uc774\ub294": 19879, "##\uc81c\ub3c4": 10930, "\uce74\ud1a1": 14810, "##\uc2dc\ud0a4\uace0": 8962, "##\uc788\ub124": 9910, "\ub9e4\uad6d\ub178": 8988, "##\uaca0\ub124": 8241, "\ubcf4\uc644": 27342, "\ub9de\ucdb0\uc11c": 24263, "\uac1c\ube61": 29031, "\uad6d\ud1a0\ubd80": 27812, "##\uc788\uac8c": 11451, "\uc62c\uc778": 16819, "\ub098\ub77c\ub2e4\uc6b4": 17617, "\uc774\uc0ac\ub78c": 11548, "\uc774\uc0c1\uc774": 16404, "\uc758": 2442, "\uc608\ubc30": 10803, "\ubd80\ub974\ub294": 17868, "\uc120\uc784": 28877, "##\u2622": 6552, "\ud83d\udc7d": 3761, "\ubd84\ub4e4\uc774": 12233, "\ud22c\uae30\uafbc": 13162, "##\ub300\uc0c1\uc774": 21919, "386": 22967, "\uc0ac\uace0\ub97c": 14675, "\uc81c\ud55c": 12431, "\uc596": 2223, "\ube44\uc591\uc2ec": 28952, "\ud558\uc9c0\ub9d0\uc790": 23293, "##\uc544\ub124": 27889, "##\ub418\uc57c": 14925, "\uc6b0\ub450": 23078, "\uc5bc\uad74\ub3c4": 18388, "##\uc18d\uc744": 27462, "\uad6d\ub0b4\uc5d0\uc11c": 18567, "\ub301": 810, "##\uc6dd": 7338, "\uc2e0\uacbd\uc4f8": 27604, "\ud558\uc5ec\uac04": 10477, "\ud558\ub298\uc758": 28133, "\uc601\ubd80": 26131, "##\uc7a5\ub3c4": 11578, "\ud558\uc9c0\ub3c4": 16568, "\uc788\ub2e4\ub294\uac8c": 15481, "\uc778\uc885\ucc28\ubcc4": 17066, "\ucd5c\ud558": 22684, "\uc9c0": 2688, "\ud1b5\uacfc": 10247, "\ucc38\uc5ec": 10403, "\ub313\uae00\ub4e4\uc774": 20200, "##\ud558\ub4e0\uac00": 23453, "\ub2e4\ub2c8\uba74\uc11c": 16960, "\uc798\ubabb\ub410": 24460, "\uc774\ub984\ub3c4": 19775, "##\uc18c\ud658": 23255, "##\uc591\ubc18": 12088, "\uc0ac\uc7a5": 10795, "\uadf8\ub7f4\ub4ef": 27514, "\uac00\uc871\ub3c4": 23141, "50\ub300": 13387, "\uacbd\uac01": 22777, "\uacc4": 296, "\uc2e0\ud638": 16158, "##\uc0dd\uae30\uace0": 26056, "\uc911\uc694\ud55c": 10302, "\ub3cc\uc544\uc774": 27601, "\ubcf4\uc9c0\ub9d0\uace0": 23248, "##\uaca9": 4108, "\ubc95\uc870": 15081, "\uc5c6\ub294\uc9c0": 17577, "\uae30\uc138": 21188, "\uba87\ub144\uc804": 26823, "\ub2e4\ub978\ub098\ub77c": 11266, "\uadf8\ub7f4\uc218\ub3c4": 25370, "##\uc778\uc740": 8765, "\uc790\uc804": 18972, "\ub2a8": 762, "\ucb40": 2794, "##\uc9c0\uae09": 24522, "##\ub4ed\ub2c8\ub2e4": 18859, "1\ud638": 21385, "\ud398\uc774\uc2a4": 21544, "##\uc530": 6582, "\ub291": 749, "\ud54d": 3348, "\ubb50\ub4e0\uc9c0": 18403, "\uc54c\uaca0\uc9c0\ub9cc": 24535, "\uc5bc\ub9c8\ub098": 8178, "##\ub3c4\uc640": 16317, "\uc54c\uc544\ubd24\ub2e4": 21970, "\uc815\uc758\ub294": 14644, "##\ud585": 6982, "##\ub0a8\uc740": 26201, "\uc190\ud574\ubcf4": 22153, "\ubbf8\ub798\uc5d0": 23126, "\ubd88\ud3c9\ub4f1": 22911, "##\uae45": 5649, "##\uac31\uc774": 8104, "\uc8fc\uc801": 17019, "##\ud788\uace0": 11120, "##\ub07c\ub2e4": 22603, "\uc9c0\uc704": 28184, "##\ud559\ub825": 25827, "\ud83d\ude1e": 3879, "\ud3c9\ud654\ub294": 23939, "##\ud654\uc5d0": 19213, "##\ub300\ud589": 28222, "##\uad6c\uba4d\uc73c\ub85c": 22821, "##\uc9c8\ub7ec": 12940, "\ud83d\udc68": 3745, "\uc788\ub098\uc694": 11389, "##\ud83d\ude85": 7754, "\ud83d\ude4c": 3916, "##\uc730": 6940, "\uc544\ub2cc\uac00\uc694": 9803, "\uc218\ub3c4\uad8c": 13458, "\uaf34\uc88b\ub2e4": 27037, "\ucd95\ud558\ud569\ub2c8\ub2e4": 23651, "##\uc774\uc758": 23755, "##\ud310\uc0ac": 13485, "##\uc89d": 6954, "\uaeb5": 461, "##\uc778\uad6c": 20940, "\uc5c4": 2244, "\uae09\ud55c": 24979, "\ud589\ud0dc\ub97c": 20603, "\ub204\uc6cc": 24244, "\uc560\ub4e4\uc774": 9584, "##\ud664": 7394, "\ud38d": 3268, "##\uc873": 7925, "\uacb0\uad6d\uc5d4": 19218, "##\uba3c": 4708, "\ub9c9\uac00\ud30c": 21583, "\ubdc0": 1635, "\ud658\uc790": 11675, "\uc81c\uc870": 12939, "\uc528\ubd80\ub9ac\uace0": 27836, "\uc785\ub9db\uc5d0": 15424, "\ubabb\ud558\ub294\uac70": 22452, "##\uc57c\ud569\ub2c8\ub2e4": 27901, "\ud0a4\uc6cc": 13045, "##\uc790\uc758": 9652, "##\uc131\uc560": 11447, "##\uc870\uc9c1": 13845, "##\ub9d9": 4765, "\uc790\uafb8": 8930, "\uc0b4\uc9dd": 19609, "##ho": 16933, "\ucd1d\uc120\uc774": 18879, "##\u3297": 6605, "\uba38\uc2b4": 26598, "\uc911\uad6d\ubcf4\ub2e4": 27795, "\uc5f4\uc5b4": 14661, "\ubb38\uc7ac\uc778\ub3c4": 13555, "\uadf8\ub9ac\ub3c4": 16372, "##\ucf00\uc774": 17380, "\uc790\uc9c8": 24403, "90\ub144\ub300": 25218, "\ud83d\udd25": 3822, "\ub10b": 636, "\ubb38\uc815\ubd80\uac00": 19057, "##\uac1c\ub3c4": 25289, "\ud6fc": 3497, "\ud83d\ude0c": 3861, "\ub3d9\uc0ac\ubb34\uc18c": 26937, "\uc870\uc0ac\ud558\uace0": 17074, "\ud31f": 3240, "\ud574\uc57c\ud558\ub294\uac70": 27282, "\uc785\ub2e4\ubb3c\uace0": 18075, "\uc5ec\uc790\uc758": 22516, "##\uc62c\ub9ac\uace0": 17164, "##\ubbfc\uc8fc\ub2f9": 10424, "\uc774\ubaa8\uc591": 12858, "\ub300\ud615": 12079, "\ubc14\ubbf8": 16968, "\ud55c\uad6d\uc778\uc758": 28887, "##ang": 26812, "\uccad\uc6d0\uc774": 29639, "\uc54a\uc73c\ub2c8": 18506, "\ub2ee\uc544": 24556, "##\ucc58": 6056, "\ud658\uc601\ud569\ub2c8\ub2e4": 29502, "\ud83c\uddf0": 3554, "\uc790\uae30\ub124": 13589, "\uc99e": 2681, "##\uc7a5\uc560": 15855, "\uc0ac\ub4dc": 11044, "\ubc1b\ub294": 9543, "\uc548\ub41c\ub2e4": 8867, "\ub450\ub4dc\ub7ec\uae30": 28505, "\ubbc8": 1457, "\ub7ab": 1139, "\ubcf4\uc5ec\uc8fc": 10869, "\uc0c1\ud0dc\uac00": 26004, "\uc0b4\ub9bc": 15993, "##\ucc28\ud53c": 8758, "\ud6c4\ubcf4\uc790": 16393, "\uc2dc\ubbfc\uc774": 17730, "\ubc95\uad00": 25184, "\uba85\uc2ec\ud574\ub77c": 23784, "\ub418\ub294\uc9c0": 14066, "##\ud83d\udc24": 6031, "\uafc7": 531, "##\ub3cc": 4426, "\uc0b4\ud574": 14316, "\ubbfc\ubcc0": 18432, "##\ub9dc": 6312, "\uc0f7": 1832, "##\uc600\uc9c0\ub9cc": 26327, "\uc2dc\uc7a5\uc774": 18296, "\ud83d\ude00": 3849, "##\u3131\u314b": 19004, "\uc9c4\ubcf4\uc88c\ud30c": 27603, "\uc77c\ubca0": 8572, "\ubf40": 1744, "##\ud558\ub294\uac74": 9020, "\ub9c8\uc9c0\ub9c9": 10220, "##\uacc1": 5414, "\ubb34\ub108\uc9c0\uace0": 20170, "##\uc0ac\uad6c": 23564, "\uae30\ub300": 9298, "\uc815\ub3c4": 8384, "##\ud83e\udd1c": 7316, "##\uaeeb": 7724, "##\ubc14\ub780\ub2e4": 17426, "\uc774\ub188\uc758": 14049, "##\uacbd\uc744": 19033, "##\uc6ac": 4828, "\ub420\uac83": 19190, "\ubaa8\uc2b5\uc774": 12794, "\uc5c9\ub369\uc774": 23249, "\ub77c\uc778": 23362, "\ubc29\ud638\ubcf5": 27108, "\uaec0": 465, "##\ud2b8\ub9ac": 27384, "\uc88b\uaca0": 29366, "##\uac4d": 4988, "\uc3e9": 2094, "\ubc24\uc0c8": 23543, "\uad6d\ubbfc\ub4e4\uaed8": 29042, "##\ubdf8": 5396, "\ud658\ubd88": 22836, "\uc790\uae30\ub9cc": 22973, "\uc5bc\uad74\ub9cc": 25792, "##\ub838\uc73c\ub2c8": 28193, "\uba8b": 1375, "##\uc9c0\ucc98": 19068, "\ucca0\uc218\ud574\ub77c": 29439, "\uc544\ub2e5": 12867, "\u2b55": 170, "##\uc9c8": 4098, "##\ud61c": 4551, "\uc18c\uc0c1\uacf5": 13510, "\uae30\uc0c1\uccad": 28024, "##\ud5dd": 4987, "\uc9c0\uaec4\uc774": 22202, "##\ub4dc\ub77c\ub9c8": 26022, "##\ud574\ubcf4\uc9c0": 15213, "\uc778\uae30\uac00": 28286, "\uae65": 444, "4\ucc9c": 28698, "\uc069": 1777, "n\ubc88\ubc29": 20860, "\ud83d\udc39": 3710, "##\ud760": 4935, "##\uc970": 6268, "##\ubb3c\ub3c4": 22327, "\ub2db": 778, "\ud83c\udf87": 3633, "##\ud83d\udc80": 6107, "\ud3d0\uae30\ubb3c": 22689, "##\ube4c": 4647, "\ub9d0\uc774\uc57c": 12211, "##\uc919": 6199, "\uc554\uc0b4": 18342, "##\uac1c\ub3fc\uc9c0": 15248, "##\uc55e\uc5d0\uc11c": 12439, "\u2b07": 167, "\uc49c": 2124, "##\ub7f2": 6857, "##\ubcf4\uc218": 9832, "##\ud83d\ude0d": 5075, "##\ud088": 5204, "##\uad70\ub300": 23842, "##000": 9876, "\ub108\uac70": 10735, "\ud0a4": 3099, "##\uc1c6": 7034, "\ubbf8\uc138\uba3c\uc9c0\uac00": 16950, "\ud604\uba85\ud55c": 17116, "\uc600": 2281, "##\uc23c": 6832, "##\uc5ef": 7215, "\ucd94\uac00\uc694": 23042, "\uc78e": 2475, "\uc874\uacbd": 10142, "##\uacd7": 5848, "\ub418\ub294\uac70\uc57c": 20754, "\uc7a1\ud614": 22333, "\uc5ed": 2270, "##\ud558\uc2e0": 9690, "\uac15\uc81c\uc9d5": 14813, "##\ud48b": 6292, "\uc138\uac8c": 22924, "##\ud615\ub2d8": 25104, "##\uc73c\uba74\uc11c": 8764, "##\ud83d\udc66": 6306, "\ud789": 3535, "##\ud4b0": 7042, "\ubcf4\uc874": 22773, "\ucf58": 3046, "##\uc548\ub2e4": 15988, "\ubed4\ud558\ub2e4": 18422, "##\ub0a0\uc5d0": 24290, "\ud45c\uc2ec": 29292, "##\ub064": 5728, "##\ub1d0": 7336, "##\ub188\ub4e4\uc744": 26010, "\uc590": 2218, "##\uac19": 4084, "\uc544\uc6c3": 10407, "\ucac0": 2771, "\uc788\uc744": 8519, "10\ub300": 18101, "\ud314\uc544\uba39\uace0": 21001, "\uac70\ubd81": 22511, "\ucaed": 2786, "\uc5f4\ud3ed": 18884, "##\u3149\u3149": 9770, "\u314e\u314e\u314e": 9236, "##\ubd84\uac04": 15760, "##\ud83d\udc9f": 5435, "##\ub0e8": 4662, "\ud3ec\ud1a0": 20240, "##\ub118\uc544": 21301, "\ubc29\ud0c4": 10986, "\ud5e4\uc5b4": 22375, "\ud55c\uac8c": 11158, "\ud558\uc704": 19100, "\ud3ec\ub974\ub178": 29722, "##\ub4d5": 6200, "\uadf8\ub54c": 8756, "\ub300\uc2e0": 10154, "\uc9c0\ub098\uac00\ub294": 12349, "##\uc801\uc774": 8805, "\ub41c\ub2e4\uba74": 17524, "\ud329\ud2b8\uac00": 24080, "\uc9f1\uac1c": 9334, "\uc544\ub294\ucc99": 23932, "##\ud6d7": 6124, "##\uc548\ub3fc": 19404, "\ubc1b\uc73c\uc138\uc694": 23518, "\uc5b4\ub5a8\uae4c": 21604, "\uc0dd\uac01\ud574": 9370, "\uad6d\uc0b0\ud654": 16176, "\ub2f9\uc744": 16816, "\uc695\ud558\ub294\uac70": 29712, "##\ud83c\udf3d": 7920, "##\ub96d": 5175, "\uc774\uac83\ub4e4\uc740": 12726, "\ud0c4\ud575\uc744": 18158, "##\uc190\uc5d0": 24614, "\uc26c\uc138\uc694": 29966, "\ubc93": 1534, "##\ubd24\ub098": 20855, "\ucad0": 2777, "##\u26d4": 6165, "##\ub450": 4120, "\uc804\uba78": 24830, "\ud590": 3391, "\uae30\ubcf8\uc774": 21152, "##\ud114": 6358, "##00\uba85": 20220, "\uc816": 2540, "\uc0bc\uc131\uc5d0": 29812, "\uc8e1": 2614, "\uad6d\ubbfc\ub4e4\uc5d0\uac8c": 10911, "\ud3c9\uc591": 14601, "\uac00\ub974\uce58\ub294": 28147, "\uac00\ub77c\uace0": 22193, "##\ud504\ub808": 11683, "\ube69": 1685, "##\ud2c8": 5335, "\uc74c\uc8fc\uc6b4\uc804": 12109, "\uc918\uc11c": 21427, "\uc900\ub2e4\uace0": 14632, "\ud2b9\uae30": 21890, "##\uc131\uc5d0": 12322, "\uadf8\ub7ec\ub294\uac70": 23908, "\uc190\uc73c\ub85c": 17111, "\uadf8\ub9cc": 8167, "##\ud560\uc218\uac00": 15920, "##\uc2ec": 4516, "\uc6c3\uae30": 9501, "\uad6c\ubd84": 10479, "\ub9de\ub294\ub2e4": 29620, "\ud6c4\ud68c": 10896, "##\uc73c\ub85c\uc11c": 10166, "##\uc548\uc815": 29681, "##\uc0ac\uc720": 18223, "\ub118\uccd0": 12599, "\uac15\ub825": 9523, "##\uadf8\ub798\ub3c4": 28846, "\uc548\ub41c\ub2e4\uace0": 13025, "\ud56d\uc0c1": 9008, "##\ud0f1": 4513, "\ub9d0\ub77c": 11400, "\uac70\ub300": 18207, "\ub5b3": 1032, "\ud83d\ude25": 3886, "\ub178\ubb34\ud604": 8797, "\ub514\uc790\uc778": 18247, "\ud1b5": 3167, "\ubd80\ub044\ub7ec": 21409, "##\ud558\uac70\ub098": 10917, "##\ud83c\udf1a": 7002, "\ubd80\uc815\ud558\ub294": 18956, "\uc78a\uace0": 22767, "##\ubc44": 5590, "\uc2e0\ucc9c\uc9c0": 8168, "\uc138\ube44": 18387, "##\ub0c4\uc0c8\uac00": 24800, "\ud83d\udcfa": 3811, "\ud310\ub2e8\uc744": 17668, "\ubc14\ub978\ubbf8\ub798": 18303, "##\ub9cc\ud55c": 9422, "\uc2ac\uc2ac": 13430, "##\ube73": 5595, "##\ub36e": 5271, "##\uac70\uba74": 10231, "\ub7ec": 1155, "##\ud720": 5663, "##\ubd24\uc790": 11089, "\uc77d\uc5b4": 12410, "\ubbfc\uc8fc\ub2f9\ub3c4": 15363, "\uc65c\uad6c\ub2f9": 27185, "\ud5c8\uc6a9": 13910, "\uc22b": 1938, "##\uba54": 4139, "\ubc1d\ud788\uba74": 23227, "##\ud544\uc694\uac00": 24768, "##\uc5ec\uc790": 10368, "lg": 25075, "##\ub2f9\ud558\uace0": 10394, "\ub62d": 1064, "##\u2757": 5768, "##\ud83d\udc95": 5439, "\uae49": 428, "##\uc2f6\ub2e4": 9721, "\ubcf4\ub098\ub9c8\ub098": 27769, "##\ud750": 5232, "\ub9d9": 1305, "##\ubd64": 5461, "\uc800\uac83\ub4e4": 12515, "\uc53c": 2164, "##\ud83d\udc4e": 5901, "\u3297": 196, "##\ub2ab": 6623, "\uba85\ubc31\ud55c": 16078, "\uc7a0\ub3c4": 29075, "##\uc0ac\ub9ac": 14988, "\uc0ac\ub300\uac15": 25009, "{": 92, "\ub178\uc870\uac00": 16063, "\uc815\uc2e0\ub4e4": 14928, "##\uc2bf": 7189, "##\uac9f\ub124": 15571, "\ud83d\udeb4": 3928, "##\ud654\ud3d0": 23223, "\uc5bd": 2241, "\ub9d0\ud22c": 16662, "\ub300\ud1b5": 9965, "\ub3c8\ubc84": 23971, "\ub300\ub300\ub85c": 26999, "##\ub7b8": 4878, "##\ud6e0": 5224, "\ud2b9\ud61c\ub97c": 22888, "##\ub872": 6435, "##\uc758\ubbf8": 17836, "\ubc14\ub00c\ub294": 27535, "##\uc0c8\uae84": 29508, "\ubf0c": 1738, "\uae30\uc5c5\ub4e4": 13176, "\uccad\uc815": 22575, "\uc131\ub9e4\ub9e4": 11809, "##\ube9c": 7586, "\ub2e4\ub978\uac74": 16253, "\uac00\ub77c\uc549": 21853, "##op": 24072, "\ub298\uc5b4\ub098\ub294": 27906, "##\ud558\uc9c0\ub9cc": 9082, "##\uc57d\ud55c": 18644, "\uc004": 1768, "\ucda7": 2940, "\ub178\ubb34": 8733, "\ub300\uac00\ub9ac\ub294": 22484, "\uc575\ubc8c\uc774": 20703, "##\ub4dc\ub9ac": 18112, "##\uae30\uc900": 13859, "\uc815\uce58\uc0c9": 28316, "##\ucc98\uba39\ub294": 23151, "##\ud3a8": 5718, "\uae30\uc790\ub294": 16309, "\uc77c\uc0c1\uc0dd\ud65c": 18832, "\uc0ac\ub791": 9004, "##\ub2e4\ub098": 17894, "\uc120\ub3d9\uc740": 27386, "\uc904\uc5ec": 17517, "\ubcf4\ub0b4\uc11c": 19232, "\uc124\uacc4": 26071, "\ubb99": 1443, "\ud55c\ub188": 21634, "##\uc151": 6428, "\ub2ec\ub9b0": 21860, "##\ud558\uae30\ub3c4": 13671, "\ubc1d\ud600\uc57c": 17717, "\uc55e\uc7a1": 21851, "\uc870\uc13c": 11748, "\uc624\uc9c0\ub9c8\ub77c": 22031, "\ub4e4\uc5b4\uc624\uba74": 21304, "\ub3c8\ubc1b\uc544": 27608, "\ud3f4": 3297, "88": 29749, "\ubabb\ud55c\uac8c": 28515, "##\ub080": 4757, "\uccb4\ub825": 23557, "\ud1b5\ud569\ub2f9\uc774": 24796, "##\uc0ac\ub840": 26646, "##\uae78": 6777, "\ube39": 1662, "##\uc815\ucc45\uc740": 26355, "\uc815\uc2e0\ubabb\ucc28": 14793, "##\uc2dc\ud0b4": 24704, "\uace0\ubb38": 13947, "\ud83c\udf1e": 3578, "\ub2b0": 767, "##\uc5bb": 5134, "##\uc7cc": 5339, "\ub530\ub77c\uac00": 27858, "##\ub545": 4234, "\uac24": 225, "##\uc608\uc0b0": 14679, "\uc598\uae30\ub294": 17443, "\ub04c\uace0": 11479, "\ud560\uba38": 21891, "##\ub084": 5212, "\ub11c": 649, "\uce6c": 2981, "\uc678\uba74\ud558\uace0": 27057, "##\ub0d8": 5971, "\uc804\ub300\ud1b5\ub839": 26551, "\ubc00\uace0": 14319, "\uc0ac\uc0c1\uc774": 18263, "\ud55c\uacc4\uac00": 22062, "\ub3c5\uc7ac\uc790\uc758": 27046, "\ubb38\ub300\ud1b5\ub839": 9859, "\uae40\uc815\uc740\ud55c\ud14c": 26168, "\uc774\ub7ec\ud55c": 16702, "\ucd24": 2917, "\ud574\ubc29": 15115, "##\ud574\uccb4": 19212, "\uc804\uad6d\ubbfc\uc774": 13480, "\ub0b4\ub824\uc11c": 26799, "\uc774\ubc88\uc815\uad8c": 27392, "\uadf8\uac83\ub9cc": 23514, "\ud575\ubb34\uc7a5": 25722, "\uc644\uc131": 16520, "##\ud558\ub4e0": 11544, "\ucd94\uc885\uc790\ub4e4": 26406, "##\uc624\uc5fc": 19842, "\uc5b8\ub860\uac1c\ud601": 23535, "##\ubbd3": 6241, "\uc798\ud558\uba74": 16656, "\ub9de\uc2b5\ub2c8\ub2e4": 13662, "##\uc533": 7579, "\ub2e4\uc218\uc758": 19005, "##\uc0c4": 5553, "##\ub4e4\uae4c\uc9c0": 19288, "##\uc14c": 6711, "\ubca4\uce20": 16668, "##\ubc84\ub9ac\uc790": 19095, "\uc815\uc2e0\uc904": 18498, "##\uc0b0\uc774": 14139, "##\uc0ac\ubb34": 13832, "##\ucf15": 7168, "\uc774\uc5d0": 18368, "\uc774\uc57c": 8625, "##\uae34\ub2e4": 12450, "##\ub188\uc544": 12874, "\ubd81\ud55c\ud55c\ud14c": 16554, "\ud55c\ubc18\ub3c4\uc758": 28774, "\uc2dd\uc0ac": 22025, "\ud3b8\ud5a5\ub41c": 25910, "##\ubcc4\ub85c": 16674, "\ubd81\ud55c\uac00\uc11c": 19620, "##\ud83d\udc4d": 5350, "\ud558\uaca0\uc9c0\ub9cc": 22722, "##\uc5b4\ubc84": 9051, "\ubc1c\uae09": 20505, "\ub2e4\ub978\ub370": 14505, "\ube67": 1683, "\ud2b9\uad8c\uce35": 26512, "\uc704\uc120\uc790\ub4e4": 24859, "\uc752": 2437, "##\uaf5d": 6087, "##\uac82": 6732, "\uace0\ub824\ub300": 19507, "\uc0c2": 1802, "##\uc778\ucc99": 11686, "##\uc4f4\ub2e4\uace0": 28143, "\ubcf4\uc5ec\uc8fc\ub294": 12935, "##\ud574\uc57c\ub41c\ub2e4": 14868, "\ub313\uae00\ub2e4\ub294": 16958, "##\ud83d\udddd": 5709, "\uacbd\uc81c\ud3ed\ub9dd": 16061, "##\uc5c8\ub294\uc9c0": 12244, "##\ub118": 4214, "\ube44\ucc38": 16246, "##\ud615\uc5d0": 23929, "##\uc0c1\uad00": 13808, "\uc798\ud55c\uac74": 21502, "\ube68\ub9ac": 8358, "##\uae08\uc740": 18753, "\ud558\ub2c8": 9238, "\ub0a0": 595, "##\ub9ac\uc544": 10651, "\uc548\uc8fc": 19920, "\uc815\uad8c\uc740": 10577, "##\uc53c": 6571, "##\ub370\uc694": 17333, "\uc0ac\ub9dd\ud55c": 28161, "\uba38\ub9ac\ub294": 16258, "\uc5d4": 2257, "\ubd99\uc7a1\uace0": 23211, "\uc8fc\uac00": 15947, "\ud569\uc2dc\ub2e4": 10254, "##\uac00\ub9bc": 27588, "\ubaa9\uc801\uc774": 15792, "##\uccad\uc815": 19604, "##\ud638\uc758": 28765, "\uaf2c\ub77c\uc9c0\uac00": 15301, "##\ub178\uc608": 15951, "\ubcf4\uc138\uc694": 11567, "\uc9c0\ub784": 8535, "5\uc6d4": 19865, "##\ubbb7": 6729, "##\ubbc4": 4729, "\ub300\ub625": 24576, "##om": 15961, "\uc0ac\ud56d": 17488, "##\uc9c0\uacbd": 19494, "\uc904\uc774": 17986, "##\ub178\ub2f5": 28452, "\ubabb\ud588": 22474, "\uc9c1\uc6d0": 9736, "\uc624\ud508": 15999, "\ub9cc\ub4e4\ub824\uace0": 14862, "\ud658\uc728": 22400, "\uae40\ubd80": 24120, "##\uc73c\uc138\uc694": 10622, "\uc9c0\ub124\ub4e4": 21605, "##\uc1e1": 6095, "##\ubc15\uc774": 11414, "\ubb38\ud504": 19240, "\uc9d0": 2698, "\ubd09\uc0ac\ud65c\ub3d9": 19613, "\uc911\uad6d\uc778\ub4e4\uc740": 28330, "\ub17e": 688, "##\uc3b4": 7069, "\uc598": 2225, "\uae30\uc0ac\uc81c\ubaa9": 19534, "\ub0b4\ub194\ub77c": 24004, "\uc904": 2631, "\ube44\ub9ac": 8994, "\u270c": 146, "##\uac2c": 6620, "\uc0ac\ud68c\uc8fc\uc758\ub97c": 27564, "##\ubbf8\ub9ac": 23417, "##\ud83c\udfb8": 6444, "\uae30\ub300\ub41c\ub2e4": 26135, "\ub2e4\uc774": 12590, "\ub0b8\ub2e4": 28621, "\ubbfe": 1467, "##\ud06c\ub85c": 11761, "\uc870\uce58": 12688, "\ud64d\uc601": 18409, "\uae40\ub300\uc911": 10248, "##\uc4f0\uae30": 19982, "##\uc720\ud3ec": 28764, "##\uc18c\ubb38": 28753, "\ub3d9\ud3ec": 18142, "##\uc9c0\uc5b4": 10212, "\uc7ac\uac1c": 29126, "\uc774\uac8c": 8098, "##\uc8fc\uc758\uc790": 12100, "\ubdb9": 1634, "\uc2a4\ud3ec\uce20": 18000, "\ud638\uad6c": 9676, "\uc9d1\uad6c\uc11d": 12130, "\uae30\ubcf8\uc801\uc778": 16416, "##\uad73": 5413, "\uc0c5": 1804, "\uc5ed\ud65c": 21066, "\ub5a8\uc5b4\uc9c0": 12770, "##\uc815\ub2f9\uc774": 27652, "\ucc59\uae38": 22405, "\ubaa8\ub974\uaca0\uc74c": 25735, "\ud3b8\ud5a5": 14559, "##\ud33b": 6931, "\ub313\uae00\ub4e4": 12297, "##\uc316": 6255, "\uc138\ub825\uc774": 17392, "\uadf8\ub2f9\uc2dc": 15697, "##\uc9c4\ucc3d": 21482, "##\uc790\uccb4": 11254, "\uae30\ud0c0": 15705, "\uae37": 417, "##\ub4e4\uc774\ub294": 28961, "\ud1a0\ub098\uc628\ub2e4": 15123, "\uc815\uc0c1\uc801\uc778": 10549, "\ucbd4": 2814, "##\ucc1d": 5782, "\uc800\uc9c8": 9836, "##\ub124\u314b\u314b": 11998, "##\uc628\uac70": 25301, "\uc554": 2183, "##\ub2c8\uae4c\uc694": 17618, "\uc57c\uad6c": 25380, "##\uc0ec": 6240, "\ud45c\ud604\uc774": 23309, "\ube14\ub799\ub9ac\uc2a4\ud2b8": 15631, "\uadf8\ub2e4\uc74c": 16871, "\uadf8\ub9cc\ud558\uace0": 11178, "##\ubd14": 6772, "##\ud655\uc9c4": 19752, "\uac15\uc6d0": 24235, "\uacbd\uc6b0\ub3c4": 22884, "\uad6d\ubbfc\uacfc": 12445, "##\ubc26": 5150, "\ubb3c\uac74": 10472, "##\uc5d0\uc11c\ub294": 8652, "\uc0ac\uc804": 11202, "\uace8\uace0\ub8e8": 24554, "\uc21c\uc2e4\uc774": 14883, "##\ud83d\udc9c": 5440, "\uac80\ucc30\uc870\uc0ac": 17731, "\uc778\uc0dd\uc758": 29144, "\ubc18\ub300\ub97c": 17936, "\uc2dc\uc808": 10288, "##\uc9d9": 6927, "##\uae30\ub9cc": 9235, "\uc99d\uc5b8": 15429, "\uc1a1\uc911": 26295, "\ud55c\uad6d\ub2f9\uc758": 29208, "\uc774\uc81c\uae4c\uc9c0": 23559, "##\ud83c\udffe": 6823, "\ud76c\ub9dd": 9821, "##\ub4dd\uad8c": 9816, "\uc790\uc9c4\uc0ac\ud1f4": 29010, "\ud83d\udc80": 3764, "\ubaa8\ub4e0": 8229, "\uc654\ub2e4": 13008, "\uad6d\uc81c\ubc95": 27232, "\uc788\uc5c8\ub2e4\uba74": 21791, "##\ubfcd": 5933, "\ub098\ub124\uc694": 22546, "\ud68c\uc218": 23363, "\ub98a": 1271, "\uc5b4\uca4c\ub824\uace0": 28723, "##\ub354\ubbf8": 22525, "\uad11\uc8fc\uc0ac\ud0dc": 22940, "\uc77c\ubc29\uc801\uc778": 29441, "\ub98f": 1275, "\uc788\uaca0\ub124": 25841, "\uad6c\uc0c1": 17383, "##\uad98": 6230, "\uc0ac\uc2e4\ub85c": 23500, "##\uacef": 7256, "\uad6c\uae00": 16910, "\ub180\ub790": 27038, "\uc5ed\ud589": 27481, "\uc5ec\ub984": 15105, "\uc774\uacf3": 28568, "\ucc9c\ucc9c": 20429, "\ub9dd\ud558\uae30": 28481, "##\ucc60": 6016, "\uc5b8\ub860\uc774": 10550, "##DP": 25022, "##\ud568\u314b\u314b": 27927, "##\uc785\uc7a5\uc5d0\uc11c": 21580, "\ub2ec\ub77c\uc9c8": 29669, "\ubc30\uc740\ub9dd\ub355": 29379, "##\ucf71": 6526, "\uac20": 222, "\ubb50\uac00": 8331, "\ub29f": 755, "\ud728": 3507, "\uc8fd\uc5c8\ub294\ub370": 17909, "\uc15c": 1880, "##\ub124\uac00": 17489, "\uc2eb\uc5b4\ud55c\ub2e4": 27105, "##\ucc99": 4687, "\uc728": 2410, "\uc798\ud588\ub2e4\uace0": 13814, "##\uae4c\uc9c0\ub3c4": 15416, "\uc815\ud655\ud55c": 13432, "\ud558\ub098\ub97c": 23597, "##\uc778\uac70\uc8e0": 26934, "\uc0dd\uac01\ud569\ub2c8\ub2e4": 11194, "\uc785\ub2c8\uae4c": 20749, "##\uc774\ub2e4": 7976, "\uace0\ub4f1\uc5b4": 22412, "##\uaed8\uc11c\ub294": 23747, "44": 25958, "\ubc1d": 1486, "##\ud558\ub77d": 25601, "\ub2f5\ubcc0": 12985, "\uc2dc\uc791\ud574\uc11c": 18382, "##\ud83d\ude2b": 5243, "##\ubaa8\ub294": 23583, "##\ub9c9": 4116, "\ucc70": 2869, "\uad6c\ub9e4": 11514, "\ub9de\ub294\uac70": 15040, "\uc5b4\ub514\ub0d0": 25409, "##\ub98e": 5123, "\uc804\uae30\ucc28": 27072, "\ubb4f": 1426, "\uc544\uc6c5": 19704, "\ud3d0\uc1c4": 12148, "\uc0b4\ub9ac\uae30": 29311, "\uc800\uc9c0\ub974": 22586, "##\ucbea": 6660, "\ucc3f": 2852, "##\ub300\uac00": 8592, "\ud574\ub193\uace0": 11379, "##\uaf05": 7244, "\ud558\ub354\ub77c": 14179, "\ucc28\ub9ac\uc790": 23686, "\uc788\uc5c8\uc744": 26191, "\ud604\uc2e4\uc774": 14511, "\uc774\uae34": 18867, "\uc77c\ubcf8": 7984, "\ub9e4\uc8fc": 22933, "##\uc62c\ub824": 14665, "##\uc6a9": 4429, "\ub109": 635, "##\u2733": 6693, "\ucea5": 3004, "\uc548\ubbfc\uc11d": 18294, "\ud558\uc2dc\uc8e0": 22614, "\ucff1": 3070, "\uacfd": 322, "##\ucc45\uc784": 10328, "##\ub5cf": 5056, "##\uc870\ub97c": 13795, "##\uc5c6\uc73c\uba74": 11419, "##\ud83e\udd1f": 7275, "##\ubd10\ub77c": 8211, "##\ud83c\udf7a": 7229, "\uadf8\ub7ec\ub294": 14974, "##\uc603": 7547, "\u3147\u3147": 11433, "##\uc9c0\ubabb\ud574": 27537, "\uc548\ubc1b\uc544": 26879, "##\uc2dc\ud0a4\ub4e4": 16473, "\uae30": 414, "\uc644\uce58": 24424, "##\uc9c0\uc758": 28289, "\ube44\uc790": 21997, "##\ub729": 5565, "\ucad2": 2779, "sec": 26638, "\ub098\ubc1c": 14195, "\uae30\uc0dd\ucda9\ub4e4": 22099, "\uc815\uc2e0\ub098": 28102, "\ucb64": 2804, "\uae30\ud68c\uc5d0": 13327, "\ub4e4\uace0": 9414, "\ub098\uc05c\ub188": 16094, "\ubc18\uc77c\uc744": 26169, "\ud83d\udd1e": 3821, "##\ub795": 7334, "##\ud558\ub824\ub294": 10673, "\uac70\uae30\uc11c": 10681, "##\ub300\ub294\uac70": 25892, "\uc0c8\uae30\ub4e4": 22091, "\ub9c8\ub140": 12681, "\ub9ce\ub0d0": 17384, "\uc6b0\uc5f0": 25549, "\ubf51\uc740": 10195, "\uc790\uc2e0\ub4e4\uc758": 13522, "\ud5c8\uad6c\ud5cc": 15493, "##\uc9c0\ub9d0\uace0": 8397, "\uac1c\uc9c0": 26549, "##\uc74f": 6419, "\uc545\ucde8": 26319, "##\ud83d\udd95\ud83d\udd95": 24707, "##\ub838\uc5b4": 22258, "##\ub098\uc11c": 8615, "\uac83\ub4e4\ub3c4": 26028, "\ud83d\ude32": 3898, "\uc720\ub2c8\ud074": 10315, "\uadc0\uad6d": 20469, "##\ucd19": 6916, "\uc2dc\uc791\ud558\uba74": 25472, "\ubb38\ub2eb\uace0": 24687, "##\ud83e\udd24": 6351, "\uc815\uc0c1\uc740": 28695, "##\ub9ac\ud551": 24664, "60": 9757, "##\ub2e8\uc18d": 24368, "\uc804\uacf5": 21543, "\uaf2c\ub77c": 22960, "\ud558\ub294\uac70": 8541, "\uae40\ubb38\uc218": 19918, "\ud83e\udd7a": 3980, "\uc798\ub418": 21988, "\u2696": 132, "##\uc548\ub428": 18858, "\ud30c\uc545\ud558\uace0": 29120, "\ubd99\uc5b4\uc11c": 19606, "\uc6b0\ud55c\ucf54\ub85c\ub098": 23252, "\uba38\ub77c\uace0": 26918, "\ucf00\uc5b4": 27311, "\ud798\ub4e4\ub2e4": 12008, "##\ub0b4\uba74\uc11c": 26179, "\uc2e0\uc7ac\ubbfc": 17805, "##\ud83c\udf1f": 5285, "\ubc1c": 1485, "\ub36f": 846, "\uc45d": 2114, "##\ub9d0\uc758": 22334, "##\ube44\ub294": 11703, "##\ub0c5\uc2dc\ub2e4": 14627, "\uc870\uc131": 17138, "9": 28, "\ubd68": 1607, "##\uba49": 6143, "##\ub46c\ub77c": 12246, "##\ub4e4\uc778\ub370": 17476, "\uc778\uacf5": 14583, "\ub5a7": 1026, "\uc790\ud55c\ub2f9\uc5d0": 18073, "##\uc678\uc5d0": 26735, "\ubcf5\uad6c": 27001, "##\ubaa8\uc784": 22609, "##\ub9d0\uae4c": 25861, "\ub3c4\uc2dc": 11860, "##\ub2e4\ub978": 12141, "l": 77, "\ud154": 3147, "\uca95": 2763, "\ub300\ubb38": 25945, "\ud83d\udca2": 3790, "\ucbe8": 2821, "##\uca5d": 5187, "\ud314\uc544\uc11c": 15608, "\uac00\uc838": 9546, "\uc800\ub3c4": 10306, "\ub9c9\uc73c\uba74": 23904, "##\uace0\ub294": 22992, "\ubcf4\uc218\ub77c\ub294": 28196, "\ubc1f": 1488, "##\uc2e0\uc774": 10849, "\ud2b8\ub7fc\ud504\uac00": 11148, "##\uc810": 4213, "##\ucc28\ub85c": 17344, "\uc218\uac1c\ud45c": 29590, "##\uc544\uc774\uac00": 18067, "##\uc9c0\ub2c8": 11749, "\ub0a9\ub4dd": 15342, "\ubd88\ubc95": 8620, "\ud83d\udc65": 3742, "\uc740\uadfc": 15647, "##\ubc84\ub9bc": 20141, "\uc54a\uaca0\ub2e4": 22277, "\ub2a6": 760, "\ub098\uc624\uae30": 27590, "\uc720\uacf5": 14926, "\ub300\ub2f5": 12923, "\uc5c6\uc5d0": 26475, "##\ud560\uc9c0": 12094, "##\ub871": 5034, "##\ud0f1\uc774": 16784, "##\ub6f0": 4941, "\uc18c\ub9ac\ub97c": 10791, "\uc9d1\ud68c\ub294": 21828, "##\uce74": 4024, "\uc7ac\ubbf8": 10827, "\uae30\uc220\uc744": 23893, "\uc801\ubc18\ud558": 15776, "\ud654\uba74": 27485, "\uccd8": 2896, "\ub418\ub294\uac00": 26858, "##\ud83c\udfbc": 6787, "##\uac15\uac04": 13513, "##\ud1b3": 6789, "\uc6b0\ud68c": 24402, "\uc54c\uace0\ub098": 16528, "\ub0b4\ub9ac\uace0": 17539, "\uc774\uc6a9\ud560": 29861, "\ubc1b\uc544\uc57c\uc9c0": 15563, "##\ubcb8": 7362, "##\uc548\uc774": 10581, "##\ud83e\uddba": 7404, "##\uaf4a": 7592, "\uc774\uac74\uac00": 28636, "##\uce98": 7401, "\uc911\uad6d\uc5d0": 9209, "\uad75": 354, "\ud83d\ude4a": 3914, "##\u314e\u314e\u314e": 16292, "\ubc15\ud1b5": 15685, "##\ud558\uc57c": 24008, "##\ud83d\ude27": 4951, "\uacc4\uc138\uc694": 28056, "##\ubc95\ubb34": 20665, "##\uad6c\uba3c": 9828, "##\ud558\uc2dc\uc9c0": 20371, "##\ubfd0\uc778\ub370": 25862, "\ub9dd\ud558\uae38": 29338, "\ud55c\uc804": 15474, "\ub2e4\uc12f": 23887, "\ube44\ud589\uae30": 13075, "\uc774\ubc88\uc5d0\ub3c4": 15336, "##\uc270": 5419, "\ud638\ubc15": 27168, "##\uc0ac\ud56d": 14038, "\ub354\ub294": 23695, "\ubb34\uc8fc\ud0dd": 22337, "##\uc774\ud558": 17444, "##\uc171": 5249, "\ud130\uc9c4\ub2e4": 25141, "\uad6e": 349, "##\ub2de": 6256, "\uae30\uc0ac\ub85c": 14325, "\ubc14\ub014": 16834, "\uc54c\uaca0\ub2e4": 13869, "\uae30\ub2e4\ub9b4": 29925, "\ub418\uba74": 9576, "\ud558\ub294\uac78": 18854, "YTN": 24275, "\ucf1d": 3034, "##\ub410\ub294\ub370": 19115, "\uc7a9": 2496, "\uc548\ub098\uc628\ub2e4": 16006, "\ubc18\ubc15\uc744": 29929, "##\ud558\uc600\ub2e4": 27487, "##\ubd9a": 7761, "##\ucc3f": 5777, "##\uc774\ud574": 19462, "\ub9c8\ub828": 12191, "##\uc2dc\ucf30": 11285, "##\uc0ac\ub0d0": 14549, "\uc5b4\uae34": 27408, "\ube44\uac81": 13095, "##\uac83\uc778\uac00": 15720, "\ucacd": 2775, "##\ub294\uac70\ub2c8": 24998, "\ub17c\ub780": 11931, "\uc778\uc2dd": 13044, "##\uc9f0": 5179, "\ub418\ub294\uac8c": 15349, "\uc78a\uc744": 29663, "\ub5a0\ub4e4": 11488, "\ubc88\uc9c0\ub974": 27310, "##\ub21f": 7273, "##\uc737": 7933, "\uadf8\ub7ec\ub2e4\uac00": 21112, "\uac00\uc871\uc744": 16687, "\uc77c\ubcf8\uacfc\uc758": 23465, "\u3144": 185, "\uc2e0\uacbd": 9036, "\uc11d\uace0\ub300": 24607, "\uc830": 2552, "\uc6d0\uc778\uc774": 18300, "\uc0ac\uc57c": 20888, "\ud504\ub85c": 10419, "\ubb3c\uadc0\uc2e0": 28389, "\ub9e4\uac01": 29751, "70\ud504\ub85c": 28414, "##\uc838": 4413, "\ud569": 3367, "##\uc639": 5053, "##\uc0dd\uc544": 26258, "##\uc8fc\uc790": 13766, "##\ud83d\udd09": 7738, "\uac08\ucde8": 28745, "##\uc774\uc9c0\ub9cc": 10036, "##\ub2ec\ub77c": 10453, "3\ub9cc": 21419, "\uc8fc\uc758": 16918, "##\ubcf4\uc8e0": 27958, "\uc99d\uc624": 16511, "\ubcfc\ub54c\ub9c8\ub2e4": 22562, "\ubee4": 1727, "\ud3b8\ub4e4\uc5b4": 22399, "\ub9cc\ub4e0\uac8c": 22939, "##\ubbf8\ud5a5": 9565, "##\uccd0\uba39": 10516, "\uc800\uac78": 12196, "\ubc20": 1489, "##\ub09b": 7632, "##\uaf09": 7199, "\ub9cc\ub09c": 19788, "\ud6c4\uc5d0": 14180, "\ubbf8\uce58\uaca0\ub2e4": 21528, "\uc7a0\uc774\ub098": 23678, "\ud55c\uad6d\uc740": 9419, "\ucd1b\ubd88\uc774": 20269, "\ucb4c": 2798, "\ud6c4\uc190": 10543, "\uc9d6\ub294": 29538, "\uac10\uc815": 9969, "\uc9c1\uc6d0\ub4e4\uc774": 28655, "\ubc84\uc813\uc774": 20163, "\uc0b4\uc790": 13171, "##\ucd1d\ub9ac": 12743, "\uc9a3": 2682, "##\ubc84\ub838\ub2e4": 22148, "L": 45, "\ube44\ub9ac\uc640": 26923, "##\u2b50": 6281, "\uc798\ub09c": 12684, "\uc60c": 2291, "\uae40\ubb38": 16975, "\ubc0c": 1473, "\ud589": 3386, "\uae30\uc0ac\ub0b4\uc6a9": 26420, "##\uccd0\uc11c": 10067, "\uad58": 344, "\uad04": 326, "\uadf8\ub7f0\ub2e4\uace0": 16884, "\uc6b4\uc6b4\ud558\uba70": 23421, "\ud560\uc218\ub3c4": 23774, "\uc138\uacc4\uc801\uc73c\ub85c": 17322, "\uacc8": 298, "\ud758": 3519, "\uc0ac\ub9dd": 9182, "\ub098\uc654\ub124": 21267, "\ud83d\udc13": 3681, "\uc720\uad50": 26965, "##\uad00\ub3c4": 26883, "##\uc560\ub4e4\uc740": 12893, "##\ub974\uae30": 12080, "\ub0a8\uc558\ub2e4": 18866, "##\uc788\uc9c0\ub9cc": 25974, "##\uc5ec\ub77c": 11505, "\ud55c\ucc44": 23401, "##\uae02": 5610, "\ub7b5": 1146, "##\ud558\uad70": 20340, "\ube7c\ub77c": 24473, "##\ub12b": 7443, "\ub9de\ub2e4": 9843, "\uadf8\ub7f4\uc218\ub85d": 26716, "\ubd88\uc5b4": 22795, "\uc678\uad50\ub3c4": 25909, "##\ubb34\uc7a5": 25480, "\ub4b7": 937, "\ub664": 1068, "##\ub54c\ubd80\ud130": 11500, "\ud56d\uc77c": 24117, "\ub3a8": 866, "##\ud0dc\ub97c": 20088, "\uba38\uc9c0": 21577, "##\uac00\ud2bc": 19532, "\ud560\uc778": 19665, "\uc84c": 2564, "\uc9c0\uc778": 18235, "\uc544\uc8fc": 8279, "##\ud83c\udf1e": 6933, "\uc0ac\ubc95\uac1c\ud601": 15242, "\uc5b4\ub9ac\uc11d": 17902, "\ud615\ub7c9": 19476, "\ud560\uc218\uc788": 11962, "##ew": 28526, "\uc778\uac04\ub4e4\uc544": 13687, "##\ub9c8\uc2dc\uace0": 16736, "##\u263a": 5669, "\uc88c\ube68": 8272, "\ud310\ubb38": 27571, "\uc704\uae30": 11769, "\ubb34\uc5ed\uc804\uc7c1": 25773, "\ub9d0\ub358": 18967, "##\ud558\uc9c0\ub9d0\uace0": 9157, "\ub108\ubd80\ud130": 17507, "\uc2dc\uc9c4\ud551\uc774": 18909, "\uc0dd\uc0dd": 29382, "\uad6d\ubbfc\uc774\uace0": 28650, "##\uc0ac\uac74\uc744": 23916, "##\ub2d8\uc740": 11049, "##\ubb2b": 7834, "\uc798\ubabb\uc774": 13017, "##\ud83e\udd56": 7951, "\uc9d1\ub2e8\uc774\ub2e4": 21347, "\ub9de\uc9f1": 26389, "\ucd1f": 2915, "\uc23c": 1949, "\uce8c": 2994, "##\ube44": 4167, "\ubab0\ub77c\uc694": 19931, "\uccad\uc640\ub300\uc5d0": 13267, "\uad6d\uc81c\uc801": 19188, "##\ub8b0": 4257, "\ub54c\ub9ac": 19672, "\ub300\ucc45\uc740": 21208, "##\ub4e4\uc774\uc57c": 12683, "\ubd88\ub9cc\uc774": 22872, "\uc5b4\ub974\uc2e0": 12930, "##\ub465": 4547, "\uc7a3\ub300\ub97c": 27400, "##\uc2a4\ub7fd\uc2b5\ub2c8\ub2e4": 17256, "##\uc874\uc5c4": 27843, "\uc7ce": 2512, "\ub300\uc6b0\ub97c": 25628, "\uce74\uba54\ub77c": 14389, "\uaebd": 463, "\uc8fc52\uc2dc\uac04": 21294, "\ud560\uc904\uc544\ub294\uac8c": 22816, "\ubbf8\uad6d\uc5d0\uac8c": 25408, "##\u2696": 7831, "4\uc6d4\uc5d0": 28819, "\uc9c0\ud0a4\uae30": 20867, "\uc5bb\uc744": 22998, "\ucef4\ud4e8\ud130": 15513, "##\uaca0\ub2c8": 10527, "\uc51d": 2150, "##\ud1b1": 5760, "##\uac19\uc544\ub3c4": 23608, "##\uca98": 6546, "\u3148": 189, "s": 84, "\uc0ac\ud615\uc2dc\ucf1c\ub77c": 18324, "\ub098\ud0c0\ub098": 19001, "\ub04a": 560, "\ud488\uc808": 27356, "\uace0\ub85c": 16551, "##\ud558\uc9c0\ub294": 16036, "\ubc18\ub824": 18893, "\uc788\uc74c\uc744": 23915, "\uc77c\uad00\uc131": 28189, "\ud83d\ude85": 3920, "\ubb34\uc2a8\uc77c\uc774": 27914, "\uc774\ub4dd\uc744": 19872, "\uc650": 2324, "\ud314\uc544\ub77c": 28004, "\ubcf4\uc774\ub294\ub370": 14243, "##\ud654\ud559": 24689, "\ud0a4\ud2b8": 27431, "\uc548\ud588\ub2e4": 18373, "##\ub514\uc624": 15303, "\uc123": 1848, "\ub4a4\ub2a6\uac8c": 23067, "\uc88b\uaca0\ub124\uc694": 13604, "\uc904\uace0": 23606, "\uc5c6\uc744\uac70": 28406, "\ud488\uaca9": 20844, "\uc77c\ubcf8\ub188\ub4e4\uc774": 25731, "\ub300\uad6c\uc5d0\uc11c": 18114, "\ubaa8\uc2b5\uc744": 12709, "\ud3c9\ubc94": 13732, "##\ubbd5": 6323, "##\uc73c\ub85c\ub294": 11540, "\uc18d\ub3c4": 17284, "##\ud83e\uddb4": 7335, "\uac1c\ud601\uc758": 24501, "\ub41c\uac70\uc9c0": 25131, "##\uac8d": 6243, "\uac70\uc57c": 11127, "\uc9c0\ucf1c\ub77c": 19449, "\ud3ec\uae30\ud558\uace0": 18129, "\uc26c\uace0": 24351, "\ub2f9\uc5d0": 25363, "##\ub05d\ub098\uba74": 22370, "OOO\uc740": 26288, "\uc9c0\uc0c1": 18393, "\uc900\ube44": 9242, "\uc0ac\uc6a9\ud558\ub294": 20553, "\uc815\uacbd\uc2ec\uc774": 21140, "\ub879": 1216, "3\ub300": 15606, "\uc54c\uc218\uac00": 20164, "\uacbd\uc6b0": 9961, "\uce88": 2992, "\uc798\ubabb\ud558\uba74": 17820, "\uc2e4\ub4dc": 22045, "##\ub144\ub4e4\uc740": 28128, "\ubc29\ud574": 11366, "##\ub0d0\uace0": 9147, "\uac14": 212, "\ub418\ub3c4": 15194, "\ubaa8\uc790": 9393, "\ubabb\ubd24": 25896, "##\ub4e0\uc9c0": 9280, "\uc788\uc5c8\ub0d0": 21043, "##\uc6af": 6594, "##\ub9cc\ud07c\ub3c4": 22437, "\uc77c\ub300": 27542, "\uacf5\ud3ec": 12549, "\uc790\ubc1c": 12350, "\uc9c0\uc9c0\ud55c\ub2e4\uace0": 26203, "##\ub800": 4822, "\ub300\ud55c\ubbfc\uad6d": 8035, "\uac19\uc73c\ub2c8\uae4c": 27908, "\ub098\ub77c\uc57c": 19561, "\ubc28": 1496, "\uc78a": 2471, "\ubbf8\ucce4\ub2e4": 17208, "\uc218\uc775": 13179, "-": 16, "\ub098\uac00\ub9ac": 25872, "\ubc15\uadfc\ud61c\uac00": 10976, "##\ud83c\uddee": 7196, "##\uc77c\uc138": 11665, "\ud55c\uad6d\uc73c\ub85c": 17419, "##\ub9ab": 7538, "##\uacfc": 4128, "\uc778\uc815\ud558\uc9c0": 20008, "##\uad34\ub8b0": 26662, "##\ub838\ub2e4\ub294": 24239, "\ub420\uac78": 26859, "\uae27": 413, "\uc624\ub294": 12915, "\ub530\uae4c\ub9ac": 17247, "\uc2dc\uc791\ud588\ub2e4": 28011, "\ud3c9\ud654\ud1b5\uc77c": 29773, "##\uc9c4": 4153, "\ub9de\ub294\ub9d0\uc774": 28886, "\ube25": 1657, "\uc790\ub825\uac31": 25765, "\ub36e": 845, "\ucd94\ud55c": 15927, "##\ub294\uac70\ub294": 16778, "\uc560\ub97c": 12833, "##\ud587\ub2e4\uace0": 28902, "##\uc21c\uc2e4": 8933, "##\ubd09\uc1c4": 19913, "\ud638\ud669": 21844, "\uc0ac\ub78c\uacfc": 19651, "\uafc1": 528, "##\uc5bd": 5947, "##\uce60": 4933, "\uc774\uae30\uc801": 29044, "##\uad50\uc721\uc744": 19504, "\uc2e0\uc124": 28538, "##\ud565": 5404, "##\ud83d\ude09": 6014, "\ubd84\uc5f4": 9751, "##\uc5c6\ub098": 14171, "##\uaed1": 4916, "\uc815\uc801": 29969, "\ubd80\ub978": 20828, "\uae30\uc6b8": 16011, "##\ubc00": 4355, "\uc548\ud2f0": 22918, "\uc790\ub9ac\ub97c": 17916, "\ud83c\udf37": 3586, "##\ub77c\ub77c": 11808, "\uc5ed\ud48d": 16462, "\ud3c9\uc0dd\uc744": 18181, "\ud55c\uac74\ub370": 23880, "##\ub41c\uac74": 24154, "\uadf8\uc804\uc5d0": 18121, "\uc81c\ucd9c": 13693, "\ubbfc\uc6d0": 24853, "##\ud83e\udd5a": 6579, "##\uc5ad": 6195, "\uae54": 435, "##\ucc9c\ub9cc\uc6d0": 14939, "\ud83d\udd11": 3817, "##\uccd0\ub193\uace0": 26543, "##\ub0d0\u314b\u314b": 28113, "\ub5bb": 1035, "##\uae30\uc0ac\uc5d0": 24426, "\uc0ac\uac74\uc5d0": 20718, "\u2763": 159, "\uc555\ub825": 17977, "\uc758\ud574": 12548, "\ub313\uae00\ub3c4": 17506, "##\ub72c": 5543, "##\ud588\ub2e4\ub294\ub370": 23039, "##\uc5d8": 4390, "##\ub9d0\uc744": 10050, "\ubd80\ud328": 10729, "##\ub0b4\ub3c4": 25789, "##\uad6d\ubbfc\ub4e4\uc774": 17321, "\uac00\ub824": 12925, "\ud83d\ude10": 3865, "\uc804\uc804": 22880, "\uc933": 2653, "\ub3d9\uc548": 10921, "\uc870\uce58\ub97c": 17767, "\uc660\uc9c0": 17080, "##\u2764\ufe0f": 20742, "\uac00\ub9cc\ud788": 9232, "\uae30\uc0ac\uc758": 25657, "\uac15\uac04": 10148, "\uc2eb\uc5b4\ud558\ub294": 13414, "##\uc788\ub294\uac8c": 19231, "\ub178\uc219": 20225, "\ub5a0\uc624\ub974": 24053, "\uc548\uc911\uc5d0\ub3c4": 14624, "##\uc8f9": 5902, "\uc815\uad8c\uc744": 10360, "\uc2f6\ub124": 14618, "##\ub9dd\uc0c1": 20452, "##\ud55d": 6311, "\uc0ac\ub78c\uc0c8\ub07c": 29023, "\ubcf4\uc790": 10115, "##\uc568": 5062, "##\ud704": 7799, "\uc2dc\uc2dc": 23965, "\uc758\uc2dd\uc774": 28110, "\uc548\ud0c0\uae5d": 9267, "\uc798\ud558\ub124": 19472, "##\ud558\ub7b4": 28420, "##\uaf2d": 4843, "\ub7d0": 1153, "##\uc774\ub77c\uace0": 8113, "##\ud83c\udf5d": 7086, "##\uc8fc\ub2c8": 13678, "##\uce58\ub124": 12177, "\ubc30\uc6b4": 11898, "\ud574\uc92c": 18400, "\uacec": 309, "\ub3d9\uc0c1": 26950, "##\uac69": 6572, "##\uce59": 4911, "\uc7e4": 2519, "\ucd94\uacbd": 11392, "\uc0bc\uccad\uad50\uc721\ub300": 22135, "\ud560\ubcf5": 25642, "##\uac83\uac19\uc740\ub370": 18450, "\ubb38\uc744": 19825, "\ud45c\uae30": 28287, "\uc774\uc911\uc778\uaca9": 19058, "##\ud560\uc218\ubc16\uc5d0": 24759, "\uca29": 2742, "##\ucacd": 6547, "TK": 19482, "##\ub294\ub2e4\uba74": 23726, "\ub188\uc774\ub098": 27011, "\uad0c": 327, "\ud340": 3256, "##\ubc29\uc704": 20091, "\ub099": 588, "\ubd88\ub9e4": 8761, "\uc2dc\ub300\uac00": 13108, "##\uafc0": 4738, "\uc7a5\ubcf8": 19128, "##\ud83d\udc46": 7739, "##\ub2e8\uc2dd": 26614, "##\uc601\ud5a5": 22661, "##\uac10\uc0ac": 21713, "000": 13032, "##\ubc23": 6222, "##\uc9c0\ub294": 8195, "\uc2e0\uccad": 12572, "##\uad6c\ub9cc": 8237, "\uc76e": 2449, "\ubb38\uc7ac\uc778\uc774\ub294": 24972, "##\ub825\ub3c4": 14564, "##\uc778\uac04\ub4e4": 12464, "##\uc2a4\ub7ec": 13378, "##\uc0ce": 5737, "\ub4e0\ub4e0": 15657, "\uac1c\uac1c": 19753, "\ucc3d\ud53c\ud55c\uc904": 29193, "\ubcc0\ud654": 15958, "##\uc0c1\ud55c": 19222, "##\uc73c\ub098": 10410, "##\ud0c8\ucd9c": 22510, "\uac00\uc838\uac00": 28319, "##\ub783": 6561, "##\uc9c4\uc555": 26464, "\ub3c8\ubc8c\uc5b4": 21017, "\ub450\ub8e8\ud0b9": 26698, "\ub418\uc796\uc544": 16995, "##\ubc1c\uc5d0": 27502, "\uad6c\uccb4\uc801\uc73c\ub85c": 25349, "##\ub05d\uae4c\uc9c0": 28842, "\uacbd\ucc30\uc744": 21041, "\uc0ac\ubb34\uc2e4": 25969, "\uc57d\uc18d": 11393, "\ud638\uc8fc": 15021, "\uc570": 2200, "\uc778\ub3c4\uc801": 24003, "\ud3ed": 3295, "\uac1c\ub3fc\uc9c0\ub4e4\uc740": 14113, "##\ub1af": 7285, "\ub2f9\uc0ac": 12693, "##\uc0b4\uc778": 13084, "##\ubd9c": 5694, "\ucb20": 2790, "\uc7ac\uc559": 8317, "\ub098\ubab0\ub77c\ub77c": 16272, "\uc794\ub729": 17795, "\uc774\ub7f0\uc0ac\ub78c\uc774": 25552, "\ube44\uc2b7\ud55c": 12649, "##\ubcf4\uc790": 8742, "\uc801": 2524, "\uad6d\ubbfc\ud22c\ud45c": 21403, "\ubd10": 1586, "##\ub820": 6576, "##\uac19\uc9c0": 17363, "##\uc5f0\uc774": 18445, "##\ub0b4\ub193\uace0": 28433, "\ubabb\ubc30": 14267, "\uc2dc\uc6d0\ucc2e\uc744": 27963, "\uc548\uace0": 17447, "\ud088": 3097, "\ube44\uc2b7\ud558\uac8c": 24827, "\uac15\uc131": 18344, "\ucd9c\uc2e0\uc774": 22284, "\uc1dc": 1918, "\uc2e0": 2005, "##\ub354\ub77c\uba74": 20034, "##\ubcb5": 5494, "\uc0dd\uae34\uac8c": 24525, "\ubc14\ud0d5\uc73c\ub85c": 29764, "##\uce74\ud398": 13109, "\uc560\uac00": 11976, "##\ub824\uc57c\ud55c\ub2e4": 16754, "##\ub54c\ub9e4": 19271, "\ub6b7": 1080, "##\uce5c\uac70": 20347, "\uad70\ubd80": 18130, "\ubc18\uc131\uc774": 29432, "\ud0c8": 3111, "##\ud83d\udeb4": 6231, "##\uc3f5": 7816, "\ud034": 3079, "\uadfc\ucc98": 14205, "##\ud558\uc2dc\ub098\uc694": 21797, "##\uac48": 6855, "##\ubd95\uad34": 27194, "\uacb0\ub2e8": 21032, "\uc778\uac04\ub4e4\uc774\ub2e4": 24591, "\ud744": 3513, "##\ub4dc\ub294\ub370": 18424, "\ub8e1": 1234, "\ubd80\uc0b0\uc758": 29512, "\uc62c\ub77c\uac08": 22850, "\ubc1b\ub294\uac70": 25852, "\ubbf8\uad70": 9761, "\ud669\ub2f9\ud55c": 25404, "\ud558\uc2dc\ub294": 14440, "##\uc0b4\uc774": 12396, "##\ub098\ub77c\ub294": 17353, "\uac1c\uc2e0\uad50": 15651, "\ub0b4\ub824\ub77c": 19720, "\uba4d\ucda9": 20049, "\ub458\uc774": 11942, "\uac00\uad00\uc774\ub124": 25924, "\ubbfc\uc8fc\uc8fc\uc758": 8768, "\uc624\uac70\ub3c8": 29550, "\ubb38\uc81c\ub77c\uace0": 19794, "##\uc778\uc0ac": 11781, "\uadfc\uac70\ub3c4": 26374, "\ud569\ub2c8\ub2e4": 8422, "\ub5a0\ub4dc\ub294": 15627, "\uc788\uc744\uae4c\uc694": 17151, "[SEP]": 3, "\uc7ac\uc218\uc5c6\ub294": 20081, "##\u3139\u3131": 15793, "##\uc8fc\ub85c": 13890, "\uc9e7\uc740": 19365, "##\uc6a7": 5090, "\uc2eb\uc5b4\uc11c": 13881, "\ud55c\ub2e4\ub294\uac8c": 20501, "\uc7a5\uc790\uc5f0": 11991, "\uc137": 1861, "\ubfcc\ub9ac\uace0": 20931, "##\uccae": 7342, "\ud83e\udd34": 3962, "\ub300\ub2e8\ud788": 26104, "\ud799": 3539, "##\uc5be": 7924, "\uc6b0\uc880": 25081, "\ubc31\uc131": 14728, "\ub74c": 1105, "##\ubcf4\ub2e4": 8043, "\ubb34\uc2ac\ub9bc": 28344, "##\uc5f0": 4132, "\uc9d1\ub2e8": 8560, "##\ucc21": 6011, "\uc544\uc774\uad6c": 19014, "##\ub79c": 4885, "\ud3ed\uaca9": 22061, "\ubbf8\uad6d": 8057, "\uad70\uc778\uad8c": 26974, "\uc58c": 2215, "##\ub9d0\uc774": 8940, "\uc758\ub8cc\uc9c4": 9976, "\ud0c4\ud575\ud574\uc57c": 26604, "\ud6d7\ub0a0": 19123, "\ub9de\ub2e4\uba74": 29824, "##\ube91": 5922, "##\ud83d\udcaa": 5689, "\uac00\uc218": 16882, "\uad50\ud65c\uc544": 24419, "\uc9c0\ud61c": 18277, "\uc790\ud589": 21725, "\uc801\ud3d0\ub97c": 23352, "\ud0dd": 3120, "\uc318": 2042, "\uac8c\uc2dc": 18420, "\ud0dd\uc2dc\uac00": 29745, "\ubc1b\uc73c\uba74\uc11c": 18784, "\uc704\uc8fc\ub85c": 26391, "\ub838": 1190, "##\uc090": 4201, "##\uc9d5": 4609, "\ud560\uc9d3": 20228, "##\ube71": 6204, "119": 26275, "\ub81b": 1177, "##\ub9de\ucd94": 22349, "\ub0a0\uac15\ub3c4": 26653, "##\ud558\uaca0\ub124": 11990, "##\ud638\ub3c4": 28338, "##\ubd11": 7683, "\ub3d9\uc601\uc0c1": 13973, "\ub098\uc528": 18966, "\uc21c\uc2dd\uac04\uc5d0": 21979, "\ub122": 652, "\uc138\uae08\uc744": 10644, "##\ub300\uc11c": 19934, "##\uac00\uc871": 9225, "1\uac1c": 22426, "\uc0c1\uc2dd": 9240, "##\uc9c0\ub9d0\uc544\uc57c": 28964, "\ubd81\ud55c\ubcf4\ub2e4": 29626, "\uc5b4\uc9f8": 10821, "\uc124\uce58\uace0": 22639, "\uae30\uc0dd\ud558\ub294": 24445, "\ubc31\uc81c": 23862, "\uc2dc\ud5d8": 10897, "##\ub2e6": 5054, "\uc774\ub7ec\ub2e4": 12734, "\ub3c4\ubc30": 14465, "\uadf8\ub987": 14871, "\uc9c4\ub2e8": 11967, "\ub0c4\uc0c8\ub098\ub294": 24179, "##\uc5c6\uc774": 8281, "##\uba54\uc774": 25351, "\uc8d7\uac12": 26321, "\ud83c\udf3b": 3590, "##\ud83d\ude1c": 5938, "##\ub193\uad6c": 24640, "\ubd1f": 1591, "\uc5e1": 2261, "##\ucce4": 4261, "##\uc774\ub0d0": 8071, "##\uc0ac\uc77c": 8853, "\uc870\uae08\ub9cc": 12071, "\ub108\ub97c": 14669, "##\ud574\uc11c\ub294": 15053, "\uc2f8\uace0": 16380, "\uadf8\ubd84": 18038, "\ud558\uc9c0\ub9d0": 10784, "\ub3c4\ubc1c": 13802, "\ub418\ub2c8": 13996, "\ub17c\ubb38": 10744, "##\uc900\ub2e4\ub294": 25949, "\ub611\uac19\uc9c0": 27019, "\ud55c\ub2ec\uc5d0": 18503, "\ubc14\ub78c\uc5d0": 20473, "\ubd80\uc0b0\ub300": 21243, "\ub0a9\ud488": 20713, "\ud638\uce6d": 23028, "##\ud130": 4025, "\uacbd\uc81c\uc131\uc7a5\ub960": 29050, "##\ubaa8\uc544\uc11c": 29139, "\uac00\uc2dd": 18682, "\uc9d1\ud68c\uc5d0": 23690, "\uae46": 426, "##\uc705": 6438, "\uce05": 2957, "##\ub796": 5141, "##\ub2e4\ub154": 21074, "##\ub2d8\uc758": 12099, "##\ud5cc": 4769, "\uc758\ud574\uc11c": 24719, "##\u2660": 6959, "\uac80\ucc30\uc5d0": 13352, "\ub274\uc2a4\uac00": 18537, "\ud0c8\uc138": 18707, "\ud544\uc694\ub3c4": 19187, "##\ub2e4\uac00\ub294": 24712, "\uae30\ub3c4\ud569\ub2c8\ub2e4": 26144, "\uc548\uc4f0": 11535, "\ubc14\ub784": 17776, "##\uc704\uc5d0\uc11c": 18689, "##\uccb4\ub85c": 24956, "\uacc4\uc9d1": 21638, "\uad6d\uac1c\uc758\uc6d0\ub4e4": 26947, "\ubd88\ud589": 15207, "\ud669\uad50": 8350, "##\uc120\uc740": 18285, "\ub625\uc624\uc90c": 20836, "##\ub193\uc73c\uba74": 19060, "\uacf5\ubd80\ud574\uc11c": 23292, "\ubcf4\ub824\uace0": 27351, "\uc81c": 2545, "\uc9c0\uc624\uc601": 17453, "##\ubd84\uc57c": 18780, "##\uc2f4": 6150, "\uac1c\uc815\uc740\uc774": 22270, "\ubc1d\ud600\uc9c0\uba74": 24469, "##\u2705": 7460, "##\ub798\uae30\ub4e4": 22655, "\ub299\uc740": 11863, "\ubd80\ub52a": 27641, "\uac10\ub2f9": 12680, "\ud30c\ub3c4": 28718, "\ub354\ubd88\ub2f9": 12760, "\ud558\uc9c0\ub9c8\uc138\uc694": 19161, "\ub18d\uc5c5": 26586, "##\ub56c": 7590, "\uc8e8": 2617, "\uc774\ub2e4": 10861, "##\uba39\uc73c\uba74": 19527, "\uc0ac\ud68c\uc8fc\uc758": 8834, "\ub418\ub4e0": 29868, "\uc788\ub294\uac70\uace0": 28554, "##\ud71c": 6866, "##\uad85": 7681, "##\uce35\uc740": 18922, "\ud6c4\uc9c4\uad6d": 12607, "\uce58\uc790": 18899, "##\ubaa8\ub9ac": 28706, "\uc5f0\uae08": 11069, "\uc18d\uc740": 17582, "##\uad7b": 6525, "\uc134": 1858, "\uc3d8": 2088, "##\uc6d0\uc740": 10480, "\uc9dd\uc9dd": 17903, "\ud558\uccad": 18767, "##\ubb54\ub370": 25571, "\uca8c": 2761, "##\uc3d8": 5052, "\ubaa8\ub4e0\uac78": 13274, "\ud55c\ub140": 13474, "\ubbfc\uac04": 11217, "##\uc7a0": 4789, "##\uc184": 6674, "\uc2ec\ud558\ub124": 26082, "##\uadf8\ub7ec": 9475, "##\uce68\ud574": 22103, "##\ud590": 5155, "\ud574\uacb0": 8594, "##\uc2a4\ub7ec\uc6b8": 22355, "\uadf8\uc9c0": 10422, "\uc190\uc11d\ud76c\uac00": 27275, "\ucc43": 2854, "\uc6b0\uc120\uc774\ub2e4": 24779, "\uc778\uac04\ub4e4\uc774": 9559, "\uc9d1\uc5b4": 11570, "\ubb3c\uace0": 10043, "\uc8fd\ucc3d": 10163, "\uc9c4\uc2e4\uc774": 13609, "\uadf8\ub7f4\uc2f8": 26873, "\uc19d": 1902, "\uc0bc\uc131\uc740": 15307, "\uacf5\uc18c\uc2dc\ud6a8": 22176, "\uba00": 1328, "##\uc120\ud0dd": 18323, "\uac2d": 227, "\uac8a": 265, "##\ud515": 6587, "\ub274\uc2a4\ub85c": 25213, "\uc601\uad11": 22111, "##\uc0b4\uace0": 18454, "\ubb34\ub9ac\ud558\uac8c": 28257, "\ud55c\uad6d\uc778\uc744": 29438, "\uaeeb": 478, "\uc790\ub97c": 18523, "\ud278": 3195, "\uc218\uc5c6\uc774": 24962, "4\ucc28": 18383, "625": 13943, "\uc790\uc728": 18043, "##\ud0f0": 6736, "\uc120\uc804": 11627, "\uc815\ub3d9": 29692, "\ud655\uc2e4\ud558\uac8c": 13576, "##\ub300\ud611": 24036, "\uc5b4\uadf8\ub85c": 18902, "\uc817": 2541, "\ud798\ub4e4\uc5b4\uc694": 27549, "\uc8f1": 2619, "##\ud488\uc774": 22648, "\ub9e4\uad6d\ub178\uac00": 28181, "##\uccb4\ub958": 21661, "##\uc717": 4643, "\uc81c\uc815\uc2e0\uc774": 14030, "\uadf8\ub294": 20048, "\ucd5c": 2925, "\ubcfc\uc218\ub85d": 29690, "\uc8c4\uc5c6\ub294": 14834, "\uc790\uc720": 8133, "\uae4b": 430, "\uc548\uac78": 14763, "##\uc9c0\uae38": 19064, "\uc0ac\ud615\uc2dc\ucf1c\uc57c": 24524, "##\uc903": 7704, "\ud48d\ub144": 17276, "\ub0b4\ud33d": 24243, "6": 25, "\uc790\uad6d\ubbfc\uc774": 24480, "\ucc45\uc784\uc9c0\ub294": 22083, "\ucd5c\uc18c": 9091, "\uaf2d\ub450\uac01": 18671, "\uc5b8\ub860\ub4e4\uc774": 21124, "\uc804\uc138\uacc4": 9116, "##\ubd80\uc815": 14566, "\uae30\uc900\uc744": 24178, "\ud83d\udd09": 3815, "##\ud558\uad6c\ub098": 13442, "\uc950\uc0c8\ub07c": 18238, "82": 27712, "\uc0b4\uc774": 28798, "##\ucc3e\uc544": 18496, "\uacf5\ubd80\uc880": 19383, "##00": 8040, "##\ud558\ub294\uac83\ub3c4": 12932, "\ud83d\ude91": 3921, "\uc601\uacf5": 28306, "\uca54\uca54": 26423, "51": 29030, "\ubca0\uc2a4\ud2b8": 21923, "\ubcf4\ub098": 16373, "##\ub6ab": 4848, "##\ud588\uc5c8\ub294\ub370": 20014, "\ub0c4": 613, "\ub098\ub984": 13715, "##\uc3f1": 6987, "##\uad34": 4596, "##\ub744": 5463, "\uc785\uc774\ub77c\uace0": 25151, "\ub3f4": 888, "\uc2a8": 1985, "##\ub313": 4632, "\ub2e4\ub974\ub2e4\uace0": 22098, "\uc0e1": 1824, "##\ubd80\ub294": 11090, "##\uc6b4\uc6b4": 17085, "\uace0\uc2a4\ud1b1": 17760, "\ub3c4\ub355\uc801": 20616, "\ud1a0\ucc29\uc65c\uad6c\ub4e4\uc774": 21021, "##\uc99d\uac70": 18404, "##\uad00\uacc4\uac00": 18655, "\ud0dc\uc6cc": 18978, "\ud608\uc548": 22461, "\ub204\uad6c\ub3c4": 15059, "\ub960": 1258, "\uc9d0\uc791": 24366, "\uc218\uc0ac\uac00": 18086, "\ub0ab\uc9c0": 13595, "\ubc29\uc9c0": 21474, "##\uc9c0\ub294\uac8c": 20692, "\uc228\uae38": 24811, "\uc138\uc0c1\uc758": 23015, "\uacf5\uac1c\ud558\uba74": 25915, "##\ud560\uaed8": 21968, "\uc218\uc7a5": 13533, "##\ucdc1": 7349, "\uc7ac\uc870\uc0ac": 22398, "\uc788\uc5c8\ub098": 16981, "\uc7ac\ub09c": 10411, "##\uc2a4\ud0c0": 12115, "\uc0cf": 1813, "\uc815\uc2e0\uc880": 12924, "\uc21c\uc704": 23644, "##\uc2ef": 4975, "\ubdf1": 1642, "\ud720": 3506, "\ud5cc\ubc95": 9920, "\ud639\uc740": 14253, "\ub9c9\ubb34\uac00": 23355, "\ub545\uc5d0\uc11c": 24592, "\ud654\ud3d0": 25582, "\uae38\uc744": 14677, "\uc790\ub140\ub4e4": 24999, "\ud83c\udf8b": 3637, "##\uc84b\ub124": 29370, "\uc62f": 2306, "##\uaca8\ub3c4": 26210, "##\ub9de\ub0d0": 29792, "\uacc4\uae30\ub85c": 23049, "\uac81\ub2c8\ub2e4": 10310, "\uc6d0\uc815": 26837, "##\uac14\uc73c\uba74": 22200, "\ub648": 1067, "##\uc654\ub2e4\uace0": 24682, "##\uad76": 5368, "##\uacbd\ud654": 20087, "\uc5ec\uc801\uc8c4": 29589, "##\uac74\uc744": 26234, "1\uc6d4": 18548, "\ub9df": 1310, "\ud83d\udd2a": 3825, "\uc788\uc74c": 9092, "##\ud2b1": 7673, "[CLS]": 2, "\ud544": 3346, "##\uc0e0": 4960, "\uc544\ub2c8\ub0d0": 8543, "\uc88c\uc880": 9512, "\uacb0\uacfc\uac00": 12300, "\uc528\ubd80\ub9ac\ub294": 22431, "\uc544\ub2c8\uc796\uc544": 13439, "##\ubcbd": 5037, "\uc8fc\ud55c\ubbf8\uad70": 13673, "##\ub4e4\ub07c\ub9ac": 15325, "\ubb34\uc12d\uace0": 20886, "\ucd08\ub529\ub3c4": 21916, "\uc5c6\uc5b4\uc9c0\ub294": 27856, "\uad6c\ub77c\ub97c": 27214, "\ubab0\uc544\ub0b4\uace0": 24436, "\uc54c\uc544\ub77c": 12146, "\uc0ac\uc815": 17810, "\uc804\ud600": 9111, "\ub944": 1253, "##\uc790\ub0d0": 22926, "\ubd88\ub800": 20238, "##\uc580": 5132, "\ud17c": 3156, "\ub178\uc778": 9557, "\uafbf": 526, "##\ubc30\uac00": 15482, "\ud83c\udf44": 3599, "\ub3d9\ub0a8\uc544": 11763, "\ub300\uae68\ubb38": 8290, "##\ud83d\udc90": 5653, "\ubb3c\ub7ec\ub098\ub77c": 14745, "\uac15\uc555": 25193, "##\ub0c7": 5733, "\ubb34\uc12d\ub2e4": 10900, "\uc774\ub7f0\uac70": 9746, "##\ud615\uc744": 16964, "##\ub314": 5148, "##\uac83\uc774": 8325, "##\ud1b5\ud569": 11100, "\uc9c8\ubcd1": 13125, "##\ubae0": 7297, "\uc774\uc0c1\ub3c4": 26281, "\uc104": 1840, "##\uc6d0\uc9dc\ub9ac": 24095, "\ub098\ub77c\uac71\uc815": 27902, "##\ud83d\udc40": 7378, "##\ubda0": 6710, "\ucd1b\ubd88\ub85c": 17558, "\ud55c\ubc18\ub3c4\ub97c": 28775, "\uc138": 1862, "\uacfc\uac70\uc5d0": 15173, "\ub3c8\ubc8c\uc774": 21793, "##\uc544\uc774": 10733, "\ub2f9\ub098\ub77c": 21084, "\ubabb\ubcf4": 18330, "\uc5ff": 2280, "\ubab0\uc0c1\uc2dd": 24415, "\ub2f9\uc2e0\ub3c4": 13837, "\uc900\ub2e4\ub294": 28028, "\uc544\ub2c8\ub77c\ub3c4": 25247, "##\ud83d\udc4c": 5146, "##\uc8fc\uc81c\uc5d0": 15450, "\uc798\ud558\uc9c0": 21350, "\ucc14\ub7ec": 18088, "\ubc18\ubc15": 11165, "\uc544\uc791": 14755, "\uce21": 2962, "\uc911\ub300\ud55c": 25632, "##\uc138": 4066, "##\uc641": 5773, "\ub2e4\uc2a4": 13477, "##\uc8f4": 7115, "\uc601\uc7a5": 14437, "\uacfc\uc789": 19267, "\uc9c0\uae08\ubd80\ud130": 17813, "\uc7e4\ub124": 15876, "\ubbb4": 1450, "##\ub01d": 6293, "com": 29915, "\uc5b4\uc9c0\uac04\ud788": 16967, "\uc774\ub150\uc5d0": 27883, "##\uadf8": 4313, "\ub0b4\ubab0": 22503, "\ud560\ub54c\ub294": 23217, "##\uc815\ubd80\ub294": 11209, "##\ub9ac\ub294\uac74": 16634, "##\ub215": 5698, "\ubc14\ubcf4": 8723, "\ubbf8\uce5c\uc9d3": 21792, "\uc544\ub2d9\ub2c8\ub2e4": 9706, "\ud55c\uad6d\uc758": 10297, "\ud558\ub098\ud22c\uc5b4": 28130, "##\ub4dc\ub0d0": 14542, "\ud401": 3301, "##\uc2dc\ub294\uc9c0": 27868, "\ub3c5\uc7ac\uc815\uad8c": 15226, "##\uc8fc\ud0dd": 10597, "##\uac83": 4161, "\uace0\uc9d1": 11280, "\uc0c1\ud0dc\ub85c": 25243, "\ub108\ub124\ub4e4\uc740": 28977, "##\ud83c\udf7b": 6704, "##\uc819": 6700, "##\uc148": 4602, "##\ub0b4": 4292, "##\ud1a0\ub860": 19517, "\uc815\ucc45\uc5d0": 21499, "\ud55c\uac70\uc57c": 24485, "\uac19\ub2e4\ub294": 25194, "\uc800\uaca9": 25255, "##\ud558\uc2e0\ubd84": 28791, "\uc479": 2121, "##\ub2f9\uacfc": 12021, "\ud070\uc77c\uc774\ub2e4": 17798, "\ubc18\ucc2c": 27802, "\ub49d": 933, "##\ub9bd\ub2c8\ub2e4": 9740, "\ub9ce\uc740": 8298, "\ub0a8\ubbf8": 28620, "\uc911\uc694\ud55c\uac8c": 17173, "##\ub300\ud1b5\ub839\uc740": 21886, "\uc788\uaca0\uc8e0": 28938, "\uc774\ub7ec": 8335, "##\ubd10\uc57c\uc9c0": 18715, "\uc6b0\ub9ac\ud3b8": 24397, "\ub54c\ub3c4": 14107, "\uad73\uc774": 10033, "\uc54c\ub824\uc8fc": 21354, "\uac8c": 267, "\uccb4\ud06c": 17481, "\ubd81\ud55c\uc774\ub791": 16745, "\ubaa8\ub974": 8049, "\uc218\uc5c5": 12844, "\uc5bc\ub978": 13002, "\uc815\uce58\ub294": 12789, "\uc54c\uace0\uc788": 17161, "\uc591\uc2ec\uc740": 18926, "\ub3fc\uc9c0\ub4e4": 21308, "\uba55": 1356, "\uc5cd": 2252, "##\ub4e4\uc774": 7967, "\ub0a8\uc131\uc774": 29636, "\uc8fd\uc5b4\uc57c": 14146, "##\uc0b4\ub9bc": 22675, "\ucd1d\uc120\uc744": 24088, "\uc2dc\uc704\ub97c": 25099, "##\ub5b5": 5477, "\ub2d9": 776, "\ub2f5\ub3c4": 23406, "##\uad2d": 5305, "\ub3cc\uc544\uc624": 15936, "##\uc57d": 4169, "##\ud54c": 6542, "\uc5c6\uc5b4\uc9c8": 17012, "\uc9c0\uc131": 17466, "##\ub450\ub85c": 17756, "\uc815\uce58\uc778\uc774": 13695, "\ucc3d\uc758": 25690, "\uc601\uc138": 21455, "##\uc0c9\ud788": 12274, "##\ub300\uc811": 19192, "\uc548\uc911": 22827, "\ubda0": 1630, "\uc5c6\uad6c\ub9cc": 19902, "##\uc790\ub77c": 14370, "##\ubc00\uc5b4": 27820, "\uc624\ubc14": 14236, "\uae40\ub3fc\uc9c0": 25461, "##\ubcd1\uc774": 15816, "\ubbf8\ub2ec": 25139, "\uac00\ub9cc\uc788": 27337, "\ubc18\ub300\ud558\uba74": 23054, "##\uc790\ub4e4\uc744": 13348, "\ud83d\ude19": 3874, "\ud314\uc544\uba39\ub294": 20029, "\ub530\ubc15\ub530\ubc15": 29181, "\uc555\uc2b9": 16914, "##\ud30c": 4129, "##\ud575": 4060, "##\uc804\ud658": 15980, "\ub840": 1195, "\ucda5": 2939, "\uc5ec\ud0dc\uae4c\uc9c0": 24602, "\uc7ac\uae30": 29968, "\uc9c4\uc2ec": 8905, "##\uc544\ub2c8\ub2e4": 11739, "\uc7a0\uc218": 18087, "##\ubf09": 5872, "\uaca8\uc6b8": 15509, "##\ube44\uc790": 24822, "\uac00\ub9ac": 15448, "\uc989": 2674, "##\uc784\uae08": 9183, "\ud3ed\ub3d9": 11348, "\ubc8c\ub808": 10525, "##\ub9ac\uc2a4": 14946, "##\ube68": 4640, "##is": 21539, "##\uc560\uae30": 26981, "\ud558\uc2dc\uace0": 15104, "\ucc9c\ubc8c": 10650, "##\uac8c\ud558\uace0": 18654, "##\ud560\ub54c\ub9c8\ub2e4": 28103, "\uc6c3\uace0": 12339, "\ucf54\ub85c\ub098": 8184, "\ud55c\uad6d\uc5d0\uc11c": 10491, "##\ubdf1": 6930, "\uadf8\ub807\ub2e4": 12120, "\ub09c\ub9ac\ub124": 20315, "\ub450\ub8e8": 28896, "##\uceaa": 7492, "\ud329\ud2b8": 8636, "\uc638": 2313, "\ud558\uc9c0\ub9d0\uace0": 9509, "\uaf64": 513, "##\ud68d": 4621, "##\ub544": 6570, "##i": 4178, "##\ub541": 6962, "\uc751\ub2f5": 17764, "##\uc18c\ub9ac\uc57c": 25679, "##\ud83d\udcb5": 7379, "\uc5ed\uc0ac\uc758": 14915, "\uac8d": 268, "##ea": 23480, "\ubd80\ubd80\uac00": 20094, "##\uadf8\ub0e5": 13223, "\uac10\uc131\ud314": 23869, "##\ud55c\uac00\uc9c0": 29680, "##\uce61": 7770, "\ub2f9\uc2e0\ub4e4\uc740": 15297, "\ub9d0\ubc14\uafb8": 21665, "\uc555\ub958": 26102, "\uc618": 2293, "##\u2714": 6035, "\uc790\uc2dd\uc5d0\uac8c": 29475, "\ud544\uc694\ud558\uba74": 27669, "##\ub561": 4927, "##\ud558\uac00": 26519, "\ub2c8\ub538": 29553, "\uc80b": 2532, "\uc608\uc758": 13965, "##5\ub144": 15374, "\ud83c\udf46": 3601, "\ub9ce\ub2e4\uace0": 16875, "\uc815\uc758\ub85c\uc6b4\ucc99": 19971, "##\uac00\uba74\uc11c": 11983, "\ucd5c\uc131": 20882, "\ub7c4": 1149, "##\ub178\ubb34": 13841, "\ubc94": 1535, "\uc778\ubbfc": 9653, "\ud83d\ude34": 3900, "\ud558\ub294\uac83": 11448, "\uacfc\ud0dc": 29551, "\ub0a8": 598, "\uacf5\ubd80\ub97c": 18882, "\uc774\ud0c8": 12421, "\ub2e4\ubb3c": 14727, "\uc235": 1947, "##\uac00\ub2a5\ud55c": 24000, "\ub1cc\uc5d0": 18883, "\uc5b5\ub300": 26929, "\uc5d0\uc11c": 11614, "\uaf90": 518, "\ub9d0\ucc98\ub7fc": 25784, "\ud53c\ud574": 8221, "\ub2e4\uc74c": 8424, "\uc0ac\uba85": 22360, "##\uae61\ud328": 25446, "\uc50c\uc6b0\uace0": 28294, "\ube75\uc5d0": 19316, "##\ud6e4": 5205, "\uc807": 2528, "\uc5b4\ub978\uc774": 23638, "##\uc6b4\uc774": 22368, "\ube75\ube75": 25807, "\ucbb9": 2811, "##\ud58c": 4942, "\ub9de\uc740": 17727, "##\ubd80\ub7ad": 17556, "##\uc5c4\ub9c8": 13363, "\uc5b4\ubc84": 18688, "##\uc778\uac70\ub2e4": 18495, "\uc544\ub984\ub2e4\uc6b4": 17437, "\uae30\uc5b4\ub4e4\uc5b4": 22027, "\ubd80\uc871\ud574\uc11c": 24875, "\ub098\ub77c\uc5d0\uc11c": 9854, "\ub3c5\ub9bd\uc744": 26811, "\uc2f6\uc73c\uba74": 12382, "\uc548\uadf8\ub7f0": 28953, "\uc8fc\ubcc0\uc5d0": 12298, "\ud391": 3271, "##\ud588\ub294\uc9c0": 10501, "\ub0a8\uacbd": 20274, "##\ud68c\ubcf5": 25223, "\uc5ed\ucc28\ubcc4": 26372, "\uc695\ud574\ub3c4": 27117, "\uc0b4\uc5b4\ub77c": 29661, "\ub354\ub354\uc6b1": 15616, "##\ud83e\udd74": 7298, "##\ud560\uac70\uace0": 26270, "\ud574\uc904": 13750, "\uac15\uc6d0\ub3c4": 16316, "\ud83c\udf4f": 3609, "\ub05d\ub0ac\ub2e4": 16829, "\ubb34\uc2dd\ud558\uac8c": 24833, "\uc9f1\uae68\ub294": 25989, "\uc32c": 2049, "\ucf37": 3042, "##\ud589\ub3d9": 12644, "\ud1b5\ud574\uc11c": 15963, "\ubc99": 1538, "\uc5ca\uadf8\uc81c": 26827, "##\uc778\uc758": 9655, "##\uace0\uc2f6\ub0d0": 27755, "\ub9cc\ub4e4\uc5b4": 8251, "\uc0ac\uc9c0": 17601, "\ub3c4\uc694": 22159, "\uc218\uc0ac\uad8c": 16475, "##\ubd80\ud0c1": 19579, "\ube60\uc9c0\uace0": 25581, "\ubc14\uc774\ub7ec\uc2a4\uac00": 16851, "##\uc774\ub7ec\uc2a4\ub85c": 28639, "\ubd80\ub3c4": 15386, "\ucdb4": 2944, "##\uac16": 5051, "\uc0ac\uc8c4": 10850, "##\uc120\uc744": 10909, "\uacbd\ub825": 20445, "\uc131\ud3ed\ub825": 20476, "\ub5a0\ub294": 22617, "\ud574\uba39": 12740, "\uc5f4\ubc1b\uc544": 25391, "\uc0ac\ub78c\uc774\ub77c\uba74": 19359, "##\uc6b4\ub3d9\uad8c": 28317, "##\uc815\ud558\uace0": 13156, "##\ud83d\udc9c\ud83d\udc9c": 23030, "\uc788\uaca0\uc9c0": 13791, "\uac00\ubcf4": 25878, "\uc785\ubc95": 15341, "\ubc18\ub300\ub85c": 11943, "\uc77c\uc744": 9231, "\u263a": 123, "##\uc548": 4061, "\uc2f8\ub3cc\uc544": 18901, "##\uae38": 4583, "\ub098\uc624\ub2c8": 18168, "\uc0ac\uad50\uc721": 23995, "##\uc2dc\uae4c\uc9c0": 29185, "\ubd80\ubd84\uc774": 19214, "\uc544\ub7ab": 16585, "\ub2e4\ub2c8\ub2e4": 29053, "##\ub877": 6695, "##\ud53c\uc15c": 16035, "##\uc548\uc740": 22138, "\uc549\uc544\uc788\ub124": 29391, "##\uc0b0\ubb3c": 17709, "##\uc138\ub97c": 11067, "\ub850": 1198, "\uc75c": 2444, "##\ub124": 4011, "2\ub144": 9378, "\ud798\ub4e4\ub2e4\uace0": 19109, "\ub0a8\uae30": 24168, "##\uc558\ub294\ub370": 10290, "##\uc698": 4956, "\ub8b4": 1226, "5\ubd84": 26223, "\ubb54\uc18c\ub9ac\uc57c": 27934, "\uc4f0\uae30": 25912, "\ub355": 833, "\uc0ac\uc2dc": 12522, "\ud328\ud134": 28005, "##\ud574\ubcf4\uc778\ub2e4": 26690, "##\uc558\uace0": 18068, "\uc138\uacc4\ub97c": 22572, "\ubc14\uc9c0": 22721, "##\ucf14": 5227, "##\ud83d\udc75": 7703, "\uc411": 2106, "\ucd1d\uc120\uc5d0": 14318, "\ud3ed\ub4f1": 12480, "\ud600\ub97c": 24799, "##\ud2a4": 6424, "\uc99d\uac70\ub2e4": 26149, "\ub6a3": 1075, "\ubb34\uac1c\ub150": 16518, "##\uc7c1\uc774\ub4e4": 18622, "##\ud83d\udc1b": 7077, "\ub188\uc544": 17303, "\uba3c\ub370": 25546, "##\ud588\uc744\ub54c": 16413, "\ubc61": 1523, "\uc5f4\ubd88": 22843, "##\uc804\uc744": 15031, "\ucef5": 3016, "\ubc30\uac00": 14650, "##\uc587": 5944, "\uacbd\uacc4": 16313, "##\uc7a5\uae30": 25095, "\uc870\uc6d0\uc9c4": 20678, "##\uc7a1": 4670, "\ub450\uaecd": 21238, "\uc870\uc2ec": 9583, "\ub871": 1209, "##\uc784": 4252, "\uc800\ub7ec\ub294": 23587, "\u23ea": 108, "\uac78\ub9ac\uace0": 21907, "\uad6d\ud68c\uc758\uc6d0\ub4e4\uc740": 26857, "\ubcf4\ubcf5": 10667, "##\uc628\ub2e4\uace0": 22811, "##\ub300\uc911": 9772, "\uacf5\uae30\uccad\uc815": 21750, "\uc5c6\uc744\uae4c": 23552, "\uc9c4\ubcf4\uc758": 20344, "##\uba00": 5830, "\uc3f1": 2097, "\ub985": 1268, "##\ub294": 4008, "\ub974\ub178": 24341, "\ubc14\ub978\ub9d0": 15114, "##\uac00\ub0d0": 12423, "##\ucc28\uac8c": 18701, "\ub028": 555, "\uc544\uc774\ub3cc": 16850, "##\ud83d\udc07": 6996, "##\uc794": 4571, "##\uac83\ub4e4\uc544": 14061, "##\ud83d\udca1": 7179, "\ub524": 980, "\ubb50\uace0": 13272, "\uad6d\uac00\uc548\ubcf4": 24571, "\uc774\uc0c1\uc758": 19915, "##\uc77c\ubfd0\uc774\ub2e4": 18915, "\ub9de\ub294\ub9d0": 10928, "\ub31c": 824, "##\uc18c\uc5d0\uc11c": 14183, "\ud3b8\uc548": 20439, "\ub54c\ub9c8\ub2e4": 19508, "##\uc9a8": 6344, "\ub9d0\uace0\ub3c4": 29627, "\ub2e8\uc9c0": 13283, "##\ubd87": 5690, "\ub450\ub835": 13848, "\uc9c0\ub2a5\uc774": 17291, "\uc2dc\uccad": 11585, "\uc120\ub3d9\ub2f9": 28282, "##\ud83c\udf29": 7852, "\ud588\uc5b4\ub3c4": 21517, "\ud55c\ub9c8\ub9ac": 18369, "##\ube60\uc9c0\uac8c": 19242, "##\ud648": 5403, "##\uce58": 4077, "\uadf8\ub798\uc11c": 8291, "##\uc2a4\ucef4": 27134, "\uac00\ub46c": 18205, "\uad6d\uae30": 28967, "\ubc31\ub0a0": 17027, "\ud558\uaca0\ub2e4\ub294": 16392, "\ubfcd": 1760, "##\uc9d3\uac70\ub9ac": 10283, "\ub108\uac19\uc774": 25578, "##\uc544\uc9c0": 10429, "\uc4f0\ub808\uae30\ub2e4": 20410, "\uc2dc\ubbfc\uc744": 27513, "\ub420": 903, "##\uc0dd\uac01\uc744": 16881, "\ud55e": 3356, "##\uc4f0\ub294\uac70": 26419, "##\ubac4": 5821, "\ucc3e\uc544\ubd10\ub77c": 27441, "\ubabb\ud558\uace0": 8786, "\uc544\ub2c8\uc5c8\ub098": 23053, "\uc70c": 2401, "\uc7c8": 2509, "\uac70\uc808": 17402, "\ud2b9\ud788\ub098": 29815, "##\uae0e": 7533, "##\uc720\uc758": 20942, "##\uc8fd\uc778": 27870, "##\uba3a": 7049, "\ubd80\uc5c9": 15897, "\uc885\uc774": 18317, "\ubcc0\uae30": 29710, "\uc2f6": 2025, "\uc880": 2581, "\ubc14\ud034": 12107, "\ub4e4\ub77d": 28643, "##\ub7fd\ub124": 22366, "\ub2f9\ud588\ub2e4": 26335, "##\ubbf8\uce5c": 17285, "\uc774\uc57c\uae30\ub97c": 18200, "\uc368\uae00": 24702, "##\ubcd1\uc744": 21557, "\uc6d0\uc778": 12400, "\uac00\uc9c0\uba74": 27557, "##\ud138\uc774": 29811, "##\ub531\uc9c0": 27120, "\ub19c": 702, "##\ube44\ub9ac": 10456, "\ub354\ubd88\uc5b4\ubbfc\uc8fc": 24343, "\ubef4": 1733, "##\uac49": 7395, "##\ub9de\uc740": 20908, "##\ud569\uc2dc\ub2e4": 9265, "##\ub4f1\uae09": 15362, "\ud83c\udd98": 3546, "\ubd88\uac00\ub2a5": 11464, "##\u26cf": 6863, "\uce58\ub904": 24302, "\ubb50": 1427, "\uac83\uc774\uba70": 28944, "##\uad0c": 6442, "\uc0ac\ub78c\uc774\uace0": 27045, "\ud83d\udc44": 3721, "\ubb34\ub108\uc9c4": 24189, "\uc704\ud574": 8355, "\ud559\uc0dd\ub4e4\uc744": 26606, "\u3139\u3147": 11844, "##\uc73c\ub77c": 11856, "\uc774\ubd80": 26793, "##8": 4521, "\ube44\uad50\ud558\ub294": 29304, "\uae40\uc77c\uc131": 10819, "\uc911\uc694\ud558\ub0d0": 21442, "\uae1c": 412, "\ub098\uc624\ub0d0": 13903, "##\ud234": 5999, "##\ub4dc\ub77c": 12523, "\ubb38\uc81c\uac00": 8732, "##\uc5ba": 6882, "\ub331": 829, "\ube75": 1692, "##\ud83d\udcb0": 6177, "##\uce58\ub3c4": 14120, "\uc778\uc885": 13712, "##\uc774\uae38": 28101, "##\ubba5": 7573, "##\uc9ec": 5811, "\uc5f0\uacb0": 12980, "\ub3c8\uc758": 27389, "\u314a": 191, "\ub0ab\uaca0\ub2e4": 22772, "##\uc918": 4419, "\uc5c6\uc5b4": 8354, "##\uc2dc\ub85c": 29061, "\u2b50": 169, "##\uaca0\uc74c": 14129, "\ucd1d\uc7a5": 9834, "\ub3c4\ud0dc": 19695, "##\ub4e4\ubcf4\ub2e4": 19687, "##\uac83\uc774\ub2c8": 27530, "\uc0ac\uae30\uafbc\uc774": 28033, "##\ud734\uac00": 26221, "\ud608\uc138\ub85c": 17979, "\ub148": 674, "\uc2f6\uc5b4\ub3c4": 19275, "\ub0b4\ub9b0": 18174, "##\ub418\ub124\uc694": 19436, "##\ub79c\ub2e4": 22604, "\ub418\ub294\ub370": 10458, "\ube7d": 1696, "##\uc774\ub77c\uba74": 8974, "\uc2dc\ud0a4\ub294": 12187, "\uc138\uc6b0": 15099, "\ubabb\ubbff": 13511, "\uc804\uc561": 21950, "##\uc53b": 5020, "\ub098\ubd88": 10464, "##\uc5b4\uc57c": 8164, "##\ubc9e": 5177, "\uc774\ubc88\uc5d0\ub294": 14485, "\uc548\ud574\uc8fc": 23527, "##\ud558\ub824\ub2e4": 25503, "\ub3c8\uc904": 28850, "\uc8fc\uc785": 24396, "\ucc2c\uc591": 10649, "\ub2c8\ubbf8": 15682, "\uc5b4\ub5a8": 12824, "\ub178\uc870": 9145, "\uae40\uac74\ubaa8": 19298, "\uc8fc\ubcc0\uad6d": 25885, "##\uaca9\ub9ac": 11586, "\uc889": 2590, "##\u2620": 6089, "##\uc5c8\uc796\uc544": 24267, "##\uac74\uc9c0": 8580, "\ub837": 1189, "\ud64d\ubcf4": 11896, "\ub9d0\uc500\uc774": 23377, "\uc560\ucd08": 9323, "##\uc8fd\uc744": 26455, "\uc11c\uc6b8\ub85c": 29834, "\uc286": 1974, "\uc624\uac8c": 27482, "\ub05d\uc774\ub2e4": 18846, "\ubc84\ub838": 18789, "\uba4b\uc9c0\ub2e4": 17679, "\ud588\uc9c0": 12018, "\ubc14\ub978": 9928, "##\uc815\uce58\ub97c": 21942, "\ub178\ub825\ud558\ub294": 23941, "\uae30\ubcf8\ub3c4": 24060, "##\uc791\uc804": 23213, "\uc548\ubcf4\uc774\ub294": 25939, "##\ucd5d": 5591, "##\ud2f0\ube0c": 26724, "##\ub838\uace0": 27193, "\uc81c1": 12218, "##\uc168\ub098": 16388, "\uc774\uc0c9": 22999, "##\uc718": 6118, "\ubbe0": 1462, "\ub04c\ub824": 11728, "##\ucc28\ubc18": 20199, "\uce68\ub7b5": 12733, "##\uc4c9": 6296, "\u2622": 120, "\ub4ef\uc774": 28594, "##\uc815\uad8c": 8144, "##\ub368": 7181, "13": 11958, "\uc120\ud0dd\uc744": 18640, "\uc785\uc0ac": 22557, "\ud380\ub4dc": 17578, "\uc2dc\uc6d0\ucc2e": 20115, "\ubc30\ubbfc": 16369, "\uc0ac\ub9ac\uc0ac": 19099, "\uc624\ubb3c": 27093, "\ub354\ubbfc": 29706, "##\uac32": 6383, "\ub780": 1116, "\ud655\uc2e4": 8690, "\uc800\ub7f0\uac83\ub4e4": 18995, "\ucca8\ub2e8": 25270, "\uae30\uc5b5": 9042, "##\uac8c\uc774\ud2b8": 14020, "\ud2b8\ub7fc\ud504": 8565, "##\ub808": 4306, "\ubaa8\ub978": 9374, "##\ucc0c\ub77c\uc2dc": 19431, "##\ubb3c\uc740": 16697, "##\ud83e\udd26": 6544, "##\uc361": 7600, "\ub204\uad6c\uc778\uc9c0": 23116, "##\uadc1": 6676, "\ub54c\uae4c\uc9c0": 15690, "##\uc884": 7618, "\ud310\uad6d\uc5d0": 20120, "##\ubcf4\uac8c": 15952, "##\ud130\ub294": 29665, "##\ub123\uc5b4": 29559, "2020\ub144": 18110, "\ubac8": 1398, "\uadf8\ub7ac\uc73c\uba74": 27199, "##\ub2ec\uc5d0": 26591, "\uc553": 2182, "\uc2dc\uc9c4\ud551": 9507, "\uc7ac\ubc1c": 19615, "##\ub0b4\uc6a9\uc774": 29422, "\ud17d": 3157, "##\ubb3b": 4398, "\ubd88\uc548\ud558\ub2e4": 29224, "##\uc2e0\ub4e4": 23051, "\uc62c": 2303, "\ud83d\udc26": 3694, "\uadf8\ub7ac": 9159, "\ubcf4\uc5ec\uc8fc\ub124": 25495, "##\uc9c8\ub3c4": 20339, "##\u3141": 4925, "##\uc7a5\uc545": 17105, "\ud588\ub0d0": 11948, "##\ub3c4\uc5c6\uc774": 17740, "\ub7f2": 1159, "\ubcf4\ub0b8": 11886, "\uac15\uc81c\uc9d5\uc6a9": 15787, "\ub545\uc774": 27237, "\uc0ac\uc7ac": 14597, "\ucdc5": 2948, "##\ucbe4": 4530, "\ub81c": 1178, "\ubb34\ub8cc": 12750, "\uac1c\ub625": 14999, "##\ub9fc": 6822, "\ub2e4\uc74c\ub0a0": 22656, "##\uc30d": 4111, "\uaebc\ub0b4": 16735, "##\ucc75": 5654, "\ub3d9\ub124": 9362, "\ub418\uc5c8\ub2e4\uace0": 29235, "##\ud558\uaca0\uc2b5\ub2c8\ub2e4": 13799, "\uca84": 2758, "##\ud3ed\ub4f1": 24204, "\ubd80\uc815": 8653, "\ubd84\uba85\ud55c": 29085, "##\ub294\ub2e4\ub294": 21640, "\ubb3c\ud0c0": 9689, "\uacc5": 297, "\ucee4": 3010, "\uc138\uce58\ud600": 27264, "##\uc5c8\uc5b4": 11320, "\uc6e7": 2389, "##\ub098\uac00\uc11c": 19196, "##\uac83\uc784": 15371, "\uc5b8\uc81c\ucbe4": 20751, "\uc120\uc9c4\uad6d\uc774": 25277, "##\ud241": 4805, "\ucd94\ubc29": 11370, "##\ud711": 7414, "\uc6e0": 2386, "\uac00\ub2a5\ud55c": 12397, "##\uc77c\ub4ef": 12991, "\uc30d\uc695": 17589, "##\ubb39": 7449, "\uc2e4\uc218": 11455, "##\ubd80\uc790": 27729, "\ubcf4\uc558\ub2e4": 28747, "\ub824": 1182, "##\ube25": 5841, "\uc648": 2323, "\uae40\uc528": 18030, "##\ubc29\ubb38": 21550, "\u3134": 175, "\uc5c6\uc560\ub77c": 13302, "2\uc911\ub300": 16137, "\ube44\ub85d": 22891, "##\uc788\ub2c8": 26866, "\ud734": 3510, "\uc678\uce58": 10355, "##\ub9c8\uc790": 12705, "\ub36e\uace0": 21426, "\ub098\uc9c0": 22507, "\ucd5c\ub300\uc758": 26578, "\uc5ed\uc804": 27814, "##\uc2a4\ub7fd\ub124": 16694, "\uc2e0\uc0ac": 24203, "##\ub194\uc57c": 20441, "\uc639\ud638\ud558\uace0": 21780, "##\ud83c\uddf0": 5471, "\uc2e0\uacbd\uc368": 20894, "\uc2f8\uc6b8": 16306, "\ubd84\ub178\ub97c": 18969, "\uc62c\ub9ac\uc9c0": 16087, "##\ud558\uace0\uc788\ub2e4": 15639, "\ud83d\ude1c": 3877, "\ud658\uc601": 12982, "\uc774\uac70\uc57c": 23411, "\uc785\uc7a5\uc774": 21854, "##\ud83c\udf45": 6929, "##\ud68c\ub85c": 26773, "##\uc121": 7851, "##\uc5b4": 4071, "##\ub15c": 5119, "\uac00\uae4c\uc6b4": 13745, "\ud574\ub9c8\ub2e4": 27867, "\ub2dc": 779, "\ud39c": 3274, "\uae0e": 405, "##\uc543": 6556, "\uac1c\ub97c": 16654, "\ubb34\uc18c\ubd88": 17308, "\uae5e": 438, "\uc9d3\ubc1f": 16821, "##\ud6fc": 4836, "\ub0b4\ub85c\ub0a8\ubd88\uc758": 17312, "\ub300\ud1b5\ub839\uae4c\uc9c0": 27267, "\ub85c\ub610": 17014, "##\uc81c\ub3c4\ub97c": 28337, "##\ub825\uc740": 14226, "\ub05b": 571, "\uc8f0": 2618, "##\uac70\ub4e0\uc694": 13886, "\uc2dc\uc808\uc774": 26630, "\ub05d\ub098\uace0": 14281, "\uae30\uc0ac\ub97c": 9687, "\uc0c1\uc2b9": 12360, "\ub9fb": 1325, "\uac00\uc7a5\ud55c": 22172, "\ubf1c": 1741, "\ud1b5\uc5ed": 23863, "\uc624\ud504": 27878, "\ub584": 1018, "\ud58a": 3387, "##\ub0fc": 7289, "\ub2d8": 775, "##\ud5d8": 4577, "2018": 19330, "\uac1c\ucc98\ub7fc": 21859, "\uad6d\ubbfc\ub4e4\uc544": 22863, "\uba87\uc774\ub098": 20837, "\uae68\ub057\ud558\uac8c": 19442, "\ubc14\ub451\uc774": 24881, "\uc801\uc774\ub2e4": 28167, "\uc740": 2420, "##\ub294\ub370\ub85c": 28529, "199": 25135, "\ubbf8\ub9cc": 25018, "\uc385": 2070, "\uc8fd\uc74c\uc73c\ub85c": 22499, "\ud64d\uc900\ud45c": 9932, "\ud2c0\ub531\ub4e4\uc740": 24767, "##\ub9d0": 4253, "\ub300\uac70": 20345, "\ub5b3\ub5b3": 10848, "##\uc0c1\ud669\uc5d0\uc11c": 24273, "##\ud749": 5013, "##\uc774\ud2b8": 9391, "##\uacbb": 5670, "##\uad50\uc218": 10401, "##\uc548\ud574\ub3c4": 20407, "XX": 27778, "##\ud83c\uddec": 7195, "\ubb38": 1414, "\uc788\ub294\uac83": 14413, "\ucc9c\uad6d": 15097, "\ub2f9\uc120\ub41c": 21594, "\uc870\uad6d\uc218\uc0ac": 27871, "##\ub0b4\uc9c0\ub9d0\uace0": 26563, "##\ud6f5": 7840, "##\uc18d": 4474, "##\ub144\uc740": 11497, "\uc815\uccad": 26422, "\ud55c\ub2e4\uba74": 13059, "\ud138\uace0": 17371, "##\ub530\ub85c": 21145, "\uc815\uc758\uac00": 13285, "\ub354\ube14\uc5b4": 20842, "\ubc14\ube60": 23068, "\ubcf8\ub798": 27899, "\ud83c\udf80": 3627, "##\uc790\ub77c\uace0": 14477, "##\uc560\uc561": 24198, "##\ud56d": 4574, "\uba54\ud06c\ub85c": 27407, "\ub208\uce58\ubcf4": 13631, "\ubb34\uac70\uc6b4": 27051, "##\ud4f0\ub9ac\uc998": 14452, "##\uccd0\uba39\uc744": 23688, "\ubb38\uc7ac\uc778\uc740": 8943, "\uacc0": 292, "##\ud611\uc0c1": 26592, "\ud3c9\ub4f1": 10113, "\uc774\uc9c0\uacbd\uc774": 27548, "\uc54c\uc558\ub2e4": 12125, "\uc99d\uac70": 8589, "##\uc8f5": 5576, "\ub9cc\ub098": 10448, "\uc138\uc2b5": 14949, "##\ubb3c": 4336, "##\uc583": 7550, "\uc3fc": 2101, "\uad11\ud654\ubb38\uc5d0\uc11c": 16734, "\uc751\uc9d5": 17035, "\ud0dc\uc591": 11559, "##\uc838\uc57c\uc9c0": 17222, "\uc815\uc2e0\uc774\uc0c1": 20904, "\ubcf4\uc774\ub124\uc694": 21533, "##\uc548\ub41c\ub2e4": 15033, "\ub311": 815, "##\ubcf4\ub77c\uace0": 20436, "\uc0ac\ud68c\uc801": 10968, "##\uc6aa": 7072, "\uc815\uc0c1\uc778": 21099, "\uc131\ubcc4": 14978, "##\ub85c\ub97c": 26325, "##\uc545\ud55c": 9977, "\uac58": 246, "\ubc68": 1524, "\ub9de\uc796\uc544": 20852, "##\ud504\uac8c": 27240, "\uc774\ub0d0": 18264, "\ub300\ud1b5\ub839\ud55c\ud14c": 23743, "\uc704\uc120\uc801\uc778": 26935, "\uc78d": 2474, "\ub754": 1106, "\uac14\ub124": 27919, "\uc0ac\ub78c\ubcf4\ub2e4": 28531, "\uc870\uc791\uacfc": 28883, "\uc704\ud5d8\ud55c": 13872, "\ubcf5": 1572, "\ubb38\uc528\ub294": 20357, "##\ubd80\uae00": 28474, "\ub17c\ub780\uc774": 22951, "##\ub9c8\ub2e4": 8687, "##\uba3c\uc800": 12729, "##\ud83c\uddfa": 5328, "\ud5a5\ud574": 17394, "##\ud558\uc9c0\uc54a\ub098": 27070, "##\uc0ac\ub78c\ub3c4": 13884, "\ucc38\ub2f4": 18954, "\ud83d\ude2b": 3891, "##\ud798\ub4e4\uc5b4": 27030, "\uc5b8\ub860\uc778": 21120, "\uc815\uc2e0\ub098\uac04": 10185, "\uc77c\uc5b4\ub0ac": 22036, "\uc550": 2181, "\uadf9\uc131": 29618, "\ub098\uc624\ub098": 18105, "\uc26d": 1966, "\ub5c0": 1038, "##\ube60\ub9ac": 12193, "\uc0ac\ub791\ud569\ub2c8\ub2e4": 18647, "\uc120\uac70\uc870\uc791": 19864, "\uc3df": 2091, "##\uba53": 6955, "\ubc30\uc544\ud30c": 23174, "\uc911\uad6d\ud558\uace0": 26124, "\ud569\ubc95\uc801\uc73c\ub85c": 27961, "##\uc7a5\uacfc": 21758, "\ud614": 3437, "\uc870\ub9cc": 10719, "##\ud574\ubd10\uc57c": 11691, "\ub9c8\uc74c\uc73c\ub85c": 16818, "##\uc8fc\uc7a5": 22102, "##\ub3c5": 4407, "\uc788\uc5b4": 8749, "##\ub894": 7279, "\ubed4\ubed4": 8724, "##\ub0b8\ub2e4": 15896, "##\ud83c\uddef\ud83c\uddf5": 27016, "\uc548\ud569\ub2c8\ub2e4": 27352, "##\uc11c\ub3c4": 12285, "\ub450\ub824": 11168, "##\ucb20": 7963, "\ud559\uc0dd\ub4e4": 12778, "##\ud37c\uc13c\ud2b8": 15417, "##\ub294\ub370": 7972, "\ud480\uc5b4\uc8fc": 20213, "##\uc758\uc6d0\uc740": 23649, "##\ub124\uc694": 8025, "\ucf04": 3024, "\uae30\uc790\ub4e4": 13610, "\uacc4\uae09": 23428, "##\ud83d\ude1f": 7803, "\uc5ec\uc9c0\uaecf": 21303, "##\uc815": 4036, "\ubc14\uafd4\ub77c": 14705, "\uc774\uc0c1\uc73c\ub85c": 25302, "\uc2e0\uaca9": 27390, "##\uc778\uc2dd": 28127, "\ub9c9\uc544\uc11c": 28480, "\ub0b4\ubd80": 10534, "\ubcf4\uae30\uc5d0": 25253, "\ubcfc\ub54c": 20293, "##\uc7a3": 5264, "\ubfd0\uc778\ub370": 21065, "\uc77c\ubcf8\uc778\ub4e4\uc774": 27903, "\uc560\uc2dc\ub2f9\ucd08": 25150, "##\uba4c": 6375, "\uc0ac\ud0dc\ub294": 27034, "\ubed8": 1723, "\uac83\ucc98\ub7fc": 12710, "\ud440": 3307, "\uc89f": 2598, "##\ub9d0\uace0": 8121, "##\ud83d\ude48": 6616, "\uac70\uc800": 28758, "##\uc606\uc5d0": 25759, "\ud749\uae30": 26087, "##\ud83c\udf08": 6629, "\uc77c\ubcf8\uacfc": 10404, "##\uac10\ub3c4": 17132, "\ub0b4\ub85c\ub0a8\ubd88\uc774": 26241, "\ube30": 1661, "\uc4b9": 2131, "\uae11": 407, "\uc274\ub4dc\uccd0": 29467, "100\ud504\ub85c": 17922, "##\ub9ac\uc9c0": 8507, "##\uc9c0\ub9c8\uc2dc\uace0": 21309, "\uac1c\ud310\uc774\ub2e4": 23548, "##\ubab0\ub791": 20311, "\uc5b8\uc820": 10857, "\uac00\uba74": 9852, "\uc218\uae09": 22969, "+": 14, "\ud83d\ude03": 3852, "\uc990\uae30\uace0": 27238, "##\uc9c0\ub124": 9867, "\uc5b8\ub860\ub4e4": 17603, "\uac1c\uac19\uc774": 24692, "\uae30\uc5c5": 8344, "\ud558\uc774": 15830, "\ub9c8\uc774": 10433, "##\uc218\uc0ac": 9044, "\ube44\ud558\uba74": 13404, "\uace0\ubbfc\uc815": 14361, "\ub3c4\uc6c0\uc774": 11439, "##\ub5ab": 7735, "\ub839": 1191, "\ubc30\uc6cc\ub77c": 16378, "\uc510": 2149, "\ubd48\ub294\uac8c": 22842, "\uc4c9": 2133, "##\ud615\uc740": 24408, "##\uc528\ub3c4": 16353, "\ucd1b\ubd88\uc2dc\uc704": 26489, "\ub3cc\uc544\uac04\ub2e4": 15471, "\uad6d\ud68c\uc758\uc6d0": 8345, "\uc774\ub978": 27302, "##\uc998": 4569, "\uc190\uac00\ub77d": 11552, "##\uc465": 5754, "\uc819": 2543, "\ub9cc\ub4e4\uc790": 17113, "\uc804\uacfc": 14068, "\ubc18\uae30": 24936, "##\ubcf4\uc774\ub124": 27169, "\ub54c\ub824\uc7a1": 14567, "##\uc735": 5236, "\uae30\ud68c\uc8fc\uc758": 22483, "\ub297": 752, "##\uc5d0\uc694": 9054, "##\uc2e0\ucc9c\uc9c0": 16794, "##\ud70f": 7937, "##\ud558\ub294\uad6c\ub9cc": 24615, "\ubbf8\uc5ed": 28701, "##\ub0a8\ubd88": 8585, "##\ub944": 7901, "\ud558\uba74\uc11c": 8837, "##\uad50\uc0ac": 18259, "\uc0dd\uae30\uace0": 21214, "\uae70": 450, "\uc778\uc815\ud558\ub294": 16545, "##\ud654\ud558\uace0": 21728, "\uba3f": 1343, "\uc624\ub974\ub294": 22101, "\uc544\ub2d0\uae4c\uc694": 16815, "\uc54c": 2177, "##\uc9c0\uae30": 11981, "##\ud14b": 6937, "\ubc1c\uc791": 25339, "##\uc728\uc740": 26673, "\ub2e4\ub978\uac70": 20363, "##\ucc3d\ud638": 27694, "\ud83d\udc12": 3680, "\ubcf4\uc218\ub97c": 16665, "\uc120\uc870": 15983, "\uacf3\uacf3\uc5d0": 22396, "\ud30c\uace0": 20595, "##\ud83c\udfb6": 6044, "##\ubd80\ub984": 29651, "##\ufe0f": 5065, "##\uca08": 6144, "##\ud560\uac78": 16206, "##\ub844": 6409, "##\ud568": 4421, "##\ud83c\udf6d": 7642, "\ub208\uacfc": 19446, "\ucef8": 3018, "\ud560\uae4c\uc694": 20619, "\ud310\ub9e4": 11341, "\uc219": 1932, "\ud83e\udd76": 3979, "##\ud6fd": 5936, "\ucf13": 3028, "##\uc2a4\uac00": 11849, "\uc548\ub3fc": 10167, "\u274e": 154, "\uc815\uc11c": 22343, "##\ub2e4\ub294\ub370": 12268, "##\ub0ca": 6810, "\uafc2": 529, "\ub1c0": 708, "##\ub85c\ub098": 8157, "\ube44\uc2f8\uc11c": 24586, "\uac01\uc885": 11122, "\uc774\ub7f0\uac83": 19087, "\uc120\ub3d9\ud558\ub294": 15642, "\uc9d3\ub9cc": 24595, "\ubcf4\uc0c1\uc744": 25798, "\uac00\ud2bc": 28352, "##\uc77c\uc5b4\ub098": 20366, "\ub9d4": 1302, "##\uc548\uc744": 11601, "\ud0b9": 3106, "\uae30\uc6b4": 29352, "\ubd95": 1623, "##\uc801\uc774\uc9c0": 13913, "##\ubc14\ub2e5": 10049, "\uc774\uc0ac\uc7a5": 27285, "\uc798\uc0b4\uac8c": 27710, "\ub118\uc5b4\uac00": 13509, "\ub0b0": 605, "\ucad2\uc544": 19904, "\ubd80\uc5c9\uc774": 17890, "\uc0b4\uae30\uac00": 29252, "##\ud83d\ude33": 6590, "\ud314\uace0": 14163, "\uc5c4\uc815": 27954, "##\ud83c\udfee": 7175, "\uc54c\ubc14\uac00": 29543, "\ub300\ub9c8": 15393, "\ub88d": 1221, "##\uc5c7": 4739, "##\ubead": 7864, "##\uc5b4\ub97c": 16476, "\uc904\uc5b4": 11073, "##\ub155": 4887, "##\ub3dc": 7154, "\ub9d0\uae30": 27457, "\ud66c": 3462, "##\uc6b0\ub824": 22564, "\uac70\ub4e4": 19071, "\uacf5\uc9c1\uc790": 20729, "\uc778\uadfc": 28625, "\uc8fc\uc7a5": 9211, "\uc785\uc5d0": 10956, "\uac19\uc73c\uba74": 14407, "##\ud83d\udc74": 6373, "##\ub2d8\uc544": 27244, "\ud0c4\uc0dd": 15327, "\uc788\ub178": 26140, "##\ubcfc\ub54c": 28691, "##\ud83d\udc81": 7543, "\u27a1": 163, "\uc138\uade0": 17288, "\ub098\ub294\ub370": 23434, "\ud3fd": 3299, "##\uc58c": 4702, "##\uc815\uc2e0\ucc28": 28245, "##\ub90c": 5609, "##\uc5d0\uac90": 11210, "\uac94": 272, "\ub463": 925, "\uc774\ubc88": 8175, "##\uae1c": 7304, "\uc720\uc740\ud61c": 21093, "\ubcf4\uc11d": 22433, "\uc8fd\uc5b4": 10222, "\uc0dd\uba85": 10782, "\uac16\uc740": 22985, "##\uc544\ub4e4\uc774": 25673, "\uc6b0\uccb4\uad6d": 27200, "\ub940": 1252, "\ucc9c\ub144": 23556, "##\ud1a0\ub85d": 13786, "##\uaca0\ub0d0\uace0": 25646, "##\ub0a0\ub3c4": 29768, "##\ubcfc\uae4c": 19392, "\uac19\uc9c0\ub3c4": 23065, "\uc18c\ub140": 20322, "\uc870\uc120\uc77c\ubcf4\uac00": 16782, "\ube68\uc544\ub300\ub294": 21522, "\uc900\ube44\ub098": 23256, "\uc815\uccad\ub798": 28164, "\ubd80\uad00": 28595, "##\uc6d0\uc774": 8692, "##\uc870\uc808": 23000, "##\ubc86": 7439, "\uc778\uc904": 26063, "##\ud83c\uddf1": 7471, "\ub083": 579, "##\ud558\ub2e4\uac00": 9894, "##\ud3a9": 6601, "##\uc138\uc774": 26882, "\uc544\ub0d0": 9018, "##as": 26794, "\uce5c\uc77c\uc740": 27331, "\uc88c\uc880\ub4e4\uc774": 29733, "\ub78b": 1120, "\uacf5\uac1c\uc801\uc73c\ub85c": 22235, "\ud1a0\ucc29\uc65c\uad6c\ub4e4\uc740": 28301, "\ub300\uc0c1\uc73c\ub85c": 17205, "##\uacd9": 7145, "##\uc788\ub294\ub370": 10116, "\ub9de\uc9c0\ub9cc": 17346, "##\uc788\ub2e4\uace0": 12267, "##\ub4dc\uc2dc\uace0": 23250, "\ucda9\uacac": 23703, "\u2754": 156, "##\uc83f": 6149, "##\uc32c": 6518, "\uc81c\ub3d9": 22653, "\ub313\uae00\ubd80\ub300": 13306, "##\uc5c8\uc744\ud150\ub370": 27087, "\ub4a4\uc5d0\ub294": 29239, "##\ub098\uac00\uace0": 21190, "\uc0af": 1788, "\uc5ec\uc131\ub4e4": 29945, "\uc815\uc218": 12305, "\ucc9c\uc8fc\uad50": 19430, "##\ucc29\uc624": 29217, "##\uc778\uc5d0\uac8c": 16328, "\uaddc\ubaa8": 22373, "\ub9d0\ub4e4": 28323, "##\uc2dc\ud0a4\ub0d0": 25249, "##\ud560\ub550": 15666, "##\ub3d9\uac15": 18808, "\ucf30": 3040, "##\uc6cc\ub77c": 10221, "\ud76c\ub300\uc758": 15151, "\ud140": 3138, "\uc774\ub7f0\uac83\ub4e4": 23693, "\uc544\ub4e4\uc774": 12404, "##\ub2dc": 6652, "\ubaa8\ub0d0": 25468, "\ub300\ud55c\ubbfc\uad6d\uc744": 9483, "\uc0dd\uac01\uc774\ub2e4": 27704, "\uc0c1\ud669\uc5d0\uc11c": 12564, "\ubca0\ub124\uc8fc": 28478, "##\ucb4c": 7252, "\ucabd\ud314\ub9ac": 28908, "\ub72c\uae08": 15788, "\ubb20": 1407, "##\uc168\ub124\uc694": 20069, "##\uc96c": 4795, "\ub178\ub798": 10596, "##\ub0a7": 7875, "##\ud558\uace0\uc788\ub294\ub370": 21375, "\ubd84\uc7c1": 25994, "\uc5ff\uac19\uc740": 27317, "\u3141\u314a": 13493, "\ub098\ub77c": 7981, "\uc9c0\uc9c0\uc790\ub4e4": 12889, "##\uc774\ub77c\uba74\uc11c": 17404, "\uc11c\uc2b4": 21521, "\uc801\ub2f9\ud55c": 27848, "##\ud68c\uc758": 16287, "\uac78\ub9ac\ub294": 23820, "##\ub2a9": 7128, "\ub418\ub098": 11130, "\uc548\ud558\ub0d0": 11918, "\ub2c8\ub294": 12004, "##\ud3ed\ud0c4": 12580, "##\ub9cc\uc744": 11281, "\ubc94\uc8c4\uc790\ub4e4": 22020, "##\ubd84\ub3c4": 17490, "\ubf1b": 1740, "\uc810\uc2ec": 18485, "##\ubc97\uace0": 18728, "\ub480": 930, "##\uc136": 5974, "\ud83d\udd90": 3841, "##\uac10\uc740": 15294, "##\ubb4a": 7499, "\ubd81\uce58\uace0": 28969, "##ch": 28371, "##\ud83c\udf19": 7178, "##\ud558\uc2dc\uace0": 10855, "\ubabd": 1393, "##\uc139": 4760, "##\uacc4\uac00": 11211, "\ucc3e\uace0": 20447, "\ubaa8\uac00\uc9c0": 16111, "\uc0ac\ud615": 8777, "\uc624\uc804": 28970, "\uc120\uc758\uc758": 24900, "\ud2c8": 3216, "\ub9c8\uc2dc\uae38": 20151, "\ubbc1": 1454, "##\ub307": 6796, "##\uc744\uac8c": 26416, "\ud658": 3455, "\uc2a4\ud2b8": 10802, "##\ub420": 4339, "##\ucf1c": 4005, "\uac00\uc0c1": 26898, "\ubb38\uc790": 15462, "##\uc804\ub3c4": 22369, "##\ub0b4\ub294\ub370": 25846, "##\uc9c0\ud0a4\ub294": 29488, "##\ub2f9\uc774": 8352, "\ubb38\uc7ac\uc778\ud55c\ud14c": 22876, "##\uc88b\uc740": 11071, "\ub9d0\ud558\ub294\uac70": 15742, "\ub418\uc5b4\ub3c4": 27936, "##\uc2dc\ud0a4\uc9c0": 16185, "##\uc720\ucc29": 20849, "\ud6c8\ud6c8": 23467, "\uc778\ubb3c": 10393, "##\uaca9\uc774": 11048, "##\uc2a4\ucf54": 22242, "\uc2dc\ub140": 24534, "\uc18c\uc2dc\uc624\ud328\uc2a4": 23803, "##\uacfc\ub3c4": 25479, "\ucd1b": 2912, "##\ub3f5": 5763, "##\uc544\ub2c8\uace0": 10335, "\uae50": 434, "##\uad00\uc740": 19320, "##\uac83\ub098": 29215, "\uc834": 2555, "##\uc740\uac70": 8824, "\uac00\ud574\uc790": 11905, "##\uc7ce": 4698, "##\uc9d5\uc5ed": 13166, "\uccad\uc18c\ub144": 13798, "\ubb65": 1435, "##\ud55c\uac83\uc774": 22089, "$": 8, "##\ub824\ub193\uace0": 26544, "\uc774\uc21c\uc2e0": 12252, "\ub300\ubaa8": 24024, "\ub39f": 863, "##\ucc3c": 5767, "##\uc785\uc744": 29436, "\uc2ec\uc5b4": 21446, "\ucd95\uad6c": 14668, "\uc9c4\uc601": 12127, "##\uc2e4\ud55c": 14989, "\uc911\uad6d\ucc98\ub7fc": 22882, "##\uace0\uc2f6\uc740": 14797, "##\ub9e4\ub9e4": 11137, "##\ud46f": 7597, "##\uad8c\ubd84": 15050, "\ud558\uaca0\ub124": 16406, "\ubd88\uad6c\ud558\uace0": 15221, "##\uad00\uacc4\ub97c": 18281, "##\ud83c\udfc7": 7948, "##\ub838\uc9c0": 23713, "##\ubc8c\uc774": 12027, "##\uc800\ub807\uac8c": 29569, "##\uc5c8\uc73c\uba74": 9347, "\uc0dd\uac01\ub9d0\uace0": 29332, "##\ub13d": 6775, "##\uada8": 7546, "\uac00\uad00": 12442, "##\ub8b1": 7432, "##\ub77c\ub294\uac78": 16383, "##\ubbf8\ub97c": 19312, "##\ubc84\ub824\uc57c": 13526, "\uad6d\ud68c\uc758\uc6d0\ub3c4": 23058, "\ub3c5\uc7ac\ub85c": 27414, "\uacf5\ub860": 28949, "\ud2b8": 3209, "\ud0dd\uc2dc": 9269, "##\uc18c\ub9b4": 15977, "\ud83d\ude2a": 3890, "##\ud558\ub178": 12143, "[": 60, "\uc2e0\ucc9c\uc9c0\ub85c": 20314, "\uc5b4\ub514\uc788": 29599, "\ud558\ub098\ub3c4": 9402, "1\uc778\ub2f9": 17551, "\uac4d": 243, "##\uc99d\uba85\uc11c": 26172, "##\uc2dc\ud558\uace0": 24730, "\ub9de\ucda4": 19292, "##\ud558\uc2dc\ub098": 22579, "##\uacf7": 5692, "\ud55c\uce58": 23546, "\ucc98\uba39\uc740": 28690, "\uc544\ubb34\ub9d0\ub3c4": 21562, "\ud4e8": 3329, "\ud399": 3273, "\ud07f": 3093, "##\uc2ed\uc1fc": 19299, "\uc81c\ub3c4\ub97c": 24130, "\uaef0": 481, "\uac74\uac15\ud558\uac8c": 27873, "\ub3de": 880, "\uac08\uc544\uc5ce": 24150, "\ub9c9\ub860\ud558\uace0": 24141, "\uc77c\ubc18": 8584, "\uc870\uc120\uc2dc\ub300": 12529, "\uc758\uc6d0": 8866, "\uc5b8\ub860": 8153, "\uac89": 264, "\ud560\ubc30": 11996, "\ubd0c": 1583, "##\uc15c": 5309, "\ucb10": 2788, "\uac00\ub2a5\ud558\ub2e4": 19300, "##\ucca9": 4772, "\ub178\ub3d9": 9373, "\uc5b4\uc774\uac00\uc5c6\ub2e4": 29779, "\ubcb0": 1548, "##\uc81c\uc7ac": 14812, "\uacf5\uc791": 12582, "##\ubbf8": 4090, "##\uc558\ub358": 17235, "##\uc790\uc2dd\uc774": 19836, "47": 26060, "\uc774\ub4dd": 10985, "\ub611\uac19": 9317, "\ud31c": 3238, "##\ub2ec": 4182, "##\uacf3\uc740": 14089, "##\ub7f0\uc9c0": 17307, "\ub9cc\ub4dc\ub0d0": 21046, "\ub72c\uae08\uc5c6\uc774": 21182, "##0": 4263, "\ub098\uac00\uc57c": 19435, "\uace0\uc704\uacf5\uc9c1": 17373, "\uac00\uacc4": 21612, "\uc5c6\ub294\uac74\uc9c0": 27796, "\uc560\ubbf8": 13613, "##\uae09\uc774": 17348, "##\uc2e0\uacbd": 21952, "66": 29161, "\uace0\ub839": 20127, "##\uc804\uc220": 26784, "\uc6b0\ub824\uba39": 24262, "##\ub3c4\ubabb": 17433, "\uc720\ub9ac\ud558\uac8c": 25596, "##\ud4e8": 5242, "##\ubb18": 5411, "##\ube83": 6384, "\uac1c": 220, "\ub044": 557, "\ub9e4\ucd98": 19239, "\uce5c\uc808": 21080, "##\uc790\ub2c8": 21372, "\ubabb\ud558\uac8c": 9641, "\uac70\uc9d3\uacfc": 17166, "\uc0dd\uac01\ud574\ubcf4\uc138\uc694": 26775, "##\uc774\ub77c\uc11c": 11169, "\ud338": 3251, "\ud83e\udd1b": 3940, "##\uc9fc": 7291, "##\ub5a0\ub124": 28396, "\ub2e8\uc2dd": 10058, "\ubb38\uc81c\uc778": 9456, "\uba08": 1332, "\uc704\ud574\uc11c\ub294": 17685, "##\ub25c": 7032, "##\ud409": 5625, "##\u20e3": 6029, "\ub9d0\uc778\ub370": 18880, "\uae30\uc790\uac00": 11432, "\uc778\uc2dd\uc774": 22304, "\ub2f9\ub2f9\ud558\uba74": 25721, "##\ud5a5": 4573, "\uace0\ub529": 20846, "\uac19\uc9c0": 15148, "\uc77c\ubc18\uc778": 14114, "##\uc57c\ud568": 21601, "\uc870\uc120\uc778": 25802, "\ud568": 3366, "\uc88b\ub2e4": 10350, "##\ub224": 6921, "##\ub208\uce58": 15914, "\ud55c\uad6d\ub2f9\uc740": 12798, "\uc6d4\ub0a8": 23921, "##\ucf58": 4759, "##\ub2f5\ub2c8\ub2e4": 12215, "\uad6d\ub9bd": 17940, "\ube44\uc2b7": 9729, "\uc778\uac04\ub4e4": 8886, "\ube55": 1672, "\uadf8\uc911": 20321, "\ubd80\uc815\uc801\uc778": 26689, "\ub9ac\uadf8": 29935, "\ub5a0\ub09c": 27075, "##\uae62": 6121, "\uba67": 1360, "\uc97f": 2670, "\ubb38\uc7ac\uc559\uacfc": 12699, "##\uac19\uc544\uc11c": 20890, "##\ubcc0\ud638\uc0ac": 15852, "\ud6e0\ud6e0": 13294, "##\uc800\ub9ac": 10268, "\uc8fd\uc790": 24464, "\ud1a8": 3163, "\ud0dc\uc5b4\ub09c": 15740, "\uae38\uac70\ub9ac": 12264, "##\uc218\uad6c": 23998, "##J": 5136, "##\uac19\uc740\uac8c": 22629, "##\uc18c\ub3c5": 29666, "\ub9d8\uaecf": 24276, "##\ub0ac": 4204, "##\ud3d0": 4422, "\ubb3c\uc5b4\ubcf4\uace0": 23442, "\ud589\ubcf5": 9618, "##\ud0dc\uc12d": 17537, "##\ub2f9\uc5d0": 9799, "\ube48\uace4": 27749, "\uc6b0\ub9ac\ubaa8\ub450": 27031, "\ub9c8\uc774\ub108\uc2a4": 13931, "\ucd23": 2916, "##\ubb61": 6474, "\ubaa8\ub4e0\uac83\uc774": 23844, "\ub108\ud76c\ub3c4": 25857, "##\ub12c": 5133, "\ub450\ub454": 12947, "\ud604\ud639": 16590, "##\ub9cc\uc6d0\uc774": 20063, "##0\ub144": 9101, "##\ud588\uc5b4\uc694": 13419, "##\ub378": 5094, "\uc911\uace0": 15499, "\ubabb\ub9c9": 21024, "\uafc0": 527, "\uc548\ub41c": 9844, "\ucc28\uc774\uac00": 14190, "\ucd5c\uac15\uc6b1": 21083, "##\uac15\uac04\ub2f9": 22213, "\ud604\uc2e4\uc5d0\uc11c": 28381, "\uc2f4": 2023, "\uc8fc\ub465\uc544": 25200, "\ub625\uc774\ub098": 25580, "##\ub2a3": 6039, "1000": 11487, "##\uc0d0": 7035, "##\uac71\uc815": 12290, "\ud55c\ubc88\uc5d0": 19701, "##\uc900\ud45c": 9849, "\ud83d\udc6f": 3752, "\uc575\ucee4": 20984, "\ubabb\ubcf4\ub294": 27523, "\ubabb\uc0dd\uae34": 23093, "\ud5dc": 3417, "##\ub420\ub54c\uae4c\uc9c0": 29976, "##ut": 18241, "##\ub4ed": 5035, "##\ub07c\uace0": 12554, "##\ubc95": 4021, "\uc6c1": 2369, "##\ub4dc\ub7ec": 13212, "\ud83e\udd80": 3981, "\ubc14\uae00\ubc14\uae00": 21928, "\ub2e8\uae30": 17365, "\uc544\ub2cc\uc774\uc0c1": 29944, "\ud83c\udf19": 3573, "##\uc18e": 6645, "\uc1a4": 1905, "##\uc636": 6122, "##\uc6f0": 5798, "\uc544\ub2d0": 9337, "\ubaa8\uac00": 25017, "\ud558\uc2dc\uc9c0": 20084, "##\ud230": 6211, "##\ud55c\uac83\ucc98\ub7fc": 25991, "##\ud55c\ub2e4\uace0": 8324, "##\uc5b4\uc8fc": 10420, "##\uc4e9": 6309, "##\ub0b4\uc138\uc694": 26446, "##\uc0ad": 4914, "\ucccc": 2892, "\ubaa9\uc0ac\uac00": 20258, "##\uc886": 4849, "\uc804\uc5fc": 9994, "\ud83d\udc4c": 3729, "\ub806": 1169, "##\ub0a8": 4424, "G": 40, "\ub514\uc824": 27595, "##\uac9d": 6470, "20": 8255, "##\uc0ac\ub77c": 18194, "\ud14c\ub7ec": 11794, "##\ud83c\udf48": 6806, "##\ud1b5\uc744": 14351, "\uc218\uc900\ub3c4": 23833, "##\ud6bd": 5266, "\uc815\ub2f9\ud558\uac8c": 23800, "\uc870\uc0ac": 8254, "\uc794\uba38\ub9ac": 20438, "\uc8fc\uc778\uacf5": 24750, "\ud37c\ub2e4": 23485, "\ub09b": 590, "##\uc774\ub4e0": 9755, "##\ud574\uc57c\ud558\ub294\ub370": 18733, "\uc6b0\ub871\ud558\ub294": 29983, "\uc774\ub807\uac8c\ub098": 29281, "##\uc11d\uc744": 21031, "##\uc9c0\ub9d0\uc790": 12587, "\ud1f4\uc784": 17900, "\uc774\ub7f0\ub370": 11109, "\uae30\ubd80": 9030, "##\uc218\uc900\uc758": 24372, "\ub538\uc774": 12878, "##\uc6b9": 7797, "##\ub0b5": 6483, "##\ucd94\uc801": 27925, "\ubd0f": 1585, "\ucfe8": 3068, "\ub9c9\uc0c1": 15230, "\ub9de\ub124\uc694": 29916, "\uc0c8\ub07c\uc57c": 13611, "\uce68\ud574": 17101, "\ud000": 3074, "##\uac87": 6128, "##\uad7d": 4730, "\uac1c\uc18c": 21723, "##\uba90": 5993, "\uc9c0\ub3c8": 20576, "\uae30\uc0ac\uc880": 22896, "\uc54a\ub2e4\uace0": 24482, "##\uc911\ub2e8": 22993, "\uad6d": 348, "\ud2d1": 3221, "\ubc18": 1483, "\uc1bc": 1911, "##\ud83c\udfc8": 7428, "\uc790\uc2dd\ub4e4\uc774": 16308, "##\ud2f4": 4713, "\ub300\ub2e8\ud569\ub2c8\ub2e4": 26871, "\ub204\uac00\ubd10\ub3c4": 13340, "##\uac83\uc744": 8750, "\uad50\uccb4": 13704, "\uc2f6\ub124\uc694": 14578, "##\uc0dd\uae30\uba74": 27989, "##\u2122": 7159, "\ub9c9\ub9d0": 9386, "\ud391\ud391": 16003, "8\uc6d4": 25794, "\uc9c0\uc2dd": 11374, "\ub2e4\uae4c\ub07c": 26183, "##\uc494": 7123, "##\uc88c\ud30c": 9571, "##\uc1b0": 7581, "\ud66f": 3463, "##\ub294\uac78": 15315, "\ud45c\ub9cc": 27624, "\uacbd\uae30": 11096, "##\uc88c": 4395, "##\ub6f4": 5147, "\ub2f5\uc774\uc5c6\ub2e4": 20858, "##\uc138\ud0c1": 22469, "\uc77c\ubcf8\uc0b0": 17031, "\uc720\uacf5\uc790": 9792, "\ub3cc\uc544": 8235, "##\uaf3b": 7594, "\uc7a5\uba74": 25113, "\uc8fd\uc774\ub294": 13501, "\ub298\uc5b4\ub098\uace0": 23210, "\uc2dc\uc2a4\ud15c": 11864, "\uc9c4\uc2e4\uc740": 14290, "\uc9c0\ub3c4\uc790": 13756, "##\uc800\uc9c0": 22702, "\uad6d\ud68c\uc758": 15909, "##\ubbf8\uac00": 11833, "##\ud55c\uac74\uc9c0": 24050, "\uc331": 2051, "\uc758\uc2dd": 12614, "\uc560\ub0b3": 18720, "\ubc14\ud034\ubc8c\ub808": 13010, "\uc800\uc5ec\uc790": 24855, "##le": 18072, "##\ub098\ubd88": 20064, "\ucc9c\ud669": 18416, "##\ub54c\ub824": 21257, "\ud0f1\ud06c": 27715, "\uc125": 1850, "##\ubd4c": 5574, "\ub370\ub824\ub2e4": 23982, "\uc7a1\uc544\ub2e4": 20288, "##\ud084": 6399, "##\ub458\ub7ec": 25643, "\ub300\ucc98": 9968, "##\ubbfd": 6588, "##\ub2e4\uc74c": 13100, "\uad1c\ucc2e\ub2e4\uace0": 20801, "##\uc9f1\uac1c": 22449, "\ub9cc\ub4e4\uc5b4\uc900": 27247, "\ubd88\uc30d\ud558\ub124": 28814, "\uc5c6": 2246, "\ud754\ub4dc\ub294": 22736, "\uc774\ub118": 12341, "##\ud83d\uddff": 7521, "\ud558\ub294\uc77c": 22478, "\uc0ac\ub124": 29648, "##\uc5f0\uad6c": 14839, "##\uc2dc\ud0a4": 8173, "\uc774\uae38": 11957, "\uad6d\uac00\uac00": 10041, "\uc299": 1980, "##\uc0ac\ub294\uac8c": 25539, "##\ucea0": 4920, "\uc5bc\uad74": 8488, "\ud588\uaca0\uc9c0": 17728, "\ucc38\uc804": 21189, "\uc560\ubbf8\uc560": 28334, "##\ud30d": 5334, "\ub834": 1187, "##\ud83d\udd28": 7014, "##\ub0b4\uc11c": 10578, "##\ub9e4\uace0": 25540, "##\ubaa8\uc528": 27730, "##\ud30c\uac00": 18484, "\uaf10": 491, "\uac74\uac00\uc694": 16491, "\uacf1\uac8c": 14663, "\uc548\ub9de\ub294": 26848, "##\ud558\uaca0\ub098": 18350, "\uac19\uc544\uc11c": 15186, "\ub721": 1090, "##\uba83": 5442, "##\ub2eb\uace0": 11939, "\uac80\uc0ac\uac00": 16152, "\uc5c4\uccad": 8512, "##\uc281": 5878, "\uc19f": 1903, "##\uae18": 7848, "\uac15\ud55c": 12797, "\ubcf4\uc784": 16620, "##\ub2e4\ub294": 7995, "\ubb34\uc2dd": 8603, "\uace0": 303, "##\uc988": 4146, "\uae40\uc815\uc740\uc744": 22041, "\ubb38\uc81c\ub0d0": 16395, "##\ud558\uc9c0\uc694": 21609, "18\uc740": 27670, "\uace0\ub9cc": 13566, "\ubc1c\ub77c": 27748, "\ucc3e\uc744": 25159, "\ub744\uc6cc": 23797, "\ud3e0": 3292, "##\ub0af": 5282, "##\ub300\ud45c\uac00": 21331, "##\ub418\uc5c8\uc73c\uba74": 29232, "##\ubcf4\ub2e4\ub3c4": 12399, "\ub2e4\uc548\ub2e4": 23154, "\uacf5\uc2dd": 12837, "##\ub300\ud68c": 19479, "\uc5ec\ub7ec\ubc88": 20791, "\uad6d\ubc29\ubd80": 17932, "\uc2dc\ubc14": 17120, "\uc193": 1899, "\ubb38\uc815\uad8c\uc774": 20897, "\uc218\uc0ac": 8201, "\uc138\uc785": 20806, "\uc0c1\uc0c1\ub3c4": 21138, "\ud734\ub300": 12888, "##\ud558\ub294\uac70\uc8e0": 26239, "##\uac83\ubcf4\ub2e4": 20913, "\ubbfc\uc815\uc218\uc11d": 13887, "##\ud83d\udca4": 6767, "\ubb36\uc5b4\uc11c": 28305, "##\ub274\uc2a4": 8452, "\uc591\uc2ec\uc774": 12234, "\uad6c\uad6c\uc808\uc808": 21253, "\ub3d5\ub294": 28387, "\uc2ec\ud310": 9045, "\uc544": 2170, "##\ubf51\uc740": 21644, "\ub54c\ubb38\uc774\ub2e4": 11238, "\ubaa8\uc591\uc774\ub2e4": 29848, "##\uae41\ub2c8\ub2e4": 22610, "\uad6c\ub77c\ubbf8\ud130": 21622, "\uc218\uc900\uc73c\ub85c": 15655, "\ube44\ud310\ud558\uace0": 24826, "\ud0dc\uc591\uad11": 12811, "\ubb3c\ud488": 29228, "\ub313\uae00\ub2ec": 16170, "48": 24082, "##\ubb38\ube60": 24166, "##\uc96d": 5637, "\uae30\uc790\ub2d8": 13379, "28": 17340, "##\uae0b\ub2e4": 25626, "\uadf8\ub7f4": 8970, "\ub2f5\ub2f5\ud558\ub124": 23745, "##\uac04\uac8c": 27358, "\uacc4\uc5c4": 14761, "\ubd81\uc740": 29621, "##\uadf9\uae30": 28268, "\uc6c3\uc73c\uba74\uc11c": 26516, "\ud504\ub791": 12427, "\ud55c\ubc18\ub3c4\uc5d0": 26171, "\ube61\ube61": 27969, "\uac15\uac04\ub2f9": 25191, "\uc740\ud61c": 16928, "##\ub098\uc640": 11927, "##\uae34\ub2e4\uace0": 25634, "\ub9cf": 1299, "##\ud83d\udc2f": 6291, "##\ubb3c\uc9c8": 23897, "\uc7e4\ub4e4\uc774": 29888, "\ub9dc": 1307, "\uac4c": 242, "\ubb38\uc8c4\uc559": 11643, "\ubfb0": 1757, "\ud6c4": 3479, "\uaf2c": 492, "##\uafcd": 5453, "\ub8f9": 1240, "##\uae38\ub798": 10029, "\uc190\uc2e4": 19994, "\uc2f8\uc9c0\ub974": 24170, "\ud1b5\uacc4\uccad": 26608, "\uad6d\ubbfc\uc774\ub77c\uba74": 29131, "\uac1c\ub3c5\uad50": 17790, "\uac70\uc138": 23354, "\uc5b4\ub5bb\uace0": 26385, "\uc774\ub4dd\uc774": 26780, "\uc9c4\ucd9c": 23447, "##\ubba8": 6041, "##\ub374": 5076, "##\uc9e4": 4586, "\uc74c": 2431, "\uc774\uc81c\ub77c\ub3c4": 17032, "\uae5c\ube75\uc5d0": 26788, "##\uac1c": 4064, "##\uc2dc\ub294": 9113, "\uc788\uc744\uc218": 21960, "##\uc790\uc2dd\ub4e4": 25772, "\uc5b4\ub54c": 14865, "\ub514\uc838": 29108, "\ucc0e": 2828, "##\uce58\ub358": 24137, "\uc644\ub8cc": 28582, "\uc138\uc77c": 27921, "##\ub4d0": 6322, "\ucc3e\uc544\uc57c": 29472, "##\ub9d0\uace0\ub294": 27122, "##\uc1dc": 6340, "\ub488\uc9c8": 29562, "\uc5b4\uca0c": 14238, "##\uc640\ub294": 15542, "\ubac3": 1396, "##\ud83c\udf3c": 5582, "\ubb38\uac00\ub294": 25993, "\uc54c\ub9ac": 26163, "\ub52c": 987, "\uc544\ub2c8\uba74": 8445, "\uc18d\ucd9c": 29312, "\uc9c0\uae08\uc774\ub77c\ub3c4": 11607, "\uc88c\ud30c\ub3c5\uc7ac": 20989, "##F": 4508, "##\uc2e8": 6303, "\uc815\ub3c4\ub85c": 10860, "\uce58\uba85": 19751, "\ubc1c\ubaa9\uc7a1": 22438, "\ud83c\udde8": 3548, "##\uc6b0": 4216, "\uc544\uc6b0": 13134, "\ub450\uc0b0": 27059, "518\uc740": 27298, "\uc544\ub2c8\uad6c": 24850, "\uac15\ud654": 11904, "\ubaa8\uc790\ub780": 15101, "\ube68\uac31\uc774\ub4e4\uc774": 13527, "\uc695\uba39\uace0": 21676, "\uba54\ub2ec": 25518, "##\ud61c\ud0dd": 15967, "\uc77c\uc785\ub2c8\ub2e4": 20479, "\uc774\uc0c1\uc744": 27893, "\uac80\uc0ac\ub294": 23720, "##\uc73c\ub860": 11314, "\uc54c\uc544\uc694": 25457, "##\u3133": 7578, "G20": 26568, "##\ud55c\ud14c\ub3c4": 12129, "\uc774\ub2a0": 28221, "\uae4c\ub193\uace0": 28999, "\ubaa9\uaca9": 28124, "##\uc6a4": 5156, "\uc2ec\uac01\uc131\uc744": 24572, "##\uc7ac\ud310": 11251, "\uc18d\uc0c1": 20050, "\uc790\ube60\uc838": 20752, "\uc2ec\uc0ac": 22403, "\uc911\uad6d": 7990, "##\uc0e4": 5250, "##\ub1f0": 7776, "\uac00\uce58": 11441, "\ubb38\uc8c4\uc778\uc774": 13507, "\ub9d0\uc774\uc9c0": 13907, "\uacf3\uc5d0\uc11c": 17522, "##\uad6c\ubbfc": 24943, "\ub450\uac00\uc9c0": 27236, "##\uac74": 4164, "\uc2a4\ucf00": 28355, "##\ubc15\uc0ac": 28447, "\ubb38\ub514": 23390, "##\uc0bb": 6943, "\uc790\uc601\uc5c5\uc790\ub4e4": 16144, "##\ub098\uc654": 17515, "\uac19\uc740\ub370\uc694": 20561, "##\ud83d\udd35": 5949, "\uce5c\ubc15": 15518, "\ud574\uc678\uc5d0": 25014, "\ucc0d\uc744": 17029, "##\ub300\ub0d0": 17950, "##\ud6d3": 7050, "\ucabd\ud314\ub824\uc11c": 20307, "\uc334": 2052, "\ub2f9\uc5f0\ud558\ub2e4": 22070, "\uc815\uc758\uc758": 18593, "\uc7e4\ub4e4\uc740": 23872, "\ub9e4\ub2ec": 12860, "\uc2f5": 2024, "\ubaa8\ub974\ub2c8": 14963, "##\uad50\uac00": 22268, "\ubc13": 1479, "##\ub83f": 6441, "##\ub730": 5006, "\uc0c1\ud488": 14339, "\uadf8\uc640\uc911\uc5d0": 24627, "\uc774\ud6c4": 10030, "\ub984": 1267, "\uc911\uc18c": 10746, "\ubd88\uacf5\ud3c9": 27655, "\uba4d\uccad": 8688, "\ub2e4\ub978\uc0ac\ub78c": 16534, "\ud3b8\ubc95": 16025, "\ubbf8\ub798\ud1b5\ud569\ub2f9": 17007, "##\uaf07": 6073, "\uac08\ub77c": 13719, "\ub9c8\ub8e8\ud0c0": 29932, "\uc548\ub0b4\uace0": 23581, "\ubc1c\uacac": 14384, "\uac72": 250, "\uac04\uc2e0\ubc30": 20465, "##\ub2f5\ub2f5": 26479, "##\ub316": 7104, "\ubed8\uac31\uc774": 28925, "\ucbe7": 2820, "##\ud83d\udc64": 6453, "##\uce21": 5069, "##\uc78b": 7332, "\ub458\uc774\uc11c": 28418, "\uc9c0\ub098\uba74": 15679, "\uc5b4\ub835": 9775, "\uac1c\uc815": 14540, "\ub2f9\ub2f9": 10787, "\uc36a\uc740": 29649, "##\ud83d\ude0f": 6833, "\uc9c8\ub7ec": 25599, "\uc911\uc2ec": 13300, "##\uae3f": 6502, "\uac00\uc871\ub4e4\uc774": 18542, "##\uc11d\uc774": 10840, "\ubab0\ub790\ub2e4\uace0": 23420, "##\uc6d0\uc9c0": 20624, "##\ucd94\ubc29": 27806, "\uac8c\uc784": 9916, "##\uc774\uc5c8\uc2b5\ub2c8\ub2e4": 29245, "\ud329": 3248, "##\ub420\uac83\uc774\ub2e4": 22043, "\ud55c\ub098\ub77c\ub2f9": 16215, "\ud558\uc790": 9339, "\ubc16\uc5d0\ub294": 29676, "##\uc778\uc9c0\ub3c4": 14459, "\uc218\uc0ac\ud558\uba74": 27148, "\uc774\uc81c\uaecf": 24873, "##\uad18": 5072, "\ub154": 677, "\ubcf4\uba70": 17195, "\ubb34\ub108\ub728": 15552, "\ub9e1": 1312, "\uad6d\uc81c\uc0ac\ud68c": 16054, "\uad74\uc695": 18803, "\ub3c4\uc7a5": 25652, "\ub0a0\ub9c8\ub2e4": 28322, "\ubbf8\uad6d\uc744": 14369, "\ud798\uc5c6\ub294": 15910, "\uc368": 2057, "##\uc18c\ubbf8": 10877, "##\ub2e8\uccb4\uac00": 17689, "##\ucc4c": 6064, "##\uc885\uc11d": 12701, "\uaf34": 497, "##\uc7ab": 5504, "##\uc9f2": 7202, "\uc5b4\ub290\ub098\ub77c": 12479, "\uacc4\uc5c4\ub839": 18574, "\uc7a5\uad50": 27827, "\uc2e4\uc2e4": 25854, "\ud83d\udce2": 3808, "\ud55c\ub2e4\uba70": 27678, "\uc774\ub4e4\uc774": 15373, "##\uce58\uba70": 18552, "\uc5b8\ub860\uc870\uc791": 28975, "##\ucabd\uc740": 16915, "30\uc5b5": 27562, "##\uba3d": 7672, "##\uae30\ubbf8": 24425, "\ubbf8\uccd0\ub3c4": 19948, "##\uca94": 7493, "\uadd3": 385, "\uc2ec\ubcf4": 25728, "\ub9d0\ud558\uc9c0": 15785, "##\ub418\uc5b4\uc57c": 11634, "\ud575\ud3d0\uae30": 24313, "##\uc39c": 6611, "\ud558\ub298\uc774": 14486, "\uc911\uad6d\ubabd": 10964, "##\ub610\ud55c": 15869, "##\uc5ec\ud589": 9575, "\uc0ac\uace0\ubc29": 21315, "\uc544\ub07c": 23077, "\uc624\ub298": 8564, "##\ubcf4\uc774": 11980, "\uba4b\uc788\ub2e4": 28759, "##\ubabb\ud55c\ub2e4": 22019, "\ub3cc\uc558\ub098": 27479, "\ud2b1": 3208, "\uc774\uc6a9\ud558\ub294": 14502, "\uc9c8\uc774": 23124, "##\ubb64": 5758, "\uc138\uacc4\uc758": 21380, "##\uc501": 5267, "\uc0b4\uc0b4": 20173, "##\ub2e4\ub2d0": 16730, "\uc544\uc774\ub3c4": 26944, "##\ub807": 4686, "##\uc73c": 4023, "##\uc870\uc7a5": 18333, "\uc5c6\uc744\ub4ef": 20819, "\uae40\uacbd": 10358, "##\uaf2c\ub77c\uc9c0\uac00": 23622, "\uae08\uac15\uc0b0": 17583, "\uac00\uc99d\uc2a4\ub7f0": 27516, "\uc77c\ubcf8\ucc28": 17253, "\uc88b\uaca0\ub124": 15078, "##\ud83d\udc39": 7813, "##\ub6b7": 7767, "##\ub0d0\uace0\uc694": 28603, "##\uc18c\ub294": 17789, "##\uc2dc\uae38": 9065, "\uc798\ud55c": 13157, "\ube7c\ub3cc": 14214, "##\ud248": 4842, "\uc5ed\uc73c\ub85c": 24762, "\uad6d\uaca9\uc744": 26160, "\ubaa8\ub4e0\uac8c": 11819, "##ung": 27691, "\uaca9\ub9ac": 9975, "\ubd80\ucc44": 14794, "\uc138\ub1cc\ub41c": 26609, "\uc804\uccb4": 10508, "\uc720\uae09": 20157, "\ucd5c\uc21c\uc2e4\uc740": 24105, "\ub4e4\uc5b4\uac00\uace0": 21146, "\ucf8d": 3060, "\uc5b4\ub528\ub0d0": 18696, "\ubbfc\uacbd\uc6b1": 12720, "\uc815\uce58\uad8c\uc5d0": 29529, "\uc27c": 1969, "##\uc0b0": 4457, "\ub0c4\ube44": 15291, "\uadc0\ud55c": 20124, "\ubb38\uc0b0": 26541, "\ucfa8": 3063, "##\ud56e": 5445, "##P": 4579, "##\ucfe4": 6078, "##\uc138\ub825\ub4e4": 22522, "##\uc790\ube60\uc84c\ub124": 22765, "\ud83c\udf81": 3628, "##\ucc9c\uc9c0": 8134, "\ubb49\uccd0": 23120, "\uc9d1\uacb0": 29753, "##\uc7bd": 5771, "##on": 11866, "\ud570": 3372, "##\uc774\uc0c1": 8428, "\ubcf4\uc5ec": 8448, "##\uacb8": 5392, "\uc6b0\ud55c": 8684, "\uc0ac\uac74\uc744": 14941, "DNA": 18796, "\ub9cc\uc8fc": 20451, "\uac10\uae08": 21010, "\ucc45\uc744": 24560, "\uc778\uc815\ud55c": 26340, "\ubd80\ubaa8\ud55c\ud14c": 28361, "\uc5f0\ub3d9": 18590, "\ud558\uc154\uc57c": 29855, "\uc528\ubd80": 9860, "\ub300\uc120\uc5d0\uc11c": 27735, "##\ucd1d\uc7a5\uc774": 18488, "\ucd1d\ucd9c\ub3d9": 22038, "\uc548\uc88b\uc740": 15827, "\uac04\ucca9\ub4e4\uc774": 27018, "##\uc870\uc13c": 27329, "\ub9d0\uc548": 17187, "\uc9c0\uc6d0\uc744": 17984, "##\ubbf8\ub294": 14920, "##\uc138\uacc4": 14245, "##\uc2dc\ucf1c\ub193\uace0": 24650, "\uc252": 1956, "\uce59": 2973, "##\ud654\uc810": 20006, "\uc870\uad6d\uc218\ud638": 14087, "##\ud30c\ud0c4": 13927, "##\uac00\uc785": 23095, "\ub418\ub124\uc694": 25496, "##\ud569\ub9ac": 20626, "##\ub300\uc0ac\uad00": 27731, "##\uc0dd\ub3c4": 24440, "\ud83d\udc84": 3767, "##\ucc28\ubcc4": 11147, "\ub9de\ub098\uc694": 19673, "\uadc0": 380, "##ay": 29171, "\ub05d\ub09c": 13630, "\uc0ac\ub77c\uc9c0\uba74": 29135, "\uc5b4\ub518": 16375, "\uadf8\ub550": 14239, "\ub2f5\uae00": 19009, "##\uaf49": 4649, "\ub418\ub294\uac70\uc9c0": 16906, "\ud83c\udf27": 3580, "##\ub828\ub2e4": 24173, "\ucae9": 2785, "\ud68c\uac1c": 23709, "\ud30c\uc2dc": 23945, "\ub0b4\uc5ed": 24675, "\uc798\ubabb\ub41c": 9490, "##\ucabd": 4127, "\uc2e0\ubc1c": 16440, "\uc0dd\uac01\ub098\ub294": 28611, "\ucf54\ub85c": 28800, "\uae99": 459, "\uc0ac\ub78c\ub3c4": 9925, "\ud638\ud761": 25556, "202": 15289, "##\uc2dc\ud0a4\ub824\uace0": 20497, "\ub3c4\uac00": 24309, "\uc870\uae08\uc774\ub77c\ub3c4": 13928, "##\ud55c\ub2e4\ub2c8": 21207, "\ud589\ubcf5\ud55c": 19165, "\ub790": 1124, "\uc8fd\uc5ec\ub77c": 22331, "\uc8fc\uc5b4": 18540, "##\ud3c4": 5577, "\ud83c\udf43": 3598, "##\uc7ac\ub09c": 17972, "\ucde8\uc7ac": 13574, "\ub2e4\ub2c8": 8514, "##\uc395": 6893, "##\ud560\uac8c": 11329, "\uc9c0\uae08\uc740": 8981, "\ud83e\udd10": 3931, "##\ud83e\udd2e": 6110, "\uc5ec\ub860\ubab0": 29464, "\ub098\uc744\ub4ef": 22968, "\ubb3c\uc5b4\ubd10": 29947, "\ube7c": 1695, "\ubc31\uc6d0\uc6b0": 26388, "\ub13f": 667, "\ud33d": 3255, "\uc870\uad6d\uc5d0\uac8c": 22717, "\uc120\ub3d9\ub2f9\ud55c": 27413, "\uc138\uacc4\uc77c\ubcf4": 28628, "\uc774\uc6a9\ud574\uba39": 28078, "\ub178\ub3d9\uc790": 15143, "##\ucf01": 6835, "\ud64d\uc601\ud45c": 19852, "\uc6e1": 2387, "\uc4f0\uc5ec": 28987, "##\uc300": 4872, "\uc124\ub808": 15628, "\ube60": 1679, "\ub178\ub9dd": 15320, "##\uc274": 5452, "\ud55c\uac78\ub808": 12933, "\uc0ac\uc774\ube44\uc885\uad50": 17241, "\uc720\uba85\ud55c": 18301, "\uc608\uc804": 9979, "##\uc8fc\uba38\ub2c8": 26338, "\uad70\ub300": 8859, "##\uc325": 7509, "\ubd81\ud575": 15357, "\uc18c\ub144\ubc95": 24161, "\ucf10": 3026, "\ubcbc\uc2ac": 21944, "\uc790\uc2dd\ub4e4\ub3c4": 27706, "\ubd80\uc0b0": 9530, "\uc5ed\uc801": 13139, "##\ucdb4": 7090, "##\ubb60": 7228, "\ubc15\uc9c0\uc6d0": 13925, "\uc774\ub7f0\uac83\ub3c4": 19605, "\uc774\uc7a5": 29609, "\uac8e": 269, "##\ud55c\ud14c": 8027, "##\ub530\uad6c": 18356, "\ub097": 586, "##\uac11\ub2e4": 19850, "##\uc798\ud558\ub294": 22090, "\uc800\ub7f0\uac70": 14519, "##\ud558\ub294\uac70": 8166, "##\ubd91": 6936, "##\uaecc": 5085, "##\ub86d\uace0": 22257, "##\uc164": 6005, "\ubb34\uae30": 10291, "\uc751": 2436, "\ub9d0\uc544\uc8fc\uc138\uc694": 29629, "\ub098\ub258": 28093, "\uc704\uc0dd": 21144, "\uc6f8": 2394, "##\uc600\ub294\uc9c0": 24478, "##\uc8e7": 7301, "\uc544\ub0b4\uac00": 23867, "\ubb38\uc81c\uc778\uc9c0": 25038, "\ud76c\uc0dd\uc744": 27262, "\uc194\uc9c1\ud788": 8876, "##\ucc28\uc6d0": 27451, "\uadf8\ub7ec": 8060, "\ubc30\uce58": 17238, "\ud6f5": 3495, "##\uc600\uc74c": 12825, "\ucd5c\ud6c4": 15754, "##ir": 21199, "\ud560\ud150\ub370": 15168, "\uc0ac\ud0dc\uac00": 14969, "\uac00\uc2dc": 17158, "\ubbf8\uad6d\uc758": 11353, "\uac1c\uac80": 13406, "##\uc76d": 6573, "##\ub7c9\ud55c": 13833, "\uace0\ub09c": 25237, "\ub530\uc9c0\uba74": 15234, "\uc99d\uad8c": 26042, "\uae30\uc790\ub4e4\uc740": 26304, "##\uad6c\uc7a5\ucc3d": 18812, "\ud669\ub300\ud45c\ub2d8": 28835, "\ud50c": 3336, "\ub0a8\ubd81\uc774": 28909, "\uca5f": 2751, "\ubc0d": 1474, "\uc0ac\uae30\uc5c5": 22338, "\uc5c6\uc5b4\uc9c0\uace0": 22950, "\ub5a0\uc624": 21142, "##\ud558\ub0d0": 8138, "##\ud560\ub4ef": 9900, "##\uc9c8\ud558\ub294": 16005, "\ucff5\ucf85": 19062, "##\ud68c\uc0ac\uac00": 29186, "\uc0ac\uc0dd\ud65c": 14739, "##\ubaa8\uc74c": 18543, "\uacf5\uc9c1": 11979, "\uac83\ubcf4\ub2e4": 21311, "\u2b06": 166, "##\ucda5": 5294, "\uc0dd\uac01\ub9cc": 15470, "\uc2dc\ubd80": 18549, "##\uc2e0\uac00": 21760, "\uc758\uc6d0\uc740": 26051, "\uba38\ub9ac\ub3c4": 26884, "##\uc720\uce58": 17788, "\uba39": 1338, "\uc9a4": 2683, "##\uac00\ubd10": 18398, "\uc601\ud5a5\uc744": 17283, "\uace0\ub300\ub85c": 27050, "##\ubb34\uc2dd": 19154, "\uc2e0\uc785": 24724, "\uc5b4": 2232, "##\uc798\ubabb": 10475, "\uc624\ud788\ub824": 8937, "\uc18c\ud658": 14563, "\ub192\uc774": 21473, "NO": 20093, "\ub108\ub3c4": 9175, "\ub4e4\uc5b4\uc11c": 12771, "\ubc25\uc904": 28779, "##\ub125\uc158": 23826, "##\ube2c": 7657, "##\ubea8": 5845, "##\uae30\uc790": 11356, "##\uc774\ubbf8": 20304, "\uc9c4\uc911\uad8c\uc740": 23828, "\uc37c": 2065, "\ube98": 1707, "\ub118\uaca8": 14959, "##\uc774\ub780\uac74": 29119, "\uc0ac\ub78c\ub9cc": 14221, "##\ub531": 4290, "##\uc138\ub2e4": 17477, "\ubd81\ud55c\uacfc": 11271, "\uc0b4\uc778\uc744": 21610, "\uaec4": 466, "\ube74": 1691, "##\uc820": 4328, "##\ubb3c\uace0": 10425, "\ud070\uc77c": 10520, "\uc5c5\uc801": 18778, "##\ud558\uc796\uc544": 13048, "\ub9c9\uc558": 19077, "\ubd80\ubaa8\uc758": 19509, "\ub918": 1248, "\ub888": 1219, "\uc2dc\uccad\ub8cc": 25376, "##\uc330": 6565, "\uc815\ub9d0": 8050, "##\uc0b0\uc5c5": 12326, "\ud2f0\ube44": 11556, "##\uc2dd\uc740": 16118, "\ub9c8\ub204\ub77c": 10603, "\ubbfc\uc911": 19550, "##\ub4e4\uc774\ub2c8": 24583, "##\uc0ac\uc5c5\uc790": 26166, "##\ub2dd": 4839, "\uce0c": 2959, "##\uc880\ud558\uc790": 28811, "##\ub49b": 7491, "##\uc601\uc7a5": 18936, "\uc178": 1891, "##11": 14982, "##\u2623": 7751, "##\ud83d\udc03": 7885, "\ub2f9\ud558\uba74": 21987, "\uc9f1\uac1c\ub4e4": 19205, "##\uacc4\uc0b0": 29367, "##\ud83e\udd80": 6049, "\ubabb": 1391, "\uc911\uad6d\ub9cc": 27766, "\ub7b4": 1145, "##\ud788\ub124": 21642, "\uc77d\ub294": 23722, "\uc815\uc2e0\uc801": 18625, "\ub791": 1125, "##\uadc0\uc2e0": 24007, "##\ub9c8\ub204\ub77c": 26492, "\ud83c\uddec": 3550, "##\uad6c\ub97c": 15738, "\ubc88": 1530, "##\ud54f": 4915, "\ube60\ub978": 14047, "\uc774\uae30\ud68c\uc5d0": 23749, "##\uc774\ub098\ud574\ub77c": 28281, "\ud314": 3236, "\uc18d\uc637": 29395, "\uc218\ub2e8": 13804, "\uc774\uc81c\uc57c": 13790, "##\ub1c0": 7287, "##\uc808\ud55c": 14000, "##\u314d": 5031, "\uca08": 2730, "\ubb34\uc8c4": 9984, "##\uc870\uad6d": 12727, "##\uc77c\uc774\ub0d0": 28599, "\ud06c\ub2e4": 15331, "\ubeb5": 1714, "\uace0\ub9d9\ub2e4\uace0": 21749, "##\ubca0": 4155, "\uc8fd\uc5b4\ub3c4": 11951, "\uba3a": 1339, "\ubabb\uba39": 24394, "\ucda9\ubd84\ud558\ub2e4": 27404, "MBC": 15756, "##\uc094": 5924, "\uc784\uae08\uc744": 28689, "##\ud78c\ub2e4": 13184, "\ub05d\ub098\uba74": 13561, "##\ub300\ud55c\ubbfc\uad6d": 10585, "##\uac14\ub098": 25153, "\ud83d\udd95": 3842, "##\ud574\uc9c0\uba74": 18829, "\ubd88\ud654\uc218\uc18c": 26184, "\ud638\ud154": 16099, "\u2734": 151, "\uc804\ub77c\ub3c4\uc5d0": 22567, "\ub2ec\ub824\ub4e4": 29849, "##\ub3c4\ub2e4": 23607, "\uc313\uc5ec": 29290, "\ubc84\ud2f0\uace0": 19373, "\ud83c\udf7b": 3624, "\ucd08": 2906, "##\ud558\ub294\uad6c\ub098": 10469, "##\uc69c": 6360, "##\uadb8": 6146, "\ubb38\uc81c\uc559": 21320, "\ub7fc": 1161, "##\uadf8\ub7f0": 12275, "\ub300\uc811": 13641, "\ud30c\ud2f0": 19343, "\ub9dd\uc815": 28082, "\uc5e8": 2267, "##\uba5c": 5672, "\ubc95\ubb34\ubd80": 8902, "\uac19\uc740\ub370": 8672, "\ubd88\ub824": 29742, "\uc543": 2169, "##\uae30\uae30": 22422, "##\u3145\u3132": 12243, "\ud83c\udf29": 3581, "\uc804\uad6d\ubbfc": 9731, "\ud574\uccb4": 10281, "##\ucf55": 5932, "##\ub300\uccb4": 8393, "\ub618\ub618\ubb49": 25378, "\ucd9c\uc785": 16613, "\uc88b\ub124\uc694": 26041, "##\uc6ba": 7893, "##\ub77c\ub294\uac8c": 12831, "\uc9c0\uc9c0\uc728\uc744": 28629, "##\ubc88\ubc29": 16709, "\uc65c\uc0ac\ub0d0": 28097, "\ub2f4\ubc30\ud53c": 26749, "##\uc154\uc57c": 10708, "\uc2e0\uacbd\uc368\ub77c": 24147, "##\uc2a8": 4522, "##\uaf33": 5430, "\ubed4": 1721, "##\uacf5\ubd80": 15503, "\uc5f0\uc7a5": 14391, "\ud559\uad50\ub294": 24211, "\uc5c6\ub124": 8987, "\ubc46": 1514, "\ub192\uac8c": 25279, "##\u3148": 4745, "##\ud574\uc57c\ub418": 26942, "\uc7a1\uc885": 25729, "\uc4f0\ub808\uae30\ud1b5\uc5d0": 29731, "\uc2dc\uac04\uc774": 11154, "\ub124": 654, "\uc800\ub7ec\uace0": 15561, "\uc720\ud559\uc0dd": 14162, "\ud22d\ud558\uba74": 17869, "##\ud560\uac74\ub370": 19501, "\uc950\uace0": 21262, "##\uce6d": 4778, "##\ucc0c": 4162, "\ud83d\ude07": 3856, "\ub2c8\ub4e4\uc774": 8337, "##\ubc84\ub9ac": 10920, "\ud1b5\uacc4\ub97c": 29047, "\uc788\ub124": 8667, "\ud460": 3310, "\ub2e4\ub154": 14610, "\ub304": 811, "\uc545\ud654": 17367, "\uc0ac\ub85c\uc7a1": 22791, "##\uc3e8": 7431, "\ubf5a": 1752, "##\ucf54\ud328\uc2a4": 13180, "\ub538\uc740": 14109, "##\ubd80\ub9ac\ub294": 22802, "\uc870\uad6d\ub9cc": 27475, "\uc544\ub2c8\ub4e0": 27258, "\uafb8\uc900\ud788": 19600, "\uc774\ub798\ub77c": 21158, "\ud328\ub2c9": 25997, "\uc378": 2062, "\ube44\ud589": 11234, "##\uac80": 4645, "\ud83d\udc92": 3775, "\uc5ed\uaca8\uc6cc": 19110, "##\uac04\uc12d": 22133, "\uc5bb": 2239, "\uc57d\ub3c4": 29298, "##\uace0\uae30": 13942, "##\uccad\ub144": 27066, "\ube46": 1666, "\uc9c5": 2691, "\ubc00": 1469, "##\ub4e3": 4712, "\uc815\ub155": 23772, "##\ub554": 5883, "##\ucd40": 7103, "##\ube7d": 5313, "\ub54c\ub9ac\ub294": 23328, "##\u00ae": 7953, "\uc800\ubc88": 16565, "\ubaa8\uc154": 18996, "\uc544\uc800": 28678, "##\ub9de\uc9c0": 24155, "##\uc9d1\uad8c": 13619, "\ubb34\ub840": 19647, "##\uaebc\ub77c\uace0": 24508, "\ub300\ubd80\ubd84": 9027, "\uc218\uc900\uc740": 19901, "##\ub1cc": 4703, "\ucd94\uc545\ud55c": 13784, "\ubb38\ucc9c\uc9c0": 12487, "##\uc8fc\ub294\ub370": 16781, "\ub0a0\uc528": 19972, "##\uc758\uc6d0": 8161, "\u3147\u314b": 24888, "\ud1b5\uc7a5": 21889, "##\ud83d\udc3d": 6210, "\ub5a8\uc5b4": 8400, "\uae4c\ub77c": 17691, "##\uc813": 5079, "\ub178\ud2b8": 16684, "##\uac00\ub85c": 15678, "##\ub9ac\uc790": 9856, "##\uc815\uc5d0": 12671, "\ub118\uc774": 14092, "\uac07": 203, "##\ud560\uc218\uc788\ub294": 16066, "\uc0ac\uc7ac\uae30": 17361, "\uc57c\ub2f9\ub300\ud45c": 28963, "##\ud55c\uac70\ub0d0": 13369, "\uc77c\ubc18\uc801\uc778": 23818, "##\ub9ac\uc138\uc694": 11580, "\ud339": 3252, "\ucfe1": 3066, "\uce6d": 2982, "##\ub3f1": 6425, "\uc815\uc2e0\ucc28\ub824\ub77c": 10888, "\ud480\uc5b4": 11055, "\ucd5c\ucd08": 14336, "\ub610\ub610": 23345, "\ub3d9\uc544": 14888, "\uba48\ucdb0": 20634, "\ubbf8\uc2a4\ud130": 26176, "##\uc815\ub3c4\uc758": 26910, "\ucd9c\uad6d": 19305, "\ub411": 897, "##\ubab0\uc544": 28904, "\uad6d\ubcf4": 27109, "##\uc870\uce74": 26445, "##\ub9cc\ud558\ub2e4": 15637, "##\uae30\uace0": 8570, "##\ud574\uc57c\ub9cc": 25085, "\ub3c5\uac10": 22263, "\uc18c\ub9ac\ub2e4": 25732, "\ucc45": 2856, "\ubc14\uafd4\uc57c": 16858, "##\uadf1": 7306, "\uc5c6\ub294\uac83": 22526, "##\ub9e4\uc7a5": 25574, "##\ud569\ub2c8\uae4c": 11673, "\ub18d\ub77d": 19568, "\uac10\uc5fc\uc790\uac00": 23413, "\ub298\ub9ac\uace0": 20880, "##\uc2e4": 4353, "##\ud83d\udc92": 7588, "\uad50\uc218\ub294": 25437, "\uc55e\uc7a5\uc11c": 20369, "\uc1fd": 1924, "##\uac1b": 6235, "\uadf8\ub9bd\ub2e4": 28660, "\uc544\ub974": 27576, "\uc815\uc2e0\ubcd1": 8806, "##\ud6c4\uc190": 19036, "##\uac13": 4868, "##\uc815\uce58\uc778": 22908, "##\uad1e": 6179, "##\uc0b4\uc9dc\ub9ac": 25777, "\uac00\uc871\uc774": 12153, "\uc5e2": 2262, "\uc0b4\ub77c\uace0": 21654, "\ub0b1\ub0b1": 21771, "\uba54\ub974\uc2a4\ub54c": 17889, "\ud3ff": 3300, "8\uc5b5": 27467, "\ud558\ub098\ub2d8\uc774": 16132, "\ubab8\uc774": 18532, "\ucf5c": 3047, "\ud551\uacc4": 10451, "\uae30\ub2e4\ub824\ub77c": 18268, "\uc6a9\ub3c8": 17720, "\uc5ed\uc0ac\uc801\uc73c\ub85c": 19434, "\uc751\uc6d0\ud558\ub294": 22149, "\uc0ac\ub78c\uc778\uc9c0": 25577, "##\uc744\uac74\ub370": 24447, "##\uc774\ub098": 8006, "##\uc654\ub358": 19419, "##\uc9c0\ubabb\ud55c": 22348, "\ud83d\udc49": 3726, "##\uc5b8\ub860\uc774": 23707, "\ubbff\uc74c": 14438, "##\ud559\uc0dd": 9068, "\ube64\uc2a4\ubaa9\uc0ac": 29360, "##\ub2e0": 5990, "\uc0c8\ubcbd": 12866, "\ub0b4\uc138\uc6cc": 23378, "\uc544\ube44": 23519, "\uad70\ub300\uc5d0\uc11c": 28363, "\uc544\ub2c8\uc5ec": 25037, "\uc790\uae30\ub97c": 24668, "\ud48d\ub144\uc774\ub2e4": 26824, "##\uc18c\ub2c8": 20661, "##\ub525": 6712, "\uc9c0\ubbfc": 17942, "##\uc815\ubd80\uac00": 11136, "\uba58\ud2b8": 29886, "##\uae70": 6434, "\uc0ac\ub78c\uc785\ub2c8\ub2e4": 19899, "\ud55c\uc815": 22925, "\uc6b0\ub9ac\ub294": 9143, "\uad00\uc2ec": 8638, "\ucc30": 2844, "\uc8fc\uc704": 14573, "##\ubc15\uace0": 19567, "\uc911\ud559\uad50": 24121, "\ub9d0\ud588": 26782, "\ud574\uc57c\ud558\ub098": 22704, "\ube55\ub2c8\ub2e4": 11744, "\ub300\uac00\ub9ac": 8551, "\uc591\ud30c": 19942, "##\uc11c\ub97c": 12579, "\uccb4\uac10": 22495, "\uc0ac\ud68c\uc8fc\uc758\uc790": 20728, "\uc774\uc775\uc744": 12732, "\ud5c8\ud5c8\ud5c8": 22931, "\ud3d0": 3289, "\uc54a": 2175, "\uc6b0\ub9ac\ub97c": 13502, "\ud750\uc9c0": 25238, "\ud551": 3350, "##\ub13f": 6701, "##\ub7ec\uc6b4": 8280, "##\ub098\uc634": 19553, "\uadfc\ub85c\uc790": 25640, "##\ud558\ub3c4\ub85d": 13073, "\uc5c6\uc2b5\ub2c8\ub2e4": 10072, "\uc5c6\uc5c8\ub294\ub370": 20705, "##\ub2e8\uc774": 11413, "\ubd84\ud1b5": 28760, "\uc2e0\uc120": 23645, "\ud83d\udc25": 3693, "##\uc8fc\uc2e0": 27829, "\uae08\ub9ac": 25278, "\uc545\ub9c8\ub2e4": 26208, "\ubaa8\uc2b5\uc774\ub2e4": 27948, "200\ub9cc": 20392, "\ub9d8\uc5d0": 11756, "\ubcf4\uace0\uc11c": 27372, "##\ub85c\uc6cc": 23986, "##\uc6e9": 6790, "\uae30\uc0ac\ub124": 21824, "\ub2e4\ubb38\ud654": 26540, "\ubc15\uadfc\ud61c\ubcf4\ub2e4": 23968, "\uc774\uc720\ub2e4": 27197, "##\ubd88\ub7c9": 29875, "\uc885\ubd81\uc88c\ud30c": 13994, "\uc548\ub418": 8125, "##\ub2f9\uaed8": 16647, "##\ud55c\ub2e4\ub294\uac74": 23089, "\uc6ae": 2358, "\uc2dc\uc791\uc740": 29759, "##\ud83d\ude36": 7011, "\uc800\ub798\ub77c": 25216, "\uc758\uc804": 13030, "##\ud574\uc9c0\uace0": 15789, "\ubaa8\ub450\uc5d0\uac8c": 24599, "\uacf3\uc740": 17885, "\ud2b9\uac80\uc73c\ub85c": 27056, "##\ubcf4\uac00": 16601, "\ucf88": 3058, "\uc88c\uc880\ub4e4": 16055, "##\ud2bf": 6786, "##\ucc0d\uc5b4": 20431, "##\u2611": 7466, "\ub9de\uc774": 26062, "\ub094": 585, "\ud83d\udc31": 3703, "\ub178\ubb34\ud604\ub54c": 22378, "\uc5b4\uac70\uc9c0": 17279, "\ud330": 3250, "\uc7ac\ub300\ub85c": 23085, "\ud83c\udded": 3551, "\ud558\ub2c8\uae4c": 11153, "\ub2e4\ub974\ub124": 23715, "\ubb38\uc7ac\uc778\uc815\ubd80": 13461, "\uc0ac\ub3c4": 25947, "\uc790\ub3d9\ucc28": 11621, "\uca09": 2731, "\uc800\uc778\uac04": 18276, "\uc368\uba39": 19133, "\uac1c\ud559": 10671, "\uacc4\uc2ed\ub2c8\ub2e4": 24074, "\uc989\uc2dc": 14629, "\ubaa8\ub974\uaca0\ub124\uc694": 18726, "##\ud568\ub3c4": 24756, "##\uc2b9": 4218, "\ud55c\uc2ec\ud558\ub2e4": 9485, "\ub4e0": 949, "\uc410": 2105, "\uc790\uadf9\uc801\uc778": 24222, "\ub188\ub4e4\ub3c4": 23336, "\uc678\uacc4": 24955, "##\uae49": 5851, "\uae68\uc9c4": 15305, "\uc0b4\uc778\uc8c4": 25025, "##\uc167": 5225, "##\uc2dc\ub300": 8889, "\ubbff\uc74c\uc774": 15886, "\uc0ac\uc774\uc5d0\uc11c": 28256, "\ub4d5": 946, "\ubc37": 1507, "##\ubc14\ub2e4": 17180, "\ubd88\uc0c1": 29826, "##\ubcf4\ubcf5": 11696, "\ubc1d\ud600\uc9c8": 25453, "##\ub204\uad6c": 16371, "##\ub1e8": 4614, "##\ubaa8\uc73c": 24775, "##\ubbf8\uc560": 9779, "##\ud83d\ude81": 5373, "\uac1c\ub5bc": 26185, "\ud544\uc694\ub294": 24722, "\ud0dc\ub3c4\uac00": 27623, "\ud328\uace0": 29581, "\ub418\uc11c": 14826, "\uac19\uc5b4": 26639, "\ud574\ub2f9": 11174, "##\ub118\ub4e4\uc740": 17960, "\ud83d\udc04": 3670, "\ub9de\uc5b4": 24629, "\u223c": 107, "\ubc2e": 1502, "##\uc55e\uc5d0": 10664, "##\ub9b4\ub4ef": 26615, "##\uc788\ub294\uac70": 15128, "\uc544\uc608": 9452, "\uc804\uccb4\ub97c": 18602, "\ud608\ub9f9": 29038, "\uc77c\ubcf8\uad70": 18482, "\ub514\uc9c8": 19772, "##\ud558\uaca0\uc8e0": 24713, "\uc2ec\uc2e0": 26278, "\ub098\ubca0\uc57c": 24348, "\ubbf8\uc548\ud558\uc9c0\ub9cc": 28089, "\ud0c4\ud575\uc774": 14079, "\uc6c3\uae30\ub124": 12901, "##\ud83d\udccc": 7409, "\uc9c0\ub3c4\uc790\uac00": 19223, "\uc774\uc81c\uc640": 28754, "\uca13": 2736, "##\uc881": 5569, "\uc758\ub8cc\uc9c4\uc774": 24932, "\ud559\ud3ed": 20706, "2018\ub144": 24603, "##\uae08": 4301, "##\uc78a": 5566, "\uc7a5\ubaa8": 14420, "##\ub294\uc9c0": 8100, "\uc090\ub6a4": 24133, "\uc640\ub3c4": 23890, "##\uc815\ubd80\uc5d0\uc11c": 24540, "##\ub54c\ubb38\uc774": 28742, "##\uae30\uc2eb": 18206, "\ub9d0\ud588\ub2e4": 19646, "\uac32": 232, "\ubf41": 1745, "10\ubc30": 24392, "##\uc572": 7775, "\ud2ad": 3207, "\ud553": 3351, "##\uc788\uc73c\ub2c8": 12616, "\ub354\ub7fd": 9196, "\uc815\uce58\uac00": 13261, "2030": 18904, "##\uc714": 5628, "##\uae38\ub85c": 19946, "\ub4d0": 945, "##\ud558\ub354\ub2c8": 9623, "\uc18c\uc1a1": 12819, "\uae30\ud68d": 13894, "##\uc130\ub2e4": 24510, "\uc544\ud30c\ud2b8\uac00": 29486, "\uae40\uc7ac\uaddc": 26987, "##z": 5568, "##\uc790\uc2dd": 9693, "##\uae50": 4300, "\uc2ec\uc9c0\uc5b4": 10778, "1\uc8fc\ud0dd": 26069, "70\ub144": 16757, "\uac70\uaca0\uc9c0": 28797, "\uc774\ucbe4": 11003, "\ub180": 690, "\uaf9c": 520, "\ub144": 671, "\uc22f": 1941, "\ud37d": 3264, "##\ud0dc\uc6b0": 13247, "##\uc720\ud559\uc0dd": 20160, "\ub625\uc774": 22711, "\ubec9": 1718, "\uc81c\uc790\ub9ac": 25288, "##\ucc98\uac00": 27781, "\uac1c\uc778\uc801\uc73c\ub85c": 15626, "##\ud5d0": 5422, "##\uacc3": 7052, "\ub2e8\ub3c5": 15455, "\ubb3c\uac74\ub108": 23506, "\uc9d5\uadf8\ub7fd\ub2e4": 24828, "##\ub41c\uac8c": 16506, "\uba85\ubc31": 12659, "\ub1fd": 718, "\uad6d\ubbfc\uc138\uae08\uc73c\ub85c": 14708, "##\uc5d0\ub300\ud55c": 14824, "\ubabb\ub4e4\uc5b4": 16673, "\ubd80\uae00": 26399, "##\uad50\uc8fc": 21620, "##\uc2a4\ud14c": 21136, "##\ub540": 5714, "\ud6c4\uc548\ubb34\uce58": 21398, "\ud639": 3444, "\uba86": 1372, "\uad6d\ubbfc\uc774": 8315, "\uc774\ubc88\uc5d0": 9639, "\ub4c8": 944, "\ubc1b\uae30": 23701, "##\uc149": 5269, "\ub358\uc9c0": 28205, "\uc138\uc885": 15440, "\ub2f9\uc2dc\uc5d0": 28684, "\ub0c5": 614, "##\ucd25": 6640, "\ubed4\ud558\uc9c0": 22123, "\uc774\ub7f0\uac78\ub85c": 24067, "##\uc218\uc758": 10948, "##\uafe7": 6212, "\ud74c": 3515, "##\uc2eb": 4472, "##\uc778\ubbfc": 14429, "\ubbfc\ub0af": 12745, "##\ub2a8": 5117, "##\uc63c": 6703, "\uc274": 1968, "\uc5f0\uba85": 23155, "\ub96d": 1260, "##W": 5196, "\ub9cc\ub4e4\uc5c8\ub2e4": 18614, "\uc911\ub9bd\uc744": 29237, "\uc54c\uaca0\uc9c0": 17763, "\ubb38\uc2ac\ub78c\ub4e4": 19104, "\uc815\uc758\ub85c\uc6b4": 11145, "\uba49": 1346, "##\uc548\ub2e4\uace0": 28210, "\ubc30\uae09": 13691, "##\ubc30\uc0c1": 14524, "\uc82d": 2550, "\ud798\uc744": 10053, "##\ub3c4\uc548": 11525, "\ub098\ub77c\uc778\ub370": 22679, "\ud83d\uded1": 3930, "\ub4dc\ub9bd": 14495, "\ub85c\ub9e8\uc2a4": 27777, "\ub300\ub2e8\ud558\ub2e4": 10329, "\ub178\ucd9c": 15206, "##\ucc28\ub97c": 13519, "\uc774\uc0c1\uc740": 18025, "\uc135": 1859, "\ucd1d\uce7c": 25434, "\ubcf4\uc774\uc9c0": 11577, "##\ub0b4\uc9c0": 13878, "\uccad\ub144\ub4e4": 18841, "\uc9c4\uc131": 26979, "\ub07c\uc5b4": 18528, "\ubaa8\ub798": 28388, "\uc5ec\uc790\ub791": 27260, "##\ubc94\uc744": 29187, "##\ub959": 4706, "\ud558\ub294\ub9d0": 20424, "\ub098\ub77c\uaf2c\ub77c\uc9c0": 21649, "##\ub77c\ub124": 22686, "\uacbd\uc81c\ud65c\ub3d9": 21966, "\ube60\uac00": 25775, "\uc138\uae08\uac77": 25830, "##\uc870\uc120\uc871": 22667, "\uc7a1\uc544\uc57c": 17175, "##\ubeec": 6196, "\uc800\ub144": 21808, "\ubc1b\ub294\ub2e4": 14419, "\uc5b4\ub5a4\uc9c0": 19250, "##\uc138\uc0c1": 10812, "\uccad\ubb38\ud68c\uc5d0\uc11c": 21458, "\uac19\ub358\ub370": 23684, "\uc77c\ub2e8": 9083, "##\uae30\ub098": 10745, "\uacf5\uac1c\ub97c": 28448, "\ub418\uc5b4\ubc84": 22592, "\ud558\ub294\uac83\uc774": 18754, "\ud53c\uc790": 29272, "\ud5e3": 3420, "##\uce85": 6168, "\uc18d\uc5d0": 17318, "\ub00c": 548, "\uc81c\uc77c": 8699, "\uba4b\uc9c4": 14093, "\ubc29\ud5a5\uc73c\ub85c": 20196, "\ubc84": 1527, "\uac16\uace0": 10206, "\ub2e8\uc77c": 24375, "\uc754": 2438, "##\ub837": 4414, "\ub460": 923, "\ubca0\uc774": 21483, "\ud558\ub294\uac70\uc784": 29465, "\uc548\ub418\uc8e0": 24669, "\ub531\ubd10\ub3c4": 18511, "##\uc545\uc9c8": 18573, "\uc0dd\uac01\ud55c\ub2e4\uba74": 22141, "##\ud305": 4465, "\ubabd\uace8": 23007, "\ud734\uac00": 12558, "\uc721": 2408, "\ud1b5\uce58": 18108, "\uace0\ub9c8\uc6cc": 14994, "\uc0ac\ub294\uac70": 19680, "##\uac70\ub9ac\ub294\uac70": 29717, "\uc3e0": 2092, "\ubbf8\uad6d\uc73c\ub85c": 15953, "\uc218\ucd9c\uaddc\uc81c": 22983, "##\uc838\uc57c\ud55c\ub2e4": 27231, "\uc545\uc758": 12171, "##\uc9c0\ub098\uba74": 27959, "\uc785\ub2e5": 20903, "##\uad54": 6218, "##\ub17c\ub9ac": 11407, "\uba17": 1335, "\uc99d\ub9d0": 16937, "##\ubc14\uc774\ub7ec\uc2a4": 12725, "\uc2e4\uc815": 25630, "\ub2f9\uc2dc": 9815, "\ud37c\ubd80": 23673, "\ub36b": 844, "##\ub780\uac8c": 18434, "##\uac19\uc774": 8299, "\ub9dd\uac00": 12067, "\uc9c0\uc6d0\ud558\ub294": 27393, "##\ub7ad\uc774": 25240, "\uce30": 2965, "\uc7a1\uac83\ub4e4": 29203, "\ubb34\uc9c0\ud55c": 16209, "##\ub04b": 6215, "\uc7a5\uc560": 11264, "\ud83e\udd30": 3961, "##\uc790\ub4e4\uc774": 8656, "##\ub371": 5855, "\ucad3\uc544": 16856, "\uac1c\ub9dd": 21369, "\uc49e": 2126, "##\ud55c\ucc44": 21339, "\ub6d4": 1082, "\uc83c": 2558, "##\uba39\ub294\ub2e4": 29276, "\ubab8\uc73c\ub85c": 22663, "\uc9c0\ub784\uc774\uc57c": 27531, "\ub11d": 650, "\uc0b4\uc544\uc628": 15948, "\ub300\uc120": 9311, "\ubcf8\uc778\ub3c4": 16504, "\uaf3d": 500, "##\uad8c\ub825": 11410, "\ubcf8\uc9c8\uc740": 20921, "\ud55c\ubc29": 13820, "\uc50c\uc6b0": 17057, "\ub6f0\uc5b4": 11053, "##\ub2f9\ud574": 16555, "##\uaca0\ub2e4\uace0": 9093, "##\uadf8\ub85c": 16972, "\ub9dd\uce5c": 17237, "\ud310\uce58\ub294": 21739, "##\uc218\ub098": 23789, "55": 24401, "\ub180\ub78d\uc9c0\ub3c4": 24048, "\uc6b0\ub9ac\ub3c4": 9654, "\ub188\ub4e4\uc774\ub2e4": 18724, "##\ub9bd\uc2dc\ub2e4": 14117, "\uc77c\uc790\ub9ac\ub3c4": 27170, "\uac1c\ud310\uc778\ub370": 28552, "\uac8c\uac70\ud488": 29163, "##\uba55": 6286, "\uc0dd\uac01\ud574\uc57c": 27572, "\ubb34\ub2a5\uc744": 29527, "\ud589\ub3d9\uc73c\ub85c": 17548, "\uc798\ud588\ub124": 27129, "\uc5f0\ud569": 12519, "\ubbff\uc73c\ub77c\uace0": 25590, "\uad76\uc5b4\uc8fd": 17460, "\uc6ac": 2357, "\uc784\ub9c8": 16436, "\uc870\uc791\uc9c8": 11322, "\uc0fc": 1835, "\uacf5\uc218\ucc98": 8597, "##\ubabe": 5632, "\uc787\ub2e4": 28295, "\uae30\uc131": 23183, "\ub3c4\ub451": 9657, "\ubc14\ub9ac": 26902, "##\uad2c": 7405, "##\ub4dc\ub9ac\uace0": 19655, "##\uccaf": 7909, "\ubd80\ud65c": 13705, "\uad6d\ud68c\uc758\uc6d0\uc774": 13023, "##\uc57c\ud560": 20061, "\ubb3c\uc5d0": 20970, "##\ub369\uc5b4\ub9ac": 11094, "\ubaa8\uc778": 15103, "##\uc8fc\ub0d0": 13403, "\uc8fc\uc625\uc21c": 23677, "\ud53c\ub85c": 24569, "\uad74": 353, "\ubaa8\ub450\ub4e4": 23209, "##\uc2a4\ub97c": 14751, "##\ub153": 4531, "##\ub09c\ub2e4\uace0": 18066, "\uc0ac\uace0\ubc29\uc2dd": 20248, "\ubb34\ud610\uc758": 21349, "##\ub429\ub2c8\uae4c": 25532, "\ub4e0\uac8c": 23950, "\uc544\ube60": 10641, "\uc804\ud615\uc801\uc778": 11639, "\uad8c\uc704": 22554, "\uc7ac\uc6a9": 28988, "\uacf5\uac1c": 8631, "##\uc131\ud55c": 20878, "##\uaf79": 7534, "\uc9c4\uc815\uc131": 18139, "\uc778\ub2f9": 28799, "\uca5d": 2750, "\uc790\uc0b4\uc744": 25683, "##\ub3c4\ub85c": 9917, "T": 53, "\uae30\ubc18": 17406, "\ubb50\ub798": 15090, "\uacbd\uc6b0\ub294": 20874, "\uc5f0\uc608\uc778": 10478, "##\uc870\uc6a9": 27330, "##\uc5ea": 6602, "\ucda9\uc131\ud558\ub294": 28054, "\uacd8": 301, "\ub3d9\uc6d0": 10261, "\ub4a4\uc9c0": 13721, "\ubc29\uc2dd\uc774": 28218, "##\ub294\uac74\uac00": 10924, "\uc81c\uae30": 15467, "##\uc9c0\ub2c8\uae4c": 23306, "\ucc38\uc11d": 11351, "\ud83c\udf1f": 3579, "\uc80f": 2534, "\ub9d0\ud558\ub294": 9127, "\uc601\uc6d0\ud788": 10495, "\ub128": 656, "\ud53c\uace0": 26188, "##\ub3a0": 5854, "\uc811\uc218": 22113, "##\uc788\uc744": 15175, "##\ud398\uc774\uc9c0": 26726, "\uc560\ub294": 16135, "\ub9cc\ub098\uace0": 22807, "##\uc749": 6398, "\uc911\uad6d\ud55c\ud14c": 14283, "\ubc18\uc131\ub3c4": 24600, "\uad50\uc721\uc774": 21266, "\uc774\uc911": 9720, "\ub04c\uc5b4\ub0b4": 10413, "\uc11c\uae00": 28096, "\uc624\ub79c\ub9cc\uc5d0": 20646, "##\ud1bc": 6175, "\ubb9b": 1444, "\uc790\ub3d9": 10273, "\ubaa8\uae08": 17867, "\ud83c\udf04": 3564, "\uc788\ub124\uc694": 13144, "\uc557": 2186, "\uc2dc\uacc4": 14760, "\uc815\ud1b5": 22485, "\ubbf8\ub798\uac00": 11605, "##\uc758\uc6d0\ub4e4": 21388, "\uc9dc\ube60": 26577, "\ub354\ud588\uc9c0": 26709, "##\uc840": 7312, "1\uc77c": 24709, "##\ud560\uac81\ub2c8\ub2e4": 24655, "\ub9c9\uc7a5": 15971, "\ud558\uc168": 11289, "\ucca0\ud559": 22206, "##\uae4c\ud398": 28486, "##\uac12\uc744": 16278, "\ub300\uc678": 24494, "\ubae0": 1401, "\uc804\uc7ac\uc0b0": 16741, "\ucd09\uad6c": 24857, "\ud83d\udc3e": 3715, "\uae30\uc544": 27366, "##\ub098\ub77c\uac00": 11617, "tv": 17244, "\uc695\uc2ec\uc774": 18397, "\uc8fd\uc9c0": 22255, "\uad6d\ubbfc\uc774\ub2e4": 23487, "\ud76c": 3528, "\ub9d0\uc544\uba39": 10099, "##\uc911\uc694": 16916, "##\uac00\ub294\uac70": 15528, "##\uac70\uc5ec": 27819, "\uac80\uc0ac\ub4e4\uc774": 28670, "\ubfcc\ub824": 18358, "\ubbf8\uad6d\ub3c4": 12690, "\uc88b\uac8c": 13216, "\uc5ed\uc2dc": 8294, "\uc2dc\ub300\uc5d0": 13256, "\ud83c\udf52": 3611, "\ud83d\ude13": 3868, "##\ub85c\ub294": 10102, "\uc81c\uc678": 11193, "\uc678\uace0": 18745, "\ub1a7": 703, "\uc55e\uc5d0\uc11c": 10978, "\uc0ac\ub78c\uc774\uba74": 21763, "\uacf5\uac08": 21829, "\uc7ac\ubc8c": 10923, "\uc9c4\uc785": 23647, "##\ubcc0\ud638": 25299, "##\ubc94\uc8c4": 9440, "SBS": 24274, "##\ud558\uae30\ub294": 14401, "\uc560\ub4e4": 8650, "##\ubc14\uae00": 20854, "\uc810\uac80": 28209, "\uac15\ud0c8": 28122, "\ud574\ucc98\uba39": 23558, "##\ub77c\ub354\ub2c8": 26658, "##\ubbc0\ub85c": 12593, "\uc99d": 2680, "##\ub917": 6826, "##\uad65": 5928, "\uc870\uad6d\uac00\uc871": 17667, "##\ub9f4": 6337, "\ubb38\ud1b5\ub839": 29637, "\ub0a8\ub294": 21049, "\ub180\uba74\uc11c": 26513, "\uba06": 1331, "\ucd9c\uc7a5": 28185, "##\ub020": 7058, "\ub9ce\ub2e4\ub294": 17997, "\ub21c": 728, "##\uaddc": 4095, "\uc74c\ub780": 25528, "##\uaeed": 5966, "##\ub9d0\uc740": 10408, "\uc2b9\ucc28": 20813, "\uc678\uba74": 12976, "\ub530\ub974\ub294": 18221, "\ud574\uc57c\ud569\ub2c8\ub2e4": 18418, "\ucda9\uc2e4": 23976, "##\ud4f9": 6450, "##\ub2db": 5230, "##\uc5ee": 5716, "##\ub418\uc9c0": 9441, "\uacbd\uc81c\uc0b4": 28299, "##\ube5f": 7222, "##\ud588\ub358": 8984, "\uc5c6\uc5b4\uc694": 11046, "##\uacc4\ub97c": 11984, "\uc120\uc0dd\uc774": 29009, "##\ubbfc\ub2e4": 25860, "\uc11c": 1843, "##\uba67": 6298, "\uae4c\uc9c0": 9498, "\uc798\uc0ac\ub294": 15106, "##\ucce6": 6488, "\ubbf8\uce5c\uac1c": 21899, "##\ub358": 4217, "##\ud558\ub824\uba74": 12095, "\uad7b": 357, "\ucd9c\uc5f0": 15112, "##\ud574\uc81c": 21408, "\uccab\ubc88\uc9f8": 21139, "\ub0b4\ub824\uc640": 16069, "\uc0c1\ud638": 21530, "\uca67": 2756, "\uac83\ub4e4\uc740": 11367, "##\ub2ac": 4803, "##\uc218\uc218\uc0c9": 10229, "\uc2e4\uac10": 28139, "\uc870\uc0ac\ud574\ub77c": 13967, "\uba78\ub9dd": 15870, "\ubd88\ub9ac\ud55c": 19421, "\uace0\uc6a9": 10785, "\uadfc\uc131": 22890, "\ud329\ud2b8\uccb4\ud06c": 16874, "##\ub9d0\uc500": 18187, "\uc545\ubc95": 21476, "##\ub098\ubcf4\ub2e4": 15976, "\ub0b4\uc790\uc2dd": 24492, "##\ub290": 4035, "##\uc5ec\ub2f9": 18100, "\uc544\uc800\uc528": 13504, "\ub4e4\ud1b5": 14932, "\uac14\ub0d0": 24605, "##\uc77c\uae4c": 9781, "##Z": 5836, "\uc5f0\uc560": 13853, "\ubbf8\ud654": 17125, "##\ube44\uc5b4": 17118, "\uba87\ubc30": 27142, "##\uac00\uc11c": 8206, "\uc9c1\uc7a5": 10345, "\ubcf4\uc5ec\uc8fc\uc138\uc694": 21558, "\ub0b4\uc11c": 21962, "##\uc9e2": 6355, "\ud558\ub178": 19602, "\ud22c\ud45c\ub85c": 20552, "\ub9e5\ub77d": 23959, "\uc4b8": 2130, "##\ubd40": 7622, "##\ud558\uba74\uc11c": 8304, "##\uca4c\uace0": 17072, "\ub204\ub974": 26939, "##\ub9ac\ub294\uc9c0": 26968, "##\u2642": 5421, "##\ubd80\ub044\ub7fd": 27373, "##\uc7e4": 5962, "\ubef0": 1732, "\ub9d0\uc774\ub2e4": 11024, "\uc778\ub958": 13124, "\ubc18\ubbfc\uc871": 27143, "##\uc790\ub9ac\uc5d0": 17746, "##\ubabb\ud574\uc11c": 24982, "##\uc5b4\uc57c\ud55c\ub2e4": 15166, "\uc8fc\uc8fc": 28156, "##\uc324": 5223, "\uac15\uac04\ubc94": 27776, "\uc5b4\uca54\uc218": 11406, "\ubd99\uc774\uace0": 24741, "\ub317": 820, "##\ub6d4": 6734, "##vs": 28242, "imf": 18802, "##\ud558\uc790\uace0": 11885, "\ubb34\ucc28\ubcc4": 27714, "\uc5c6\uc5c8\uc74c": 27757, "\ub0b4\uc8fc": 14903, "##\ud55c\uac70\uc784": 20313, "##\uc544\uce58": 8854, "\uc982": 2672, "##\uc870\ucc28": 9790, "\uc606\uc5d0": 12638, "\ubc30\uc6e0": 13242, "\uc9c0\ub4e4": 8420, "\ub3c5\ub9bd\uad70": 19938, "##\ub290\ub07c": 22531, "\uae30\ubed0": 23958, "\ucc98\uc74c\ubd80\ud130": 11729, "\uad6d\ud68c\ub85c": 22479, "##\uc9c0\uc9c0": 8840, "\uc289": 1976, "##\ub775": 5906, "\ubc84\ub9ac\uace0": 11277, "\ud3d0\uc5c5": 15502, "\uc9d3\uac70\ub9ac\ub97c": 17457, "##\uae7c": 6103, "\uace0\uae30": 17174, "##\uc788\uc74c": 10749, "##\uae08\ub3c4": 19793, "\ub098\ub77d\uc73c\ub85c": 23536, "\ub545\uc744": 20835, "\ub9cc\ub0a0": 18569, "\uc601\ud654": 9376, "\ud324": 3244, "##\uc0c8": 4255, "##\ub985": 5479, "\uc6b0\uc9f8": 16468, "##\ud83c\udf11": 7318, "\uc774\ud574\ucc2c\uc774": 22553, "##\ub648": 6401, "\ub54c\ubb38\uc785\ub2c8\ub2e4": 22840, "\ubc95\ubb34\uc7a5\uad00\uc774": 27896, "\uc5f0\uad6c": 10294, "\uac10\uc625\uc73c\ub85c": 26366, "##\ud30d\ud55c": 26909, "\ucc2e": 2842, "##\uc742": 7200, "\ub09c\uc7a5": 25937, "##\ud83d\udc00": 5865, "##\uc804\uc774": 14331, "\uc138\ud0a4": 29482, "\uc131\uc870\uae30": 20414, "\ub9ac\uc5bc\ub3cc": 24886, "##\uaca0": 4101, "\ubcc0\ud568": 25726, "\ub828": 1184, "##\u2734": 6152, "##\ub294\uac70\uc5d0\uc694": 29024, "\uc55a": 2189, "\uc640": 2320, "##\ud0d4": 4897, "##\ub87c": 7496, "\ud76b": 3527, "\uc9f1\uaed8": 16154, "\uc870\uad6d\uc774": 8671, "\ubed0": 1719, "\uad6d\ubbfc\ud608\uc138\ub85c": 26491, "##\uae7d": 4963, "GP": 28997, "\uc791\uc791": 11881, "\uc81c\ub3c4\uac00": 28645, "##\ud55c\uc904": 14879, "\ub0b4\uac00": 8227, "##\ud2b9": 4752, "##\ubabb\ucc28": 14110, "\uc6d0\ubcf8": 21232, "##\ub9df": 6075, "##\ubd80\ucc44": 19873, "\uacbd\uc81c\uc5d0": 16417, "\uc544\uc774\ub97c": 13570, "##\ubbc7": 7523, "\ud574\ub77c": 8282, "##\ub2e4\ud558\uace0": 19326, "\uc2f8\uc6b0": 10331, "\uba38\ub2c8": 22608, "\ubaa8\uc2dc": 24062, "\uc720\uc9c0": 9846, "##\ud83d\udc76": 7648, "\uc554\uc6b8": 19705, "\ucb3d": 2793, "\uc5f4\uc2ec\ud788": 8725, "##\ub2e4\ub974": 16715, "\uc218\uc0c9": 20527, "##\uc618": 5863, "##\ub9ac\ub2e4": 11294, "\ub4a4\ub97c": 24653, "\uc784\uc9c4": 16638, "\uc190\uc7a1\uace0": 13684, "\ub2c8\ub098": 18246, "##\ub82c": 4732, "\ub4dc\ub8e8\ud0b9\uc774": 25346, "\uc77c\uc2dd": 17876, "##\uc0dd\uacbc": 13999, "##\ub9db\uc5d0": 23780, "##\ubbf8\ub85c": 15117, "\uc6b0\uc120": 9496, "\ud3d0\uc9c0\ud558\uace0": 25595, "##\uc9c8\uc758": 26764, "\uc5b4\ub838": 29036, "\uac16\ucd98": 29195, "\uba74\uc0c1\uc5d0": 29309, "CCTV": 26173, "##\ub2ed": 4671, "##\ube75": 4555, "\ud558\uc9c0\uc694": 26820, "\uc870\uc544": 19905, "\uac00\ub9ac\uace0": 20662, "\ub2e4\ub974\uba74": 21527, "\uad6d\uc81c\uc801\uc73c\ub85c": 23004, "\ubc95\uce58\uc8fc\uc758": 22764, "##\ub41c\ub2e4": 8210, "\uc63a": 2315, "\uadf8\ub7f0\uac70\uc9c0": 20765, "\uc18d\uc744": 22076, "##\uacf5\ud56d": 16939, "\uba84": 1370, "##\ub9c8\ub514": 8744, "\uae30\uc220\uc774": 19702, "\ub2e6": 788, "\uc778\uac74": 12645, "##\uc2dc\ud558\ub294": 22106, "\ub098\uc05c\uc9d3": 22168, "\uaed2": 472, "\uc774\ud574\uc548": 21651, "\uc788\ub358": 11759, "\uba39\uc774": 25119, "\ud55c\uba85\uc774\ub77c\ub3c4": 29816, "\uac93": 271, "\uc74d": 2432, "##\ud653": 7157, "\uc678\ubd80": 17047, "\uc790\uc219": 20188, "##\uc9de": 7602, "\uc778\uad8c\uc744": 16652, "##\uac11\uc2dc\ub2e4": 18865, "\uccbc": 2889, "##\ud729": 6765, "1\uc808": 29933, "\uc8fd\uac8c": 14612, "##\uc6d0\ub4e4\uc774": 24405, "##\ub300\uad6c": 20353, "\uac1c\ubfd4": 11517, "\uc9c0\uc18d": 13797, "##\uc774\uc796\uc544": 14846, "##\uac08\uc774": 16180, "\uc788\uc73c\ub098": 19269, "\uc131\uad00\uacc4": 21537, "##\uc774\uc5c8\ub124": 22394, "\uae00\ub7ec": 28015, "##\ub4e4\uc5b4": 8051, "\uac10\ub3d9": 13912, "\ub099\ub9c8": 24546, "\u2714": 147, "##\uc18c\ub9ac\ub3c4": 24218, "\ubd80\ubaa8": 8318, "\uc2e4\uccb4\ub97c": 19341, "\uae30\ud53c": 25516, "\ube6c": 1686, "\uc870\uc0ac\ud558\uc790": 29424, "\uac00\ub2f9": 29069, "##\uaf34\uc774": 20402, "\uad50\uc721\uac10": 19535, "##\ud34c": 6619, "##\ucd1d\uc120": 11666, "\ud2b9\ubcc4\ud55c": 24961, "\ucc9c\uc548": 18486, "\uc598\ub3c4": 23520, "\uac9f": 275, "##\uadf8\ub9cc": 10935, "##\ub24d": 7867, "\ud83c\udf0a": 3566, "\uc774\ub807": 14499, "##\uc5c8\ub2e4\ub294": 13788, "\ub4f1\uc774": 21597, "\ud488\uc9c8": 23201, "##\uae46": 6953, "\uc5b4\ub9b0\uc560": 19952, "\ub5a0\ubc8c": 20330, "\ub180\uc774": 20265, "\ub610": 1052, "\ud798\ub4e4\uc5b4\uc11c": 24643, "\uc77c\ubcf8\ub188\ub4e4": 17305, "##\ub269": 6516, "\ud55c\ub9d0": 21108, "##\ub2a6\uac8c": 19225, "##\ub9bc": 4394, "\uc0dd\ub5bc": 28346, "\ub0b4\ub193\uace0": 17122, "##\ud1a1": 4990, "##\uaf44": 7849, "##\ub4f8": 6090, "\uc791\ud488": 15489, "##\ud130\ub9ac": 13858, "\uc774\uc911\uc7a3": 23857, "\uc774\uc6a9\ub9cc": 23323, "##\ub9ac\uc548": 29060, "\ucc9c\uba85": 29847, "##\ucda9\ub4e4": 11922, "\uc815\uce58\uac80\uc0ac": 26765, "##3\uc77c": 29652, "##\uc815\ucc45\uc744": 18155, "\uc0ac\uc7a5\uc774": 20923, "\ub2f9\ud558\uace0": 10810, "\uc798\uba39\uace0": 15458, "\uc815\uc2e0\ucc28\ub9b4": 16214, "\uc758\ub8cc\ubcf4\ud5d8": 16260, "##\uadf8\ub7ac": 16482, "\uc5c6\uc564": 24280, "\ub2ee\uc740": 27986, "\ubc15\uace0": 29563, "\uc0b4\ud3b4": 16239, "##\u223c": 6086, "\uc8fc\uc81c\ub97c": 29170, "\uc54a\uc73c\uba74\uc11c": 24854, "##\uc529": 4679, "\uacfc\uc815\uc5d0\uc11c": 26061, "\uac70": 248, "\uc785\uc99d": 15969, "##\uc138\uc5ec": 15395, "\ud55c\uc2ec\ud558\uae30": 25292, "\uc548\ub418\uc11c": 18113, "\ub9ce\uc774": 8159, "\uc704\uc120\uc790": 12281, "\uc7a3": 2490, "##\uccad\uc7a5": 12076, "##\uc368\ub77c": 12613, "##\ube62": 4890, "\uc815\ubd80\uc640": 12827, "\uc548\ucca0\uc218\ub294": 23449, "\uac00\ub294\uac70": 20486, "\uba4d": 1350, "\uc0d5": 1816, "\ub9d0\ub9cc": 10232, "##\uc744\ub550": 21358, "\ub04c": 562, "\ubc29\uc5b4": 13562, "##\uc778\uc904\uc54c": 28382, "\uc0c8\ub85c": 13753, "##\ucc64": 6223, "##\ud558\ub2e4\ub294": 10341, "\uc9d0\uc2b9": 10511, "##\ub098\ubd10": 14979, "##\uc774\ub97c": 9522, "##\ub9ac\uc5b4": 15913, "\ud558\uace0\uc788\ub294": 23188, "\ucabd\ubc15": 28296, "\uc885\uc591": 21356, "##\uad58": 6800, "\uc0ac\uace8": 28497, "\ud610\ud55c": 15263, "##\ud1a0\ucc29": 19707, "##\ubc14\ubcf4": 27054, "##\uacf5\uc791": 16038, "100\uc870": 29452, "\ub108\ub294": 9039, "##\uc154\ub3c4": 18670, "##\ub9fd": 7903, "##\ud264": 6227, "\ud37c\uc8fc\uae30": 16930, "\uac9c": 273, "\ub0b1": 606, "\ud50c\ub808\uc774": 25132, "##\uc5b4\uc9c0": 16463, "\ucd1b\ubd88\uc740": 22445, "##\uc0c1\uc704": 26073, "\ub098\uc624\uc9c0": 11924, "##\uc7e8": 7155, "##\ub808\uc2a4": 10770, "##\uc218\uc900\uc774": 13407, "\ubb34\uc5c7\uc778\uc9c0": 16232, "\uc120\ub3d9\uacfc": 26469, "\ub098\uc740": 14112, "##\uc790\uc0b4": 20332, "##\uc5b8": 4151, "\uacc4\uc2e0": 14789, "\uce85": 2990, "##\ub42c\ub2e4": 24842, "\ubc15\uc6d0\uc21c\uc774": 25155, "\uad6c\uc18d\uc218\uc0ac": 14718, "\uc774\ub188\uc544": 20607, "\uc810\uc810": 9841, "\ub3d7": 874, "\uc678\uad50\ub294": 18280, "##\ub780\uac78": 20113, "\uc18c\uc911": 12140, "##\uaebc\ub2e4": 10645, "\ubb38\uc774": 23076, "\ud655\uc2e4\ud55c": 13549, "##\ud3b8\uc740": 20169, "\ub8d0": 1230, "##\ub07d": 5805, "\ubc30\uace0": 16679, "\ubb34\ub9c8": 19919, "##\uc2f2": 6473, "##\uc800\ub7f0": 15854, "##\uc1fc\ub97c": 21657, "\ub7a0": 1136, "##\uc2dd\uad6c": 20638, "\uc0ac\uc804\uc5d0": 22339, "\ub9dd\ud588\ub2e4": 20963, "##\uc5b4\uc9c0\uace0": 26994, "##\ubf40": 5842, "\uc774\ub798\uc11c": 9542, "\ub531\ub531": 27621, "\ucb9d": 2808, "##\ud560\uac83": 10701, "##\uc790\ub85c": 9363, "\uac00\uaca9\ub3c4": 27313, "\ub179\uc74c": 24165, "##\uc2dc": 4039, "##\ubc46": 6876, "\ud2cd": 3219, "\uae4c\uba39": 26029, "\ub41c\uac70": 15061, "##\ub35f": 5684, "\ub108\ub124\ub294": 17063, "\uc2b9\ucc28\uac70\ubd80": 25684, "\ud588\ub2c8": 27751, "\uc6d0\uc870": 17008, "##\ub2c8\uac00": 14694, "\ubb38\uc740": 27175, "##\uc53e": 7660, "\ubd80\uc11c": 27279, "\ubb38\ube60": 8740, "\uc204": 1926, "\uc785\uad6d\uae08\uc9c0\ub97c": 27844, "\ub4e3": 951, "\ube68\uac31\uc774\ub4e4\uc544": 21105, "\uc790\uc791": 22294, "\uc9d1\uc744": 13620, "##\uce58\ub9e4": 16224, "\u26a1": 134, "\uc9c0\ub8f0": 29912, "##\ud83d\udc33": 7525, "\uc804\uc138\uacc4\uc5d0": 17875, "##\ud558\uc2dc\uc8e0": 18634, "##\uc774\uc2a4": 12198, "\uc9dc\uace0\uce58\ub294": 19488, "\uc544\ub530": 17590, "\uc870\ub450\uc21c": 19304, "\uc774\uc804\uc5d0": 16855, "\uc81c\uc815\uc2e0\uc774\ub0d0": 20982, "##\u2199": 7942, "\ub920": 1249, "\uc548\ud55c\ub2e4": 11693, "##000\uc6d0": 21595, "##\ube8f": 4823, "##\uc5c8\ub098": 9901, "\uc54a\uc73c\uba74": 10612, "\uacf3\uac04": 29362, "##\uc2ec\ud788": 8668, "##\ud574\ub2ec\ub77c\uace0": 16610, "##\uc0ac\uad00": 14201, "##\uc200": 5030, "##\uc804\uc5d0\ub294": 27553, "##\uc29b": 7231, "##\ube5b": 5237, "\ub418\uaca0\ub2e4": 17866, "##\ub4dc\ub9ac\ub294": 27645, "\uc774\ucc2c": 28624, "\uc774\uac04": 13463, "\ubd88\uc21c": 25294, "5": 24, "\ud55c\uad6d\uc804\uc7c1": 27422, "\ubaa9\uc18c\ub9ac\uac00": 25147, "\ud574\uc0c1": 24318, "\ubc95\uc5d0": 16941, "##\ud588\uc74c": 10959, "\ud55c\ub458\uc774": 26734, "##\uac83\uac19\uc544\uc694": 24816, "##un": 16370, "\ub9e5": 1316, "\uc18c\ub9ac\ub3c4": 23738, "\ub9fd": 1327, "\uaf2c\ubc15": 16326, "\ud558\ub294\uc9d3\uc740": 24542, "##\uc804\ud55c": 17200, "34": 23335, "\uc774\uc0b0": 28679, "\uc774\ub534": 9586, "##\uc0ac\ud68c": 9423, "##\uc548\ud558\uace0": 10135, "##\ud83d\ude17": 6207, "\uc77c\ubcf8\ub3c4": 12521, "##\uc788\ub2e4\ub294": 20256, "\ud2b8\uc9d1": 13793, "\ubbf8\uc138\uba3c\uc9c0\ub294": 21559, "##\ud1a0": 4775, "##\uc6b8": 4330, "\uacf5\uc0b0\uc8fc\uc758\uac00": 22906, "##\ud574\uc8fc": 8648, "\ud6c5": 3480, "\uc138\uc0c1\uc5d0": 10069, "\ub4dc\ub7ec\ub098": 20655, "\uc62c\ub77c\uac04": 29813, "\ubd80\ubaa8\ub294": 16203, "##\ucc2c\uc591": 20525, "##\ud558\ub2c8\uae4c": 9296, "\ube44\ud310\ud558\uba74": 24504, "##\uc0f9": 5745, "##\ubc15\uc9c8": 28827, "\uc448\ub97c": 26129, "##\uc65c": 4259, "\uc628\ud1b5": 13397, "\ub5d4": 1045, "\ud589\ub3d9\ud558\ub294": 22097, "##\uc655": 4552, "##\ub4e4\uc774\ub124": 11604, "##\uc9d1\uc5d0\uc11c": 14474, "##\uc2dc\uc6d0": 15298, "##\ud55c\uc790": 26720, "\uc778\uac04\uc758": 12509, "\uad8c\ud55c\uc744": 26889, "\uc0ac\ub78c\ub4e4\uc740": 8908, "\uc548\uac08": 21655, "##\ubfd0\uc778": 21898, "\uc0b3": 1791, "##\ud83c\udfc3": 6886, "##\ub2d8\uc744": 12687, "\uc9d1\uac12\uc740": 19547, "\uc0ac\uae30\uce5c": 25791, "\u2716": 148, "\uad00\ub8cc": 20993, "\uad6d\ubbfc\uc138\uae08": 10748, "\ud83c\uddf8": 3559, "##\uc73c\ub2c8\uae50": 20666, "##\ub5d1": 7553, "##\uc774\ub4e4\uc740": 18032, "\ucd5c\uc21c\uc2e4\uc774": 14863, "\uc0ac\uc9c0\ub85c": 25786, "##\ud034": 4256, "\uc758\uacac\uc774": 21100, "\ud55c\ub450": 10716, "\ucd94\ubbf8\uc560": 10088, "\ub418\ub294\uc904": 24079, "\ub2e8\uc5b4\uac00": 20764, "##\uc679": 7835, "##\ub51c": 5181, "\uc544\uc90c\ub9c8\uac00": 26705, "\uc121": 1847, "\uc170": 1887, "\uae4a\uc740": 18907, "\uadf8\ub534\uac70": 29781, "\ub8b1": 1225, "\uc640\uc6b0": 18104, "\ubcf4\ub0d0": 19244, "##\uc544\ub140": 19278, "\uc9c0\uc778\ub4e4": 28597, "##\uc74c\uc5d0": 18775, "\ubb38\uc7ac\uc778\uc774\ub791": 25224, "##\ud6c8\ub828": 15724, "##\uc8fc\ub294\uac8c": 15469, "\ucf5c\ub77c": 21932, "\ubc14\uc774\ub7ec\uc2a4": 9112, "\uc5e4": 2264, "##\ubdd8": 6854, "\ub204\uad6c\ub791": 26714, "\uc560\ub3c4": 16165, "\ub3d9\uc120": 20767, "\ubaa8\ub974\uaca0\uc9c0\ub9cc": 13708, "\uc218\uc785\uc774": 27215, "\ub36e\uc5b4": 13899, "\uac04\uc8fc": 27907, "##\uc218\uc5d0": 14534, "\uc2f9": 2028, "\uc2dc\ub044": 11064, "\uad00\ub9ac": 9551, "##\uc2dc\ucf1c\uc57c\uc9c0": 22688, "\ubb38\uac00\uac00": 24362, "\uc0dd\uac01\ud574\ubcf4\uba74": 22109, "\uae30\uc058": 29801, "\ub8b0": 1224, "\ubc18\uacf5": 18657, "##\uc5b8\uc774": 19334, "##\ub2fc": 5295, "##\ucae9": 7078, "\ub4e4\uc5b4\uc624": 12068, "\uc0ac\ub0d0": 13997, "\ub2e4\ubd84": 29199, "\ubcc4\uac1c": 22917, "##\uc7a5\uad70": 15159, "\uc758\uacac\uc744": 15665, "\uc790\uae30\ub4e4\ub07c\ub9ac": 26289, "##\ub294\ub370\ub3c4": 10372, "\ubc18\uc77c": 8637, "##\ud83d\udc2e": 6593, "\uc544\ub2c8\ub784\uae4c\ubd10": 17217, "\uc870\uc791\ud558\uace0": 21954, "##\uc885\uc774": 19101, "\uacc4\uc88c": 15216, "\uae7b": 453, "##\ub450\uba74": 14531, "\ucc38\uace0": 10816, "\ubd80\ub2f9": 19526, "##\uc5d0\uac8c\ub3c4": 13323, "##\ub54c\ubcf4\ub2e4": 23710, "\uad50\uc8fc": 14132, "\uad70\uc778\ub4e4": 18173, "\uc8fd\uc5b4\ub098": 11198, "##\uc0a4": 6266, "##\ub208\uc5d0\ub294": 25481, "\ucc9c\ubb38\ud559": 23773, "\uc790\ub8cc\ub97c": 27008, "\uc815\uc9c1": 13082, "\ucd94\uc559": 27177, "\ub2ec\ucc3d\uc544": 24241, "\u26d4": 139, "\ud608": 3433, "\uc0c1\uc2b5": 24594, "##\uc7a1\uace0": 9532, "\uafbc": 524, "##\uce8c": 7811, "##\ub3fc\uc9c0": 8183, "##\ucd1f": 5178, "\uacf5\uad70": 29906, "##\uc2dc\uc2a4": 27357, "##\ud55c\uc2ec": 20148, "\ub2e4\ub978": 8137, "##\ud83c\udf3b": 7249, "\uac00\ud574\uc790\uac00": 21310, "\uc131\uc7a5\ub960": 25638, "\ud2b8\uc704": 17030, "##\uae09\uc5ec": 19495, "\uc131": 1856, "\ucee4\ubba4": 26164, "\uc774\ub530\uc704\ub85c": 20712, "\uc0bb": 1796, "##\ub4f1\uc744": 17750, "\ube54": 1671, "##\uc11d\ud76c": 10614, "\uc5b8\ud589": 15308, "##\ub78d": 4553, "\uc9c1\uc5c5": 10390, "\ud2c0\ub2c8": 14873, "\ucda9\uccad": 16499, "\ub418\uc5c8\ub124": 22975, "##\ucad1": 5465, "\uc0dd\uae30": 10173, "\uc218\uc900\uc5d0": 18782, "##\ucc3d": 4183, "\ube68\uac31\uc774": 8147, "\uc2e0\uc7ac": 15795, "\uc468": 2117, "##50": 11440, "##\ub838\ub294\ub370": 12891, "##\uc544\uae5d\ub2e4": 23809, "\uc65c\uad6c": 9424, "\uc2fa": 2029, "\uc911\uad8c": 21073, "##\ubb50\uc57c": 25730, "##\ud83c\udf1d": 6644, "\ubc14\uce58\uace0": 27052, "\uc804\uc5fc\ubcd1": 11340, "##\uaddc\uc9c1": 11489, "\ub290\uadf8\ub4e4": 16384, "##\ub879": 6388, "##\ub194\uc11c": 19440, "\uae40\uc81c\ub3d9": 11235, "\uc190\uc11d\ud76c": 10914, "\ubcf4\uae09": 23461, "\ub2fd": 806, "##\ub54c\uba54": 29354, "##\ub294\uac70\ubcf4\uba74": 20232, "\ubabb\ud558\ub2c8\uae4c": 27092, "##\ub7ec": 4053, "##\ubacc": 5742, "\uacbd\uc81c\uc131\uc7a5": 17991, "##\ub4e4\ub9cc\uc758": 15506, "\uad6c\uc18d\uc601\uc7a5": 26133, "##\uc3bc": 5640, "\ub300\ud574\uc11c\ub294": 14021, "\ud639\uc138\ubb34": 28029, "\ubaa8\uc790\ub77c": 14194, "\ud6c4\ubc30": 18513, "##\ucef9": 6113, "\ub450\ub454\ud558\ub294": 22446, "##\u2665": 5105, "\ud56d\uc758": 12578, "##\ucd9c\ub9c8": 17933, "\uc2f8\uc6b0\ub294": 17526, "\ucf71": 3054, "\uba85\ubaa9\uc73c\ub85c": 24593, "\ubb38\uc5b4\ubc99": 13362, "2\ucc9c": 16636, "\ub300\ud574\uc11c": 10011, "\ud558\uc2e4": 16493, "\ub4f4": 966, "##\uac11": 4981, "\uc77c\ubcf8\ub188": 19597, "##\uac83\ub124": 14014, "\ud5c8\uc138": 25266, "\uc369\uc5b4": 11171, "\uc560\ud50c": 12703, "##\ud2d1": 7124, "\ubbf8\uac1c": 9695, "\uc544\uce68": 10830, "\ub300\uc138": 26641, "##\ub838\ub358": 28269, "##\ube05": 5501, "\uc778\uc0dd\uc740": 22649, "\uc774\ub7f0\uc790\uac00": 28422, "\uc5ec\uc131\uc774": 17782, "\ub098\uc911\uc5d4": 25711, "\ud83c\udf35": 3584, "\ubcdc": 1569, "##\ud55c\ud14c\ub098": 24744, "##\uc2dc\uccad": 25884, "\uc2e0\uc0c1": 11019, "\ub0b4\ub780\uc120\ub3d9": 27996, "\ubcf8\uc778": 8487, "\uae30\uc0dd": 9105, "\uad50\ubbfc": 20929, "\ud83d\udc6a": 3747, "\uc5c6\uaca0\uc9c0": 18835, "\ubb3b\uace0\uc2f6\ub2e4": 23304, "\uc6b0\uc0c1": 16898, "\ub2c8": 769, "##B": 4756, "\uadf9\ubcf5": 13534, "\uac80\uc740": 17218, "##\uc545": 4158, "\uc4bc": 2132, "\ub73b\uc744": 14416, "\ub300\uae68\ubb38\ub4e4\uc774": 16377, "\ubb38\ub300\ud1b5\ub839\ub2d8": 16466, "##\ud310\uc5d0": 10726, "##\ud83c\udf1b": 7051, "\uc5ec\uc131\uc744": 24512, "\ub364\ube44": 24918, "##\uce5c\ubd81": 26426, "\ud45c\ucc3d\uc7a5": 12056, "##\uc83c": 5370, "1\uc870": 17951, "##\ub4dc\ub9b4": 21353, "\ud83d\udc37": 3708, "\ub9dd\uc2e0": 11677, "\ubc1b\uc544\ub77c": 12506, "\uc918": 2641, "##\uc218\uc131": 27851, "\uc0ac\uc774\uc5d0": 19237, "\uc2dd\uad6c": 17762, "\u3142\u3137": 15196, "\ub118\ub294\ub2e4": 22942, "\uadf8\uac83\uc774": 11629, "##\ud5f7": 5681, "\uc788\uc5b4\ub3c4": 11141, "\uc624\ub298\ubd80\ud130": 23765, "\uc788\ub294\uac78": 23361, "##OOO": 9645, "##\ubc22": 7147, "##\uba85\ub3c4": 14704, "\uc37b": 2064, "##\ud574\ubcf4\uc790": 19841, "\ud560\uc77c": 11778, "IMF": 13229, "\ucc98\ubc8c\uc744": 14212, "\uc0e4\uc624\ubbf8": 28848, "\ub9c9\ud788": 27987, "\ubaaa": 1382, "\uc9c0\uacbd": 13172, "\ubb34\uc791": 18737, "\ubab0\uc544\ub0b4\uc790": 21519, "\uce5c\uc77c": 8179, "\uc218\ud559": 16456, "##\ub205": 6421, "\ud3ed\ud589": 10841, "##\ub124\ub294": 21095, "\uc774\ud589": 25254, "\uc18c\ubb38\uc774": 26120, "##\uc74d": 5315, "\ub3c8\ubc1b\uace0": 15842, "##\uaccc": 6511, "\uc0ac\uc0c1": 10941, "##\uac85": 4786, "\ub39c": 862, "##\ub4dc\ud3f0": 12854, "\ub610\ub2e4\uc2dc": 16302, "##\ud83d\ude02\ud83d\ude02\ud83d\ude02\ud83d\ude02": 29615, "\uc560\ub4e4\uc740": 10699, "\uadf8\ub0a0": 14652, "\ud504\ub808\uc784": 9820, "##\uc77c\uc740": 10196, "1\uc778": 12009, "\ub4e4\uc9c0": 22910, "##\ud604": 4175, "##\ud83d\ude06": 6010, "##\ub3c4\ub85d": 8596, "\uc774\uba85": 29448, "##\uc6cc\uc57c": 11344, "\ud83d\udc9d": 3786, "\ubc31\uc218": 13347, "\uae34\uae09": 13116, "`": 65, "\ubd80\ub2f9\ud55c": 26460, "\uc9c0\uc6d0\uae08": 12899, "\ub9de\ub098": 14160, "\uc624\uc138\ud6c8": 14596, "\uc800\ub188": 16117, "\uadc1": 381, "##\ub2a0": 5104, "\uc678\uc5d0": 25365, "\ub428": 904, "\uc2e0\uc758": 16108, "##\ucc28\ub824\ub77c": 24467, "\ubf1b\uc18d\uae4c\uc9c0": 28912, "##\uc474": 7080, "\ubbf8\ub798\ud1b5\ud569": 13436, "\ub098\ub97c": 15919, "\ubbf8": 1463, "\uac70\ub860": 17654, "\ud2b8\ub7fc\ud504\uc758": 24983, "\uc778\uc815": 8387, "\ubc15\uadfc\ud61c\uc640": 26685, "\uc784\ub300\ub8cc": 13959, "\uc228\uc740": 27762, "\uc608\ub2a5": 19572, "\uac10\uc815\uc744": 23603, "\ubcf4\uc721": 26032, "\ub3fc\uc9c0\ub85c": 16578, "\ud480": 3317, "##\uae11": 5657, "\ud55c\uc21c\uac04": 24894, "\uae68\ub2ec": 15677, "\uc2dc\ubbfc\ub2e8\uccb4": 11663, "##\ub08f": 6131, "\ub400": 891, "##\ub300\ub294": 8578, "##\ucd23": 7260, "##\ub418\uc5b4": 9079, "\uc9c4\uc791": 11333, "\uc790\uc720\uc640": 23744, "\ubc18\uc751": 12495, "\uc6b0\ub9ac\uc0ac\ud68c": 25524, "\uc18c\ub4dd": 9505, "##\ub95c": 5321, "\uc544\uc774\ub4e4\uc5d0\uac8c": 21091, "\uca94": 2762, "##\uc9c0\ub784": 13237, "\ubabb\uc0ac": 16769, "##\ubcf4\ub0b4": 9470, "\ud798\ub4e4\uc5b4": 10144, "\uc644\uc804": 8357, "\uae30\ub2e4": 9123, "##\ubc4c": 5108, "##\uc170": 5516, "\ubcc0\ud638\uc0ac\uac00": 21489, "##\uc911\uc5d0\uc11c": 23954, "##\uce58\uace0": 8351, "\ucc29\uc6a9": 19049, "\uc744": 2424, "##\uc11c\ub2c8": 18821, "##\uac71": 4523, "##\uc544\uc57c\ud55c\ub2e4": 20786, "##\uc754": 6904, "\ub178\uc870\ub294": 21869, "\uc218\ud589": 17129, "\ube60\uc9c0\uba74": 25622, "\uc5c6\ub2c8": 27344, "\uc0ac\ub78c\uc774": 8193, "@": 33, "\uc774\uc0c1": 8176, "\uc9c0\uc9c0\ud560": 26841, "\ub9c0": 1287, "\ubd24\uc73c\uba74": 22313, "Z": 59, "\uac10\ud788": 11227, "\ub300\ud55c\ubbfc\uad6d\uc758": 9517, "\uc778\uac04\uc744": 13454, "##\ubc84\ub9b0\ub2e4": 22321, "##\ud55c\ub2e4\ub294": 9038, "##\uc740\ub370": 10003, "\ubc9d": 1541, "\ubd84\uc0b0": 25897, "\ud544\uc694\ud560": 29096, "\ud669\uc81c": 17021, "\ud1f4\uc9c4": 17742, "\uc9c0\ub784\ub3c4": 18141, "\uc601\ud5a5\uc774": 25710, "##\uae4c\ubd10": 9628, "\uac04": 201, "##\ub429\ub2c8\ub2e4": 9345, "##\ud06c\ub7a9": 17545, "\ubcf4\uc5ec\uc8fc\uae30\uc2dd": 21733, "##\uc9c0\ub9d0\ub77c\uace0": 18929, "##\uaebc\ub77c": 20440, "\ub300\uaed8\ubb38": 29842, "\ubc16\uc5d0": 8752, "800": 24948, "##\ub9db": 4073, "\ub2e4\ub2d0": 14568, "\uc13f": 1867, "\ud6fb": 3496, "##\ube57": 5843, "\uc756": 2440, "##\ube60\ub294": 14747, "\ubbf8\uc131": 13188, "\ub908": 1245, "##\ud83e\udde2": 7259, "\ud6d3": 3485, "\uccad\uc640\ub300\ub97c": 22371, "##\uac10\uac01": 26668, "\ucd94": 2933, "##\ub4ef\ud55c": 16346, "##\uc6b0\ub098": 27634, "\ub420\ub4ef": 14261, "\ub2e4\ub97c": 10126, "##\ud66f": 7609, "##\uc788\ub294": 8174, "##\uc0b4": 4471, "##\uba8c": 5087, "\ubd80\uc871\ud55c": 16901, "##\ud140": 6002, "\ud604\uc9c0": 21864, "\ubb34\uc2a8": 8058, "##\ud574\uc57c\ud568": 12737, "\uc4f0\uc9c0\ub9d0\uace0": 20698, "##\ubcbc\ub77d": 29540, "\ubd98": 1625, "\uc6d0\uce59": 11403, "\uc54a\uc740\ub370": 20879, "\ub0a0\uc774": 12283, "\uc720\ubc1c": 17830, "\uaf2d": 493, "\uc88c\ud30c\ub294": 12627, "\ub0ab": 600, "\ubbc4": 1455, "##\ud401": 5122, "\uac70\uc9d3\uc774": 24670, "\uc1a5": 1906, "\ub300\ud45c\uc801\uc778": 19346, "##\ucc61": 6313, "##\uc7a1\uc544": 10740, "\ub3c4\uc785": 13672, "##in": 11444, "\uacaf": 285, "\ub9f5": 1320, "##\ud55c\uac70\ub2e4": 11950, "\uc2e0\uc885\ucf54\ub85c\ub098": 29962, "\uc815\ubb34": 25158, "##\uc872": 7908, "\ub54c\ub824": 9642, "##\uac00\uc694": 8877, "\uc77c\uc790\ub9ac\ub97c": 21592, "14": 11524, "\ub118\uccd0\ub098\ub294": 29149, "##\uacf3\uc774": 12044, "\ucc0c\uadf8\ub7ec\uc838": 17058, "\uad6d\ud68c\ub294": 21335, "##\ubb3c\ub9bc": 26854, "##\ud0c0\uba74": 29715, "\ub055": 566, "##\ud83e\udd1b": 7012, "n": 79, "##\uc61d": 7056, "\uad6d\uac00\uc6d0": 18809, "\ucd94\uad6c\ud558\ub294": 22385, "##\ud2f1": 5406, "##\ub294\uac70\uc5ec": 22558, "##\ud2ad": 5977, "##\uc7c1\uc774": 10078, "\ubb38\ubca0\ucda9": 24033, "##\uc81c\ub3d9": 11056, "\ub354\ud558\ub124": 28292, "##\ubc85": 4969, "\uc815\ub3c4\ub294": 13844, "\u00b7": 97, "\uac1c\ubbf8": 15322, "##\uc5b4\ub835": 28112, "\uc798\ubcf4": 26461, "##\ub295": 5664, "\uad6c\ucc28": 25110, "##\uc824": 4792, "\uc785\uad6d": 8447, "##\ub290\ub77c": 9270, "\uc990\uae30": 18791, "\ube44\uc6a9\uc744": 29867, "\ub098\ub77c\ub85c": 12363, "\uc804\uc138\uacc4\uc801\uc73c\ub85c": 21683, "##\ubb34\uc11c\uc6b4": 28836, "\uc815\uc0c1\ud654": 23931, "\uc91f": 2644, "\uc5b5\uc6b8\ud558\uba74": 22372, "##5\ucc9c": 25239, "\uad70\ub300\ub3c4": 15382, "\ubbfc\uc8fc\ub178\ucd1d": 14137, "##\ub514\uc5b8": 14292, "\uc746": 2426, "\uc2ac\uca4d": 24042, "\ud558\uaca0\ub0d0": 14410, "##\uc911\ub3d9": 9358, "\uac00\uc911": 18336, "##V": 4604, "##\ud770": 5535, "\uc5b4\uc6b8\ub9ac\ub294": 21490, "##\ube68\ub9ac": 11124, "\ub300\uaddc\ubaa8": 18886, "\uc0dd\uac01\ud558\ub294": 9343, "\ubab0\ub790": 9473, "\uce5c\uad6c": 9025, "\uc544\ub294\ub370": 12084, "\ub730\ub531": 29709, "\ub9ce\uc744\ud150\ub370": 28235, "\ubbd3": 1459, "\ub2a0": 756, "\ub7c9": 1152, "##\ubc1b\uc544\uc57c\uc9c0": 24177, "\ub921": 1250, "\ub300\uae68\ubb38\uc544": 25168, "\uc790\uc720\ub3c4": 29406, "##\ud83c\udfb4": 5981, "\ub3d5": 873, "\uc81c\ub3c4": 13431, "##\uc548\ud55c": 15071, "\ud604\uc2e4\uc801\uc778": 28158, "##\ubfcc\ub9ac": 28681, "\uad00\ub9ac\ub97c": 27984, "\uc9c0\uae08\uc640\uc11c": 23300, "\ub9ce\uc5b4": 25244, "##\ub4c4": 5677, "\uc7a5\uad00\ub2d8": 19051, "##\uc740\ud1f4": 27501, "\uc54c\uace0\ub3c4": 18042, "\uc560\ub4e4\ub9cc": 27145, "##\uce58\uba74": 10800, "\uc624\uc90c": 15701, "##\uce58\uc9c0\ub9d0\uace0": 23883, "##\uae30\uc5d4": 24895, "\ub3c4\ub451\uc9c8": 16422, "\ubbfc\uac04\uc778": 18626, "\uc811\uc18d": 24111, "\ubee0": 1724, "\ubd21": 1592, "##\uc1fc": 4501, "\uc2e0\uc18d": 15812, "\ud83c\udf41": 3596, "\ud1a0\ucc29\ube68\uac31\uc774": 17518, "\uacd7": 300, "\uc0dd\uc77c": 26878, "##\uce5c\uc911": 28489, "22": 15190, "\ud798\ub0b4\uc11c": 28844, "\uc774\ub9cc": 10121, "\uc720\ubd84\uc218\uc9c0": 26264, "\uc911\uad6d\uac00\uc11c": 22566, "\ud1b5\uc218": 17385, "\ub098\uc635\ub2c8\ub2e4": 21782, "\ud83d\udc91": 3774, "\ud83d\ude31": 3897, "##\uae48": 6482, "\ud654\uc774\ud305": 8938, "##\uadfc\uc131": 14016, "\uc5ed\uc0ac\uc801": 18938, "\uc218\uac11": 19417, "\ubc29\uad00": 19197, "\uc878\uac1c": 23094, "##\ub450\ub9ac": 21832, "\uadfc": 393, "\ub098\uacbd\uc6d0\ub3c4": 25086, "\ubaa8\uc9c8": 27099, "##\uc790\ub4e4\uc544": 24044, "\ub2f9\ud558\uc9c0": 19385, "\uc9c0\uc7a1\ub300": 27738, "\uafb9": 523, "\uc798\ubabb\uc744": 11261, "\uc5ec\uae34": 15150, "\uc560\ub4e4\uc744": 18576, "\ubb50\ub0d0\uace0": 28769, "\uc88b\uc544\ud558\uc9c0": 23989, "\ubc22": 1490, "\ub404": 892, "\uc720\ud765": 15589, "\ud0c8\ubd81\ubbfc": 29721, "\ud83d\udc6b": 3748, "\uaf80": 516, "\uccd1": 2894, "\uc0ac\ub78c\uc778\uac00": 23274, "##\uc660": 6247, "\uac00\uc99d": 13107, "##\uc138\uc6b0\uace0": 25197, "##\ud83c\udf1c": 7071, "##\uac78\ub9ac": 17616, "\ubd80\ub974": 9777, "##\ubcf4\ub4dc": 17662, "\ub625\uaf2c": 12314, "\uc281": 1972, "\ubb3c\ub7ec": 9638, "##\ud83d\ude14": 7186, "\uc608\uc5b8": 22481, "\ud2ac": 3206, "\uac03": 200, "\ubc84\ub974\uc7a5": 25806, "\uc4e4": 2136, "52": 24638, "\uc2e0\ucc9c\uc9c0\uc640": 19372, "\uc724\uc11d\uc5f4\uc740": 19575, "\uc804\uc7c1\uc740": 25527, "\uadf8\ub9ac": 8484, "\uc880\ube44": 10530, "\ud76c\uc0dd\uc591": 26924, "\uc54a\uc9c0": 18007, "\ud83d\udc43": 3720, "##\ub77c\uba74\uc11c": 16311, "\ud604\uae30\ucc28": 25192, "\uc724\uc11d\uc5f4\uc744": 24201, "\uc5d0\ubbf8": 29057, "##\uc608\uc694": 10380, "\ubc1b\uc544\ub4e4\uc774": 17954, "\uba85\ubd84\uc744": 27186, "\uc720\uac10": 19475, "\ubbfc\uc886\ub2f9": 24320, "##\uc774\ud06c": 14048, "\ube9c": 1709, "##\uc5c5\uc790": 9160, "\uc188": 1894, "\ub5a0\ub098\uc11c": 11331, "\ub1af": 706, "\ubc25\uac12": 27596, "\ucabd\ube60": 28500, "\ubbf8\uc0ac\uc77c\uc774": 27426, "\ub18d\ub2e8": 24628, "\uc778\uc0ac": 9396, "\ud83d\uddfd": 3847, "\uc5c6\uc560": 8760, "##\uc796\uc740": 15973, "\ub2ec\ucc3d\ub4e4\uc774": 18693, "\ub1e0": 713, "##\uc52c": 5401, "##\u27b0": 7671, "##\ud0c0": 4361, "##\ud574\ub3c4": 8150, "\ud83d\ude0f": 3864, "##\ub2fa": 5885, "\ubbf8\ud1b5\ub2f9\uc774": 18379, "##\uad8c\uc744": 10326, "\ubb3c\uc5b4\ubd10\ub77c": 21389, "##\uc778\uac83\uc744": 23438, "##\ub97c": 4180, "##\ub3c8\uc774": 14040, "##\ub9ac\uae30": 9919, "\ub618\ub618": 14867, "\ubc15\uc544": 25000, "##\ud55c\ub2e4\ub294\uac8c": 17152, "\uc2dc\uc6d0\ud55c": 29601, "\ubb90": 1442, "\uc2dc\uae30\uc5d0": 14686, "##\ud574\ub2ec\ub77c": 21364, "##\ubc1b\uc73c\uba70": 28634, "\uc603": 2284, "\ubd80\ud328\ud55c": 19562, "##\ud83d\udd32": 7734, "\ud83c\udf08": 3565, "\ub1cc\uac00": 9829, "##\uce6e": 6167, "\uc808\ub300": 8343, "##\ub85c\ub3c4": 15944, "##\ud588\ub2e4\uba70": 27439, "\uc0b4\ub2e4\uc0b4\ub2e4": 17061, "##\ud138": 4412, "\ub0a0\uce58\uae30": 24555, "\uc774\ub7f4": 9253, "##\ucf65": 5882, "\uace8": 307, "##\ud558\uae30\ub85c": 21449, "\ud694": 3472, "##\uc9c0\uc5d0\uc11c": 19227, "\ubc14\ub78c": 10108, "##\ub2f9\ub3c4": 17265, "\uc74c\ubaa8\ub860": 20132, "\uc9dc\ub974\uace0": 27804, "\uc53a": 2162, "\ubd81\ud55c\uad70": 16321, "\ubc15\uadfc\ud61c\ub3c4": 20534, "\uadf8\uc815\ub3c4\ub294": 28921, "\uad76": 355, "\ub9d0\ud574\uc11c": 22825, "\ud83c\uddf1": 3555, "##\uc704\uc870": 16571, "\uadf9\ub2e8\uc801\uc778": 24637, "\uc804\ubb38": 9084, "\ud55c\uad6d\uc778\uc774": 13883, "##\ud1b5\uc77c\uc744": 27752, "##\uc138\uc2b5": 22281, "\ub098\uac14": 14664, "##\ud55c\ub2e4\uba70": 20070, "\ubc1b\uc740\uac70": 23111, "\ubbf8\ub9ac": 10447, "\ud574\uc8fc\uc9c0": 26107, "\uac1c\ud310\uc774\ub124": 24315, "##\uc77c\ub824\uace0": 29355, "##\uc815\ud76c": 8976, "##\ubbfc\uc871": 10255, "\ub108\ud76c\ub4e4\uc740": 13276, "\ub098\ub77c\uaf34\uc774": 13508, "\ud0c4\ud575\ud558\uace0": 25396, "\uc548\ub77d\uc0ac": 17610, "\uc138\uc6d4\ud638\ub3c4": 28340, "##\uc740\uac74": 18955, "\uc548\ub418\uace0": 11216, "\uc6f0": 2393, "\ucd95\uc18c": 16507, "\uac1c\uc218\uc791": 16424, "\uac89\uc73c\ub85c\ub294": 24388, "##\ud0dc\uac00": 21075, "##\ubc15\ud55c": 21977, "\uacf3": 313, "##\ub5bc": 4436, "##\uc0ac\uba74": 23138, "##\ubc18\uc5d0": 23978, "##\ub1a7": 5756, "\uc9dc\uace0": 12057, "\uac15": 213, "\ub625\uce60": 19362, "\ud5cc\ubc95\uc7ac\ud310": 23016, "\ub098\uc5f4": 28746, "\ub4ed\ub2c8\ub2e4": 22028, "\ub420\uae4c\uc694": 25456, "##\ub300\uc6d0": 28252, "\uac01\uac01": 26017, "\uac15\uc6a9": 15699, "\uc815\uce58\ud310": 14736, "\ucca0\ubc25": 19886, "\uc88c\ud30c\uc758": 13940, "\ubab8\uc5d0": 16256, "##\uae38\uc744": 18770, "##\uc8c4": 4096, "##\uac1c\ud45c": 16543, "\uc544\ud30c": 14576, "##\ud83e\udd29": 6232, "\uc720\ub2c8": 10087, "\ubbfc\uc8fc\ud654\uc6b4\ub3d9": 14592, "##\uc0ac\uc758": 15253, "\ub2e4\ud558\uace0": 15716, "\uc624\uc9c0": 10967, "##\ud83d\udce3": 7132, "\uace0\uc0dd": 9022, "##\uc554": 5041, "\ud5db\uc18c\ub9ac": 9057, "##\ub150": 4558, "\ubc18\uc815\ubd80": 25102, "\ubeb8": 1715, "##\ube1d": 7038, "\uac8b": 266, "\uc774\ub2e8": 12319, "\uc778\uac04\ub4e4\uc740": 11343, "\uc118": 1842, "\ud45c\ub85c": 28099, "\uc544\ub2c8\uc5c8\uc73c\uba74": 25966, "##\ub2c8": 4198, "\ub09c\ub9ac\ub0d0": 22542, "\uc8fc\ubbfc\ub4e4": 22259, "\ud6d9": 3489, "\uc598\uae30\ud558\ub294": 20825, "\uac00\uc871\uc758": 24635, "\uc2eb\ub2e4\uace0": 17225, "\ub208\uc5d4": 26963, "\ub108\ud55c\ud14c": 19715, "\ubc1b\uc544\ub4e4": 16739, "\uac1c\uc18c\ub9ac\ub97c": 15978, "\ubc1c\uc804\uc774": 19639, "\ube0d": 1650, "\uc758\ud639": 9162, "\uc548\ub418\ub124": 17961, "A4": 23793, "\uc80a\uc740\uc774": 11645, "\uba38\ub9ac": 8492, "\uc601\ud654\ub97c": 25833, "\uc5c6\uc5b4\uc838\uc57c\ud560": 22799, "z": 91, "\ud654\uc7a5\uc2e4": 14551, "\ud560\ub824\uace0": 13232, "\uc7aa": 2497, "\uae30\ubcf8\uc801\uc73c\ub85c": 18107, "##\uc8e8": 7905, "\uc81c\uc57d": 28733, "\uc249": 1952, "##\ub77c\uc9c0\uac00": 13022, "##\uc888": 6671, "%": 9, "##\uc741": 6545, "\uc6c3\uc74c": 12971, "\uc549\ud600": 15633, "##\uc5f0\uc7a5": 23504, "\uacf5\uacfc": 25960, "\ubd88\ubc95\uccb4\ub958": 23748, "\uc54c\ub9b4\ub808\uc624": 27758, "##\uc9c0\uc9c0\uc790\ub4e4": 28075, "\uc0ac\ub0e5": 18017, "\ub300\uace0": 18900, "\uae30\ud68c\ub294": 22707, "##\ud55c\ub2e8": 26920, "\uc7d9": 2514, "\uc138\uae08\uc774": 11824, "##\ub880": 5788, "\ubcf4\uc774\ub124": 15853, "\ub538\uc744": 20495, "\uad74\ub7ec": 18686, "##\ub9ce\uc740\ub370": 21913, "\uc981": 2671, "##\ud83e\udd2f": 6302, "##\ubc93": 7613, "\uc5c4\ub9c8\ub294": 24697, "##\uca85": 6670, "##\uc7a6": 5170, "\uc1fc": 1923, "\uc870\uc791\ud574\uc11c": 25901, "\uc774\ucca0": 27167, "\uc548\ud55c": 13617, "\ub290\ub084": 18838, "##\ub098\uc774\uc5d0": 27662, "##\uc6d0\uc5d0\uc11c": 10682, "##\uc6d0\uc758": 18639, "##\ud83d\udc99\ud83d\udc99\ud83d\udc99\ud83d\udc99": 16786, "\ubb38\ub625": 27660, "##\uc7a5\ub2d8": 13196, "\uae38\uc774": 15193, "\uc757": 2441, "\uce58\ub9c8": 29854, "##\ubc1c\uad11": 17926, "##\uc654\ub294\ub370": 13782, "\uc91c": 2643, "\ub9b0": 1281, "\ub098\uac19\uc740": 25430, "##\uc774\uc775": 13707, "\uc6b0\ub9ac\ub791": 29525, "\uc913": 2637, "##\uc804\uc7c1": 10653, "\ud0c0\ub839": 10171, "\uc801\uc640\ub300": 14734, "\uc5b4\ub5a0\ub0d0": 25639, "\uac38": 236, "##\uc918\ub3c4": 11595, "##\ub902": 6663, "\ud138": 3137, "\ub4f1\uc740": 26376, "\uc0ac\uac74": 8557, "\ubca0\ub124": 11177, "\uc5b4\uca54\uac74\ub370": 24148, "##\ubd0c": 7527, "\ucd18": 2910, "\ubc38": 1508, "##\ud53c\ud574": 11901, "\uc9d1\ud569\uc18c": 20933, "##\ud06c": 4147, "##\uc784\uc5d0\ub3c4": 25769, "\uc11d\ud0c4": 15235, "\ub180\uace0\uc788\ub124": 24517, "\uace0\ub300": 13500, "\uc782": 2463, "##\u26f3": 7711, "##\uc880": 4411, "##\ub3c4\uac00": 9119, "\ub208\uaf3d": 27112, "\uc720\uc5d4": 16004, "\ub204\uad6c\ucc98\ub7fc": 27259, "\ubabb\ub530\ub77c": 24701, "\uc88c\uc9c0": 19845, "##\uc5f4\uace0": 25999, "\uc0b4\ud3ec": 25389, "\ucca0\ud1f4": 29327, "\uc870\uc120\uc758": 22068, "\ubb50\ub97c": 28581, "##\ubc88": 4566, "e": 70, "\uc564": 2198, "##\ub2f9\ud55c\ub2e4": 25716, "\uc5b4\ub5a1\ud574": 29392, "\uc774\ub7ec\ub2e4\uac00": 19193, "\ucd5c\ud0dc": 23037, "\ub2c8\uac00": 8239, "\ud83d\udd4a": 3836, "##\ub974\uc2e0": 12458, "\ud83e\udd28": 3953, "##\uc155": 5570, "\uadfc\uac70": 10181, "\uc7ac\uac74": 20027, "##\ub2c8\uc2a4": 24885, "\ub4f1\uace8": 19844, "\uc218\uc2ed\uc5b5": 21706, "##\uae38\uc774\ub2e4": 24217, "\ub0a8\uc790\ub3c4": 20585, "##\ub3c8": 4037, "##\uac00\uc988\uc544": 24940, "\uc5b4\ub5a8\uc9c0": 23652, "\ud06d": 3088, "\uc774\ubd84": 10804, "\ub4b9": 939, "##\ubc95\uc774\ub2e4": 29890, "##\uc6e1": 5033, "\ub3c4\uad6c\ub85c": 29675, "##\ubf41": 6439, "##\ud83c\udf56": 7744, "##\ube21": 5749, "\ub300\uad6d\ubbfc": 12422, "\uadf8\ub124": 11521, "\ubabb\ub09c": 13974, "\uc800\ubd84": 24521, "##\u313b": 7430, "\uc5b4\uc774\uc0c1\uc2e4": 28825, "\uc96d": 2665, "\uba87\uba85": 12674, "##\uc5b4\uc11c\ub294": 27453, "\uac00\uace0": 10323, "\uc88c\uc880\ub4e4\uc740": 26222, "\ud489": 3319, "##\ud560\ub54c\uae4c\uc9c0": 22676, "##\uae30\ub85c": 8880, "\uc124\uba85\uc880": 29177, "##\ubdd4": 5331, "##\uccd0\ub77c": 10822, "\uae30\uc0ac\ub9cc": 18364, "\ud83d\ude16": 3871, "##\ub77c\uc11c": 8630, "\ud6c8\uc7a5": 22401, "##\ubd80\ud488": 24016, "\ub098\uc11c\uc57c": 22630, "\uc9c4\ubcf4\ub77c\ub294": 26728, "\ud83c\udf3f": 3594, "##\ud601": 4954, "\ud61c\ud0dd\uc740": 22222, "\ube48\ubd80": 20182, "##\ubb45": 6332, "\uc790\ud55c": 17300, "\ub2e5\uce58": 25837, "\uc0c1\uc885": 17761, "\uc79b": 2485, "##\uad6c\ub098": 8030, "\uad8c\ub825\uacfc": 24946, "\ud55d": 3355, "\ub194\ub450\uace0": 19416, "\ube44\uad74": 18847, "\ub9d0\uc774\ub77c\uace0": 24054, "\ubd88\uc774": 23431, "\uc704\uce58": 19120, "\ubf08": 1736, "\ud83c\uddf5": 3557, "\ud83d\udc3a": 3711, "\ubb38\uc2ac\ub78c": 10265, "\uc774\ub984\uc744": 15203, "##\uad6c\uc5d0": 18560, "\ub2f5\ub2f5": 9224, "\uc21c\uc218": 12286, "\ub2a5\uc9c0\ucc98": 21047, "##\ub354\ub098": 25272, "\uc715": 2403, "\uc560\ucd08\ubd80\ud130": 21893, "##\ud130\uc9c0\uac8c": 24208, "##\ud763": 5850, "\ub9e1\uaca8": 19135, "\uc9c0\uc9c0\uce35": 20221, "\uc804\uad11": 11123, "\ucc28\uba85\uc9c4": 16103, "\ucc38\ud328": 21718, "##\uc1fd": 7438, "##\ub180": 4688, "##\uc92e": 7243, "##\uac8c": 4199, "##\ub9ac\ud2b8": 14314, "##\uc99d\uac00": 27474, "\ud30c\ud5e4\uccd0": 24976, "##\ucd1d": 4696, "\uc724\ucd1d\uc7a5\uc774": 26948, "##\uc808\ud558\uac8c": 29434, "\ud55c\ubcf5": 19566, "##\ud0a4\ud2b8": 16367, "\uc329\uc448": 24890, "\ud5cc\ubc95\uc5d0": 25373, "\ucf58\ud06c\ub9ac\ud2b8": 27156, "##\ud83d\udd27": 7476, "\uc785\uc740": 15763, "##\uc88b": 4510, "\ubd40": 1599, "\ucf1c": 3033, "##\ub9ac\ub824\uace0": 14128, "##\uc904\uc744": 26744, "##\uae09\ud55c": 15597, "##\uc790\ub77c\ub294": 27119, "\uc2dc\uc124": 15277, "\uc544\ub2c8\ub124": 13211, "\ud55c\uc2ec\ud558\uace0": 17355, "\ucc14\ub054": 28735, "\uac04\uc2e0": 12299, "\ud558\ub294\uad70": 23742, "\uac00\ubc29": 20264, "\uc2dd\ubbfc\uc9c0": 12573, "\uba74\ud5c8": 15807, "##\ud560\ub54c\ub294": 15476, "\uc788\uc73c\uba70": 22886, "\ubcc4\uac70": 15218, "\uadf8\uac78\ub85c": 14869, "##\ucf64": 5049, "\ud574\uacb0\ud560": 21185, "\ub2f9\uc758": 26018, "##\uc168": 4308, "\ub098\uba74": 13639, "##\uc0c8\ud0a4\ub4e4": 21391, "\uc774\ub7f4\ub824\uace0": 29453, "\uc597": 2224, "\ube48": 1667, "##\ub300\ub098": 20609, "\ub180\uc544\ub098": 24428, "\uc77d\uace0": 13985, "\uc228": 1936, "\uc300": 2031, "\uc5d8\uc9c0": 14255, "\ud3c9\ud654\uac00": 15348, "\uc815\uc0c1\uc801\uc73c\ub85c": 19518, "\ubd88\uc2e0": 23721, "##\uc810\uc5d0": 13191, "\uc131\uc801": 13703, "##\uac70\uc6b4": 14561, "##\uadf8\ub807\uac8c": 15155, "\uacf5\uc0b0": 8188, "\uac14\ub2e4\uac00": 21784, "\ub188\uc744": 17233, "\uac0b": 206, "\uc5b4\uca0c\ub4e0": 17752, "##\ub2e8\uc704\ub85c": 25987, "\uc9d3\uc778\uc9c0": 29693, "\ud55c\uac70": 10347, "##\u2663": 6376, "##oon": 26746, "##\uae30\ub294": 8189, "\uac83\uc778\uc9c0": 16216, "##\uac84": 4610, "\ub208\uc5d0\ub294": 16787, "\uc720\uccb4": 20187, "\uadf8\ub7f0\uc2dd\uc73c\ub85c": 20628, "\uc778\ud130\ub137": 9888, "##\uc74d\uc2dc\ub2e4": 17364, "\ubd80\uac00": 27022, "\uc9c0\uc2dc": 11128, "\ubc29\uc1a1\uc0ac": 27305, "\uae07": 399, "\uc800\uc9c8\ub7ec": 15532, "\ud22c": 3181, "\ubbc0": 1453, "\uc783\uc740": 16999, "\ubb38\uc7ac\uc559\uc774": 9360, "\uadf8\ub54c\uac00\uc11c": 29026, "##\uc918\uc57c": 9202, "\ud305": 3230, "##\ud83d\udccd": 7016, "##\ub142": 7684, "\uc9c0\uad6c": 10074, "\ub098\uac19\uc73c\uba74": 23795, "##\ub228": 7697, "\ucc9c": 2876, "\uadf8\uac78": 8479, "\uc870\uae08\uc529": 17840, "##\uadf8\uc81c": 23454, "##\uc544\ud30c": 16835, "\uc774\ubca4\ud2b8": 26740, "\ubc84\ub9ac\uba74": 27291, "\uc0ac\uce58": 29184, "##\uc720\ucc9c": 29941, "\ubc94\ubc95": 12892, "##\uac06": 7172, "##\ud655\uc0b0": 29386, "##\uc2e4\ub85c": 24442, "##\uac70\ub97c": 24959, "\uc815\ub2f9": 9011, "\ud574\uba85": 11687, "\uae08\uc218": 25487, "##\uaf34\uc744": 25498, "\ubcf4\uc77c": 16798, "\uc548\ub418\uac8c": 24353, "\ub310": 814, "##\ubf1d": 6176, "4": 23, "##\ub680": 7756, "##\uba74\uc73c\ub85c": 26209, "\uc758\uc0ac\uac00": 16408, "\ud558\ub8e8\uc544\uce68\uc5d0": 24813, "##\uac2f": 5459, "\uc815\ucc29": 24720, "\ub9cc\uc774": 25946, "##\ud734": 4984, "\uacf5\ud3c9": 11395, "\uc5ff\uba39": 25739, "\uce58\uc878\ud55c": 25561, "##\uc90d": 4661, "\ub9d0\ub77c\ub294": 18016, "\ud520": 3341, "\ub098\uace0": 18052, "\ubd80\ub974\uba74": 26912, "\uc0ac\uacfc\ub294": 17646, "\ub300\uc5ed": 28175, "##\ube59": 5045, "##\uafce": 6562, "##\ubb34\uc12d": 21130, "\ubc84\ub9bc": 21264, "##\uac00\uac00": 9519, "\uae38\uac70\ub9ac\uc5d0": 26472, "\uc815\ub144": 22087, "##\ubc18\uc131": 28649, "\uc800\uae30\uc694": 24374, "##\uc9c0\ub97c": 8920, "\uc62c\ub9b0": 12228, "\ub8e8": 1235, "\uba54": 1355, "\ud398\ubbf8": 9316, "\uac1c\uc778\uc801\uc778": 20485, "##\ubcb3": 6496, "\ub0a8\ud0d3": 9890, "\ub588": 1019, "\uc0ac\ub78c\ub4e4\uc5d0\uac8c": 15108, "##\uc6b4\ub2e4": 25844, "##\u3147\u3147": 17921, "\uc8f8": 2624, "##\uac70\ub9ac\ub294": 10661, "\ud0a8": 3101, "##\u314e": 4312, "\uc624\ub9cc": 12251, "##\ud55c\ub0a0": 23628, "WHO": 16079, "\uc4f0\ub808\uae30": 8109, "##\uc915": 6020, "\ubb34\ub98e\uafc7\uace0": 21411, "##\uc218": 4110, "##\ubc7d": 7542, "\uac00\uc0b0": 25670, "\uc6d0\ub798\ubd80\ud130": 28576, "\uc800\ub7f0\uac83\ub4e4\uc774": 18188, "\ud0c8\uc744": 14544, "\uc65c\ub4e4": 16749, "\ud83e\udd1f": 3944, "##\ud83d\ude34": 7022, "\ub300\uccb4": 8811, "##\uc548\ubd80": 9217, "\uc5ce": 2253, "\uad6d\ubbfc\ud608\uc138": 20350, "\ub1d0": 710, "\uc560\uc794": 23445, "##\ub77c\ub294\uac70": 17142, "##\uc877": 5458, "##\uac81\uac8c": 22628, "\ubb38\uc758": 22748, "\uc774\ub85c": 26197, "\ub4dd": 948, "##\ub454": 4934, "\uc548\ubcf4\ub294": 19054, "\ubc14\ub00c\uc9c0": 26106, "##\uc6d0\uc5d0": 10423, "##\ub098\ub3c4": 12575, "\uc801\ub2f9": 28609, "\uacbd\uc81c\ubc1c\uc804": 24295, "\uc218\uad34": 23357, "\uc7a1\uc744": 14901, "##\uc51d": 6490, "##\uc8fc\uc778": 17784, "##\ubdc0": 7837, "##\ucdcc": 6258, "##\ub873": 5998, "\uc678\uad50\uc801\uc73c\ub85c": 28362, "##\uc8fd\uc77c": 16553, "\uc6d4\ub4dc": 25995, "\uc870\uc808": 25932, "\ubb34\uc5b8": 20515, "\uc2e4\uc9c8\uc801\uc73c\ub85c": 25783, "\ubcf4\uc720\uad6d": 25747, "\ub8e8\uba38": 28823, "##\ud587\ub2e4": 19411, "##\uc548\ud558\ub0d0": 16096, "##\uae42": 7320, "\uc4f0\ub798\uae30": 15893, "\ubc0b": 1472, "\uc788\uae30": 14533, "\ud558\ub2e4": 9294, "\ub809\uc11c": 20253, "##\uae40\uc5d0": 21019, "##\ub984": 4248, "##\uba01": 7293, "\uadff": 395, "##\uc2bc": 6988, "##\uac83\ub4e4\uc774": 8575, "\uc5c6\uc5b4\uc838\uc57c": 11716, "\ud551\uacc4\ub85c": 18547, "\uc4f0\ub294\ub370": 18777, "##\uad8c\uc5d0": 20592, "\ub417": 899, "\uc2e0\uacbd\ub3c4": 23426, "\ub2e4\ub2c8\ub2c8": 28669, "\uc804\uad11\ud6c8": 11297, "\ube7c\uc561": 24012, "\uc624\uc0ac\uce74": 28623, "##\uc138\uc0c1\uc774": 24103, "\ube68\uac31\uc774\uac00": 13367, "\ud519": 3340, "\uac10\uc815\uc774": 20180, "##\ubc40": 5450, "\ub17c\uc810": 28123, "\uaf3c\uc218": 11847, "\ud6d4\uccd0": 26763, "30\ud504\ub85c": 20739, "\uc5b4\uae68": 19451, "\uc0c1\uc0dd": 24694, "\ubd81\uc870\uc120": 12711, "##\uad75": 6317, "OOO\uc57c": 17382, "##\ub4ef": 4428, "##\uba54\ub514": 13558, "\uc774\uc801": 19156, "\uc65c\uc774": 10219, "\ub4e5": 953, "\uc9f4": 2725, "##\uc704\uc5d0": 9682, "\uc9d3\uc740": 15296, "##\uc0ac\ub97c": 9600, "##\uc548\ubcf4": 13460, "\uc115": 1841, "\ucca8": 2879, "##\ud754": 4932, "##\ub74c": 6656, "\uac19": 217, "##\uac14\uc5b4": 29571, "\ud37c\uc8fc": 12241, "3\uc704": 23804, "##\ubaa9\uc744": 19757, "##\uac83\ucc98\ub7fc": 11132, "\uae4c\ubd88": 14695, "\uc65c\ub0d0\uba74": 19916, "\uace0\uc704\uc9c1": 22175, "\uac00\uac8c": 11590, "##\uc790\uc704": 29040, "\uba85\ud488": 14904, "\uc704\ubc95": 16594, "##\ud50c": 4675, "\uc815\ub9ac": 11108, "\ubd81\ud55c\ud558\uace0": 19799, "##\uc635": 4922, "\uc790\uc0b4": 8980, "\ub354\ub4ec": 12257, "##\uc544\ub2c8\ub124": 26395, "\uc790\uc0ac\uace0": 24792, "\ub0b4\uc2e0": 26218, "##\ubabc": 7386, "\uc120\ub3d9\uc5d0": 14584, "##\ud83d\udc25": 6750, "\uae40\uc815\uc219": 13491, "##\ud560\uc77c": 20294, "\ud130\uc9c8": 17393, "\uc9ef": 2721, "##\uae5f": 4722, "\uc0ac\ubc95\uace0\uc2dc": 26834, "##\uace0\uc788": 8394, "##\ub9ac\ub294\uad6c\ub098": 19012, "##\uacbd\uc7c1": 17410, "\uad6d\ub860": 14667, "\uc9e4": 2715, "\ud658\uacbd\ub2e8\uccb4": 17114, "##\uc2b9\ub9ac": 12508, "\uae30\ub808\uae30\uac00": 20145, "\uc9dc\ub9ac": 21394, "\ud0c4\ud575\ud558\uc790": 25645, "##\ucd35": 7627, "\ub300\ucda9": 11961, "##\uadc0": 4115, "\ub4dc\ub77c\uc774": 29200, "\uc8fc\ub824\uace0": 27585, "\ub877": 1214, "\ucca0": 2878, "##\uc11e": 5645, "\uc9c0\ud0a4\uace0": 15198, "\uce58\uba74": 18144, "\uc18c\uc218\uc758": 23451, "\ubf51\uc544\uc11c": 16153, "\uc2e0\ucc9c\uc9c0\ub294": 13158, "##\ubb47": 5508, "\uc81c\uac00": 11237, "##\uca8c": 7039, "##TV": 18611, "\uc18d\ubcf4": 12086, "##\ubb44": 6129, "##\ud574\uc57c\uaca0\ub124": 28548, "\uc5c6\uc796\uc544": 15251, "##\uc8fc\uc2dc\uae38": 21727, "\ubc8c\uc368": 9429, "##\uad6c\ub2c8": 11656, "##\ud574\uc9c8": 14363, "##\uc558\ub124": 10485, "\ud558\ub8e8\ub9cc\uc5d0": 27212, "\ud83e\udde0": 4000, "\ucc98\ubc8c\uc740": 28789, "##\uc2dc\uae30\uc5d0": 21801, "##\uc77d\uace0": 24997, "\uc815\uc758\ub86d\uace0": 23911, "##\uae30\uc804\uc5d0": 10656, "\ud310\uac80\uc0ac": 26991, "##\ubd80\ud130\ub294": 20459, "\ubc43": 1511, "\ucca0\uc800\ud55c": 17259, "\uc785\uad6d\uc790": 27336, "##\ucc28\ub3c4": 21509, "##\ub9c8\ub294": 19432, "\ud83d\udc9b": 3784, "\ud3c4": 3284, "\uadfc\uac04\uc744": 28092, "\uc544\ub2c8\ub2c8\uae4c": 19596, "\ubc14\ubcf4\ub4e4": 23233, "\uc0c0": 1800, "\ucc3e\uc544\uac00": 28076, "\ubaa8\uae30": 23006, "##\uc3c0": 6779, "##\uc790\ub3d9": 19782, "##\ubd10": 4360, "\ud5c8\uc220": 22844, "\uacc4\uce35": 25918, "##\ubc1c\uc744": 21882, "##\uc704\ud55c": 11325, "\ub2f9\uc2e0\uc740": 9744, "\ud558\uc2dc\uba74": 24777, "\ud558\uace0\uc788": 17808, "\uc544\ubc14\ud0c0": 26421, "\ud230": 3183, "\ub0a0\ub3c4": 26640, "\ucd94\uc11d": 21377, "\uc815\uce58\uad8c": 12972, "\ub098\uc624\ub294\ub370": 14166, "##\uac78\uc694": 29539, "\uc0ac\uc548": 16508, "\uc6ec": 2392, "\uc774\ub54c\ub2e4": 20567, "##\uc8fd\uc74c": 22703, "\uc5b4\ub514\ub4e0": 25410, "\ubfd0\uc774\uace0": 27012, "\uadf8\ub4e4\uc774": 11858, "##\ubabb\ud560": 19011, "##\uc814": 5493, "##\uc27d\uac8c": 25863, "##\ubab0": 4512, "\uc5f4\ubc1b\uc544\uc11c": 28862, "##\uc0ac\ub78c\uc774": 9110, "\uc718": 2405, "\ube68\uace0": 15014, "##\uc5c8\uc73c\ub2c8": 13235, "##\uacbd\ubd81": 12537, "\ub9d8\uc774": 18697, "\ubb3c\uace0\ub298\uc5b4": 29500, "\uc9cf": 2697, "\ucc98\ubc8c\ud574\ub77c": 18914, "\uc8fc\uad6c\uc7a5\ucc3d": 19112, "\uac00\uc7ac": 20435, "\uae30\ud68c\ub2e4": 25940, "##\ud604\uc2e4": 18355, "\uc774\uc21c\uc2e0\uc7a5\uad70": 24715, "##\uc0d1": 6905, "\uc0ac\ub77c": 8949, "\ucc38": 2846, "\uacc4\ub780": 19111, "##\ucc98\ubc8c": 11417, "\uc7a5\ub2f4": 17219, "##\uad6d\ubbfc\ub4e4\uc740": 20099, "##\ub85c\uc6b0": 27990, "\ub098\uac00": 8808, "##\ubf1c": 6739, "##\uc55e": 4591, "\ubcf4\uc0b4": 23807, "##\uc624\uace0": 11181, "\ubd10\uc8fc": 17170, "33": 20910, "##\ub808\uc774": 10022, "\u3146\u3139\u3131": 17853, "##\uc99d\uc744": 27665, "##\uc0c1\uc758": 16451, "\uba83": 1369, "\uce24": 2963, "\uae30\uc5b4": 12087, "\ucc10": 2829, "\ud560\uac70\uba74": 19500, "\uc2ee": 2017, "\uc5ec\uc131\ub2e8\uccb4": 20100, "##\ub192": 4968, "\uc3be": 2086, "##\ud47c\uc774": 25482, "\uc7ac\uac80": 22112, "##\uc368\ub3c4": 27892, "##\uac70\ub9ac\uc9c0": 19415, "##\uc11c\ud2b8": 24921, "##\ud83d\udc01": 6820, "\uad81\ub9ac": 27953, "\uad70\ub300\ub97c": 19037, "\ub358\uc9c0\uace0": 25796, "\ub9cc\uc57d\uc5d0": 18490, "\ucd5c\uace0\ub85c": 23098, "##\ub294\uac70\uace0": 11812, "3\ubc30": 24887, "\ucc45\uc784": 8306, "\ubaa8\ub974\uac8c": 15420, "\uc218\uc2e0": 16945, "##\ud83e\udd28": 6978, "##f": 5046, "\ubbf8\uc0ac": 21280, "\uadf8\uc81c": 29673, "\ud22c\uc790\ub97c": 21863, "##\ube3d": 7261, "\uc57c\ud569": 20781, "\uc790\uc5f0\uc2a4\ub7fd\uac8c": 21327, "\uc720\uacf5\uc790\uac00": 23730, "##\uc8fc\ub294\uac70": 18311, "\ub46c": 927, "\ubc15\uc218\ub97c": 17134, "\ubd80\ubaa8\ub2d8\uc774": 23923, "\uc7ab": 2498, "##\uc6b0\uba74": 10140, "##\ubcf4\uc9c0\ub3c4": 18160, "\ub300\ub2e4": 10282, "\ub17c\ub9ac\uc5d0": 27649, "\uc0ac\uc9c4\uc744": 19323, "\ubc7d": 1526, "##ong": 22822, "\ud55c\uc120": 23495, "\uac1c\ub3fc\uc9c0\ub4e4\uc774": 13113, "\uc594": 2221, "##\uc0ac\uc0c1": 13725, "\uac00\uc2a4": 18357, "##\uc9c0\uc54a\uc558": 28813, "\ubd81": 1611, "\uc704\uc5d0\uc11c": 19162, "\ud83d\udca6": 3794, "\ucc3e\uc544\uac00\uc11c": 21867, "\uac83\ub3c4": 8809, "\ubc15\uc6d0\uc22d": 13938, "\ud464": 3311, "##\uc870\uc791": 8676, "\ud83e\udde8": 4003, "\uc54c\uc544\uc11c": 9220, "##\ub418\ub294\uac70\uc9c0": 23696, "\uad6c\ud61c": 24904, "\uc6d0\uac00": 24101, "\uc784\uba85\ud558\uace0": 27976, "##\uc810\ub3c4": 24896, "##\ub9ce\uace0": 17949, "\ud574\ub300\uace0": 25392, "\uc774\uc6a9": 8396, "##\ub55d": 7010, "\uc544\uac00\ub9ac\ub97c": 23482, "\uc5ec\uacbd": 11935, "\ub354\ubd80\ub7ec": 24354, "##\ub0a0\uae4c": 27503, "##\ubab8": 4247, "\uace0\uc778": 18924, "\ud310\ub2e8\uc774": 20893, "\ud06c\uac8c": 10267, "\uc778\uc6d0": 15472, "\uba85\ubc15": 16609, "##\ub9c6": 6408, "\ubaa8\uc790\uc774\ud06c": 19020, "\uc9c0\ub9cc": 23620, "##\ub2f9\uc740": 8497, "\uae00\ub85c\ubc8c": 14402, "##\uac07": 5905, "##\ud15d": 5102, "\uc50c\uc6cc": 26535, "##\uac14\ub2e4\uace0": 24656, "\uc548\ub418\ub124\uc694": 29716, "\ubbf8\ucce4\uc5b4": 28198, "\uc229": 1937, "\ud1b5\uc81c": 10369, "##\uc2f6\ub124": 18994, "\uc80a": 2531, "\uc900\ud45c": 18080, "\ubee1": 1725, "\ub04c\uc5b4\ub0b4\ub824\uc57c": 22151, "\ubc1c\uc804\uc744": 21008, "\ubb37": 1413, "\ubcfc\ubaa8\ub85c": 18746, "\uac00\ub2a5": 8545, "##\uba74\uc11c": 8031, "\ud83d\udc15": 3683, "\uc120\ud55c": 19531, "\ub4e4\uc5b4\uac00\ub294": 14293, "\u2122": 101, "\uacf5\uc801": 15684, "\uc815\ub3c4\ub97c": 29860, "##\ubd84": 4192, "##\ud2c1": 7906, "\ud560\uba38\ub2c8": 9094, "\uc5c6\ub294\uac8c": 13592, "##\ub2ec\ub7ec": 14784, "\ub0b4\ub824\ub193\uace0": 22441, "\uaca0\ub2e4": 26334, "##22": 27321, "##\uc5c7\ub294\ub370": 28511, "\uc6b0\uc655": 27253, "\ub764": 1109, "##\ud290": 7753, "\ud544\ub9ac\ud540": 15063, "\uc5b4\ucc0c": 8480, "\ubb63\ub3c4": 23133, "\ucbf0": 2825, "##\uc190\uc190": 18394, "\ub178\ub825\uc744": 18861, "\uc6cc\ub9c8\ub4dc": 22537, "##\ub9e4\ub294": 27042, "##\ud83d\ude44": 7143, "\uc2dc\uc2e0": 27367, "\ub0a8\ud55c\uc758": 28014, "\ud5a0": 3398, "##\ub9ce\uc544\uc11c": 26478, "\ud48b": 3320, "\uc88b\uc740\uac70": 18023, "\ucead": 3007, "\uc5ed\uc0ac\uc65c\uace1": 25093, "##\ud83c\udf51": 5688, "##\ud574\uc57c\uc9c0": 8505, "\uc6d4\uc138": 14031, "##\uc9c0\uc54a\ub294\ub2e4": 19089, "##\ucff5": 5318, "##\ud789": 6610, "\uc464": 2115, "\uc250": 1954, "##\ub098\uc9c0": 13168, "##\ubb34\ub9ac": 12552, "\uba85\uc2ec": 13905, "\uc950\uc5b4": 15846, "\uc4f8\ubaa8": 16705, "\ud589\ubcf5\ud558\uac8c": 18619, "\uc2e4\uccb4\uac00": 22934, "##\uc5d4": 4484, "\ub299\uc740\uc774\ub4e4": 27951, "\ud798\uc774": 11421, "\ub0a8\uc790\ub4e4\ub3c4": 29700, "##\ub450\uace0": 9477, "\uc368\uc57c": 13922, "\uc784\uc601\uc6c5": 12555, "\uc5b4\uc774": 9108, "##\uc5c8\uc744": 12533, "##\ud3ec\uc7a5": 27228, "##\uc788\uc73c\uba74": 10263, "\uafbe": 525, "\ube1d": 1654, "##\uc2f3": 6096, "##\uca44": 7422, "\uc8fc\uc791": 13951, "\uacbd\uc81c\ub098": 19894, "##\uac1c\uc6d4": 9778, "\ucc45\uc784\uc838\uc57c": 18169, "##\uc751\uc6d0": 23010, "\uc788\uc5b4\uc57c\uc9c0": 14085, "##\uac78\ub808": 22570, "\ubc15\uc601": 12643, "\ubd80\ub974\uc9c0": 22276, "\ucac4": 2773, "\ub9cc\uba85": 27127, "\uc8c4\uc545": 28539, "\uc120\uc81c": 22990, "\uc733": 2413, "\uc790\ud55c\ub2f9\uc744": 17273, "\uc18c\ub9ac\uc57c": 20176, "\ud130\uc838": 21291, "\uad00\ub300": 18395, "##\uc904\uc544\ub098": 21911, "##\uafcb": 5604, "##\ub331": 5220, "##\ud5c0": 5746, "\ub0b4\ub9ac\uba74": 26358, "\uc55e\uc11c": 16390, "\uae38": 418, "##\ud65c\uc6a9": 19377, "\uc790\uc601\uc5c5": 10269, "##\uc6b4\ub3d9": 8449, "##\uc624": 4172, "\ud558\uc774\uc5d0": 25057, "##\uc790\ub9cc": 13405, "##\u3145\u3142": 26123, "##\uc37b": 5606, "\uc2e4\ud654": 16091, "\ub300\uc77c": 20004, "##\ucde8": 4377, "##\uac1c\uc785": 12903, "\ub300\ud1b5\ub839\uc774\ub77c\ub2c8": 26703, "##\uc2d1": 7009, "##\ub294\uac83": 10767, "\uacc4\uae30\uac00": 27759, "##\ud55c\uac83\ub4e4": 28061, "\uccad\ud654": 17978, "##\uaecf": 4862, "\uadf8\ub7f0\uac70\uc57c": 26303, "##\ub5a8\uc5b4\uc9c0\ub294": 23142, "\uc77c\uc2dd\uc9d1": 28332, "##\uc65c\ub780": 16777, "\uc694\uc998": 8380, "\uc5ee\uc5b4\uc11c": 29202, "##\ub9cc\ud558\uba74": 12110, "\ubaa9\ud3ec": 13035, "\ub9c4": 1290, "##\uc6b0\uae30": 14247, "180\uc11d": 14951, "##\uc289": 7265, "\ubab0\uc544\ub0b4\uc57c": 25413, "o": 80, "\ub1cc\uc885\uc591": 27567, "\ud798\ub4ed\ub2c8\ub2e4": 28890, "\ubabb\ubbff\uaca0\ub2e4": 29960, "\uc774\ub7f0\uae30\uc0ac": 13720, "##\ud5c8": 4754, "3\uc5b5": 15257, "\uacea": 308, "\uc30d\uc6a9": 24335, "\uc6a9\uac10": 18288, "\ub274": 743, "##\uac12\uc740": 19042, "\uc8fd\uc744\ub54c\uae4c\uc9c0": 15319, "##\uc694\uc77c": 15863, "\uc2a4\uc6e8": 24568, "##\ud578": 6079, "\ubbfc\uc871\uc8fc\uc758": 20513, "\ub3d9\ud574": 20875, "##\ub410\uace0": 26151, "##\ud83c\udf52": 7481, "\ub9d0\ub85c": 9263, "\uc4f0\uac8c": 21222, "\ub9f7": 1321, "##\ud3a0": 5602, "\ud55c\ub450\ubc88": 14124, "\uc21c\uc9c4": 14394, "\ubb38\uc815\ubd80\ub294": 18232, "\ubab0\uce74": 16926, "\uc9c0\uc7a1": 20789, "\uad6d\ud68c\ub97c": 21326, "\ubcc4\ubc18": 26599, "\ud0dd\ubc30": 14256, "##\ubc1b\ub294": 9595, "#": 7, "\ubd80\ucc98": 17892, "\ub208\ubb3c\uc744": 28617, "\ub108\ub9cc": 15998, "\ud310\ub2e8": 8885, "\ud589\ud0dc\uac00": 26925, "\uc548\uc911\uadfc": 24256, "\uac74\ub4dc": 11338, "##\uc544\uc8fc\uace0": 25393, "\ub2f5\ub2f5\ud569\ub2c8\ub2e4": 27248, "\ub091": 584, "\uc608\uc804\uc5d0": 12149, "\ub4e4\uc5b4\uac00\uc11c": 14053, "\ub0f0": 632, "\uc608\uc804\uc5d0\ub294": 28291, "\ud6c4\uc548\ubb34\uce58\ud55c": 29985, "##\uc871\ub4e4": 26831, "\ud83d\udc1b": 3687, "\uc788\uad6c\ub9cc": 16869, "##\uc560\ub97c": 26809, "\ub9d0\uadf8\ub300\ub85c": 22418, "\uce20": 2961, "\uae30\uad00": 10961, "\uc785\uace0": 12841, "##\uc6b4": 4202, "\uadf8\ub7f0\ub9d0": 16114, "##\uc5c5\uacc4": 23212, "##\ub32d": 6617, "\uae4c\uace0": 13625, "\ubaa8\uc790\ub77c\uc11c": 24176, "##\uc11c\uc6b8": 19586, "\uc22d\ubc30": 21206, "\uae68\uac31": 28426, "\ubc1b\uc73c\uba74": 12843, "\ucd08\ub4f1\ud559\uc0dd": 14671, "\ub55c\uc2dc": 25797, "##\ub188\ub4e4\ub3c4": 23080, "##\ucf70": 6506, "\uadfc\ud61c": 13033, "\ub447": 915, "##\ud3b8\uc774": 15464, "##\ub9c8\uc9c4": 20917, "\uc796\uc544": 22178, "\uc88b\uc544\ud55c\ub2e4": 28477, "##\ubc84\ub465": 21461, "\ud53c\ud574\ubcf4\uc0c1": 26250, "\uc77c\uc0b0": 15596, "##\ub4f1\uc5d0": 18159, "\ud574\uc678\ub85c": 13794, "\ucd94\uc6b4": 24987, "\uc885\uad50\uc5d0": 27456, "\uc774\ub860": 20090, "h": 73, "\uad6d\uc775\uc744": 16944, "\uc0ac\uc9c4": 8910, "##\ub9ac\uc9c0\ub9c8\ub77c": 19556, "\uacb0\uacfc\ub294": 13670, "\ubc1c\uc5b8": 9508, "\uc7ac\uc218": 10863, "\ucd9c\uc18c": 26966, "\uc7bd": 2504, "##\uc744\uae4c\uc694": 10322, "\ud55c\ubc88": 8295, "\uc2f8\uc774\ucf54": 17504, "\ud2f1": 3224, "\ud604\uc7ac\uc758": 19002, "\uc548\ub4e4\uc5b4": 12723, "\ub9dd\uc5b8": 12491, "##\uad00\uc2ec": 21096, "\uc601\uad6d": 13434, "##\uc931": 7607, "\uafc8\uc744": 22793, "##\uc9d1\ud68c\ub294": 27874, "\ub2a3": 758, "\uc790\uad6d\uc758": 23926, "250": 23090, "\uc548\ub410": 15365, "\uac08": 204, "\ubab9\uc4f8": 25338, "##\ubcf4\uba74\uc11c": 15044, "\ud544\ub9ac": 13415, "\uc88c\ud45c": 12333, "\ubf51\uc544": 9487, "##\uac04\ub2e4\uace0": 14411, "\ub0b4\ub144\ucd1d\uc120": 17828, "##\ubc49": 5290, "\ud074\ub9b0": 26045, "\uc790\ubbfc\ub2f9": 19671, "##\uac1c\uc815": 23648, "\ud504\ub791\uc2a4": 12818, "\uc774\ub7f4\uac70\uba74": 25421, "\ubc29\uc1a1\uc5d0": 18172, "##\ub458\uc774": 18913, "\uc0ac\uc8c4\ud558\uace0": 21936, "\uac1c\ub3fc\uc9c0\ub85c": 11179, "\ud170": 3154, "##\ud3ff": 6449, "\uc774\ub9cc\ud76c\uac00": 20645, "\uc124\uccd0": 16411, "\ud718\ub458": 13349, "##\uc2a4\uc5d0": 20028, "\ub9e4\ucd9c": 13640, "\uc5b4\ub824\uc6cc": 15136, "##\uc790\ub098\uc694": 20468, "##M": 4507, "\ub354\ubd88\uc5b4\ubbfc\uc8fc\ub2f9": 13559, "##\ubd23": 5131, "\ub355\uc5d0": 17430, "\uc678\uc81c\ucc28": 22536, "\uc9d1\uac12\uc774": 15124, "##\ube90": 5959, "\uaef8": 485, "\ubaa8\ub974\ub0d0": 11831, "\ud83d\udc98": 3781, "\ubb34\ub300": 20838, "\uca5d\uca5d": 9769, "##\ubbf8\ud654": 25478, "\ub0a8\ud55c\uc740": 28845, "##\uc774\uae30": 10211, "\uc774\ub7f0\uc2dd": 20773, "##\ubc61": 6845, "\uc5b8\uc820\uac00\ub294": 17224, "\ud55c\ub300": 15392, "\uc720\uc2b9\ubbfc": 12024, "##\uacbc": 4489, "\ubb68": 1436, "\uc2ec\ud310\uc744": 14337, "##\ub9b3": 5717, "##\ubd9b": 6422, "##\uc9c0\uc625": 21897, "\ud574\uccb4\ud574\ub77c": 29657, "\ub2f9\uc0ac\uc790\uac00": 28230, "##\ubd24\ub0d0": 15076, "\ub5bd": 1037, "\uc784\uc2dc": 18002, "\uaf4c": 510, "##\uc5cf": 6696, "##\uacf5\uc0b0": 9588, "\uc720\uc2b9": 10524, "\uc788\uc744\ub54c": 16806, "\ud68c\ud53c": 20103, "##\uc0c1\uc2dd": 17651, "\ubc15\uc0ac": 11854, "\uc548\ub428": 11273, "2\ubd84": 23983, "6\uc5b5": 27838, "\uc774\uc21c": 11477, "\uae30\ud68c": 8993, "\uc695\uba39\uc744": 19900, "\uc544\ub2c8\uc796\uc544\uc694": 20951, "\ubc30\uc6cc": 16191, "\uc62c\ub9ac\ub294": 13616, "\uc778\uac04\uc774\ub0d0": 17971, "\ucc0c\uc9c8\ud55c": 19855, "\uc8c4\uac12\uc744": 18668, "\ud55c\ucc3d": 24380, "##\ub2e4\uba70": 16976, "\uc544\ub2cc\uac74": 22234, "##\ud0c0\ub839": 10051, "##\ub428": 4788, "##\uc9c4\ub2f9": 14887, "##\ud558\uc2dc\uae30": 29699, "##\ub77c\uc774\ud2b8": 27945, "##\uc5e2": 6851, "##\ud14d": 5363, "\ud83d\udce3": 3809, "##\uc548\ud574": 15232, "\uc870\uc120\uc774": 17821, "\uc790\uc720\ud55c\uad6d\ub2f9\uc740": 18095, "\uc4f0\ub808\uae30\ub4e4\uc740": 19732, "\uc62c\ub790\ub294\ub370": 27885, "\uc791\ub3d9": 28267, "\uac01\uc624": 13314, "##\uc2f7": 7081, "\uace0\uc18c\uace0\ubc1c": 28993, "##\ubbfc\ub2f9": 15133, "\uc3a4": 2082, "\uc124\ub808\ubc1c": 16753, "\ubb38\uc7ac\uc778\uc774\uac00": 15572, "##\uad6c\ub3c4": 19024, "##\ubfd0\ub9cc": 16628, "##\ub530\ubc15": 26384, "\ud68c\uc7a5": 16000, "\uc544\ub2cc": 8048, "\ucc9c\ud558\uc758": 19487, "##\uc0ac\ud0dc\ub97c": 29762, "##\ud3ad": 5367, "\uc5c6\uc73c\uba74": 9622, "\uc9c0\uc5b4": 15645, "\uc77c\ubcf8\ubcf4\ub2e4": 17282, "##\uc0f5": 5202, "\uc18c": 1895, "\uc9c8\uc11c": 28839, "\uc800\ub7ac": 17878, "\uba85\uc744": 26127, "3040": 22065, "\uca5c": 2749, "\uc774\ub188\ub4e4": 21122, "\uadf9\uce58": 18226, "\uc608\uc678": 18367, "\uc8fc5": 18637, "##\ub780": 4406, "##\ud558\uc5d0\uc11c": 27226, "##\uc704\uc6d0": 10559, "\uad1c\ucc2e": 9251, "##\uc6b8\uae4c": 29294, "\ubc18\uc911": 18411, "\uc800\uac70": 9541, "##\ub7ac": 4518, "##\ubf64": 6284, "\ub228": 733, "##\ub9d0\uc544": 16839, "##\u3145": 4372, "\uc6b0\uc2a4": 19257, "\ucabc\uac1c": 15930, "##\uc503": 7458, "##\ube14": 4585, "##\ub9ac\uce74": 12625, "\ud0c8\ucd9c": 12882, "\uc801\uc740": 13516, "##\ud22c\uc0ac": 18028, "\uc54c\uae30\ub098": 23269, "##\u2b05": 7580, "\ub9d0": 1300, "##\ub386": 6262, "\uacbd\uace0": 12137, "##\uc574": 5860, "\uc678\uad6d\uc5d0": 19699, "4\ub300": 21623, "##\uc87b": 7882, "\uba74\uc0c1": 12494, "\uc774\uc815": 20427, "\ubc18\uc99d": 23430, "##\ud56d\uc7c1": 29794, "##\u25aa": 6580, "\uc124\ub839": 21475, "##\uc5d0\uac00\uc11c": 29726, "##\ud560\uac70\ub0d0": 25290, "##\uc548\uace0": 21082, "\uc0ac\uae30\uafbc": 9221, "\uc131\uc804\ud658": 27376, "\uafd1": 538, "\ub9ce\uc740\uac70": 26500, "\ucd9c\uc2e0": 9471, "\uc5b8\ub860\uc5d0\uc11c": 15505, "\uae40\uc81c\ub3d9\uc774": 24749, "\uc800\ub7f0\uc0ac\ub78c\uc774": 29082, "##\ub570": 7931, "\ub300\ube44": 12279, "\uc0ac\ub78c\uc8fd": 22915, "##\ub9c8\ub0e5": 11633, "##\ub370\ub9ac\uace0": 20872, "##\ub9ac\uac8c": 9935, "\uc548\ubcf4\uc774\ub098": 25647, "\uc2f9\uc4f8": 19812, "\ub418\ub2c8\uae4c": 15887, "##\uc5b4\uc57c\uc8e0": 25978, "##\uaca0\uad6c\ub9cc": 13292, "\uc30b": 2035, "##\u2755": 5868, "\ub178\uc608\uac00": 29980, "\ud83c\udf88": 3634, "##\u314a": 5355, "4\uc6d4": 11531, "\uc788\uc5c8\uc9c0": 19925, "##\uadf8\ub9bc": 20551, "\uc774\ub54c": 14489, "##\ubc1b\uc774": 25906, "\uc0b4\uc778\ubc94": 24952, "##\ub8e1": 5395, "\uc758\ub8cc": 8774, "\ub354\ub7ec\uc6b4": 8633, "\uc4f4\ub2e4\uace0": 23297, "\ud574\ubcd1": 28072, "\ub5b4": 1033, "\uc5f4\ub4f1": 13512, "\ud574\uac00": 25767, "##\uc6cd": 6329, "##\u3148\u3139": 13052, "\ub2a6\uc5c8\ub2e4": 23302, "##\uc704\ud574": 9348, "\ub9de\ub294\uac70\uc9c0": 25535, "##\ud574": 4032, "##\ubf08": 5248, "\ud558\uaca0\ub2e4\uace0": 16136, "##\uc6c6": 7313, "\ub108\ub124\ub4e4\uc774": 21825, "\ud480\uc5b4\uc11c": 26424, "\uacf5\ubb54": 26485, "\uac70\ub978\ub2e4": 24422, "\ub300\ub959": 23173, "\ubc95\uc778": 17044, "\ubd81\ubbf8": 16335, "\ubaa8\ub974\uc1e0": 18443, "\ubbf8\uc138\uba3c\uc9c0\ub85c": 25804, "\uc548\ubcf4\uc784": 28398, "##\ud584": 6018, "\uad73": 352, "\uc0cc": 1811, "\ub818": 1175, "\ub9d0\uace0\ub294": 17699, "##\uaca8\uc57c": 24538, "##\ubcd0": 6452, "\uc539\uc5b4": 20068, "\ud300": 3227, "\ub3c8\ubc8c": 9924, "##\ub9ac\ub098": 10788, "\uc911\ub3c4\uce35": 26214, "\uc774\uc640": 12772, "\ub418\uc694": 29054, "\uc544\uc27d": 13268, "\uc218\uc6a9": 14358, "\uc544\ubb34\ub9ac": 8529, "\uc9d1\ud68c": 9184, "##\uc5ca": 5256, "##\ub42b": 5198, "\uc790\ub4e4\uc740": 17248, "\ub3fc\uc9c0\uc0c8\ub07c": 23681, "\ubcf4\uc18c": 11443, "\uc625": 2299, "##\ub8cd": 5721, "\ubd84\uc2e0": 24679, "\uad50\ud6c8": 24083, "\ucd9c\uc0b0": 11637, "\uc608\ubbfc": 23358, "\uc2f8\uc6c0\uc744": 25782, "##\ud558\uaca0\uc9c0": 10156, "\ub5b0": 1030, "##\ucbdc": 7932, "\ub418\uc5b4\uc11c": 15735, "##\ud560\uac70\uc57c": 25529, "##\uc2a4\ub77c": 15281, "\uac81\ub098\uc11c": 28865, "##\ubee4": 6387, "95": 23388, "\uc720\uc871": 14077, "##\ube7c": 4620, "##\ud83c\udf35": 7772, "##\ub4e4\uc744": 8099, "\uace0\ub4f1": 11076, "\ubc15\uadfc": 22448, "##\uce58\uc9c0": 11690, "\ud558\ub098": 8080, "\uc9c0\uae08\ucbe4": 25309, "\uc8fc\ub465\uc774\ub9cc": 18156, "##\uc9dc\uace0": 25342, "\uc5c5\ubb34": 11768, "518\uc720\uacf5\uc790": 23613, "\uce58\ub7ec": 26954, "##\uc774\uaca0\uc9c0": 14942, "##\uc3a0": 6635, "\uadc0\ud0dc": 28472, "\ud574\ub2ec\ub77c": 25998, "\uc120\uc9c4": 14487, "\ub098\uc544\uac00": 20794, "\uc548\uc804\ud558\uac8c": 25558, "\uaed1": 471, "\uccb4": 2886, "##\uc788\uc5b4\uc57c": 19082, "\uc548\ub2ec\uc774": 28555, "##\ucad3": 5820, "##\uc0c1\ub3c4": 8990, "\uad6c\uc5ed": 11581, "\uc5b4\uca4c\ub77c\uace0": 13718, "\uc774\ud6c4\ub85c": 18521, "##\ud03c": 6797, "\ub9e4\uc218": 19721, "##\ub1a8\uc73c\ub2c8": 29368, "\uc9c0\uae08\uaecf": 15691, "\uc800\ub807": 22248, "\uc218\uc5b5": 26008, "\ubd81\uc73c\ub85c": 10880, "\uac78\ub838": 14034, "##\uc2dc\ub124\uc694": 13355, "##\ud83d\ude04\ud83d\ude04": 28575, "##\ud558\uc168": 10042, "##\uc619": 6495, "\uc9c0\uac11": 26299, "\ucefc": 3020, "##\ud5f8": 5380, "\uc9c1\uc6d0\uc774": 21226, "##\uc778\ub300": 19080, "##\ubb34\ub2c8": 20735, "##\uc5c6\uc5b4\ub3c4": 23539, "\uc7a5\ud559\uae08\uc744": 28331, "\uc815\uce58\uc801\uc73c\ub85c": 11050, "##\u3137": 4719, "\uadfc\uce5c": 29674, "\ub098\uacbd\uc6d0": 8464, "\ubc45": 1513, "##\ubaa9": 4504, "\uac1c\uac00": 9807, "\ub08d": 582, "##\ud560\ud14c\ub2c8": 24439, "\uc0ac\ubc95\ubd80\ub97c": 28417, "OOO\ub4e4": 10100, "\uafc3": 530, "##\uc81c\ub85c": 11259, "\uc77c\uc0c1": 12530, "\uae30\uc874": 12208, "##\ud574\uc11c": 7987, "\uc0ac\ub791\ud558\ub294": 15098, "\uad6d\uc775\uc5d0": 19384, "\uae30\uc0c1": 21244, "\ud6c4\ud1f4": 18265, "\ucc75": 2872, "\uc637\uc744": 24537, "\ub3c4\ub355\uc801\uc73c\ub85c": 25950, "\uaedc": 476, "\uc582": 2210, "##\ub2bc": 7749, "\ub4dc\ub7ec\ub098\ub294": 22117, "\uac80\ucc30\ucd1d\uc7a5\uc774": 26457, "\uc544\ubb34\ud2bc": 15715, "##\ud3ed\ub825": 13462, "##\uc120": 4124, "\ub0ae": 603, "\uacf5\uc57d": 11088, "\ub17c\uc7c1": 25252, "##\ub78c": 4324, "\uc788\uc744\uac70\ub2e4": 27947, "##\uc55f": 5879, "##\ub2c8\uaf48": 18888, "##\uc5b4\ub5bb\uac8c": 20404, "\uc62c\ub824\uc11c": 16030, "\ubbfc\uc8fc\uc8fc\uc758\uc758": 21040, "\uc591\uc815": 22404, "##\uc553": 5496, "##\ub532": 5273, "\uad11\ubcf5": 18447, "##\uac11\ub124": 22716, "\ub178\ubb34\ud604\ub300\ud1b5\ub839": 28160, "\uacbd\ucc30\uc774": 10873, "##\u314c\u314c": 25551, "##\uc218\ub3c4": 8642, "\ube44\uacf5": 17708, "\ube60\uc838\ub098\uac00": 27994, "\ubcf4\uc99d": 22598, "\uc9c0\uc9c0\ud55c": 27718, "\ub300\ub2e4\uc218": 12730, "##\uc138\uc5f0": 17368, "\ubc14\ub7ac": 29575, "##\uacbd\ud611": 25584, "##\ucc59\uaca8": 22158, "\uc9dd": 2711, "##\uc2f9": 4967, "##\ub418\ub124": 14523, "\uc815\uce58\uc801": 10227, "\uce89": 2993, "\uc624\ub97c": 15744, "##\ud83e\udd21": 7220, "\ub611\uac19\ub124": 13444, "\uc1a9": 1908, "\ucef9": 3019, "##\ud588\ub2c8": 17379, "##\uc5c8\uc2b5\ub2c8\ub2e4": 13452, "##\ubaa3": 7888, "\ubabb\ucc3e": 23806, "##\ub418\ub294\uc9c0": 17037, "\uac00\uce58\uac00": 14628, "\ub2e4\ub974\ub2e4": 14676, "\ud83e\udd40": 3966, "##TO": 25144, "\ub6ab": 1077,
[...]
