{"\u2581\ubc11": 2185, "\uc9c0\ubc95": 7334, "\u2581\ub370\uc774\ud2b8": 1709, "\ube14": 6438, "\u2581\ub530\ub73b\ud55c": 1834, "\u300f": 5239, "\u2581\uc785\uc6d0": 3842, "\u2581\uc724\ucc3d\uc911": 3603, "\u2581\uc758\uc6d0\ub4e4": 3635, "\u2581\uc774\uc2ac\ub78c": 3710, "\ub69c": 5984, "\ud610": 7910, "\u2581\ud654\ubcf4": 5115, "\ucc9c\ub9cc\uc6d0": 7424, "\u2581\ub2e4\uc218": 1573, "\u2581\uc0c1\ucc98": 2679, "\uc815\ubcf4": 7229, "\u2581\uc81c\ucd9c": 4156, "\u2581\uae30\ub300\ud55c\ub2e4": 1272, "\u2581\ucc28\ub2e8": 4405, "\uc0b6": 6520, "\u2581\ud06c": 4681, "\u2581\ube44\ud589\uae30": 2545, "\u2581\uae08\uc735\uae30\uad00": 1243, "\u2581\uacc4\ud68d\uc744": 991, "\uaf3d": 5619, "\uc570": 6839, "\u2581\uc55e": 3184, "\u2581\ud761\uc5f0": 5204, "\ub4e4\uc5d0\uac8c": 5936, "\uacf5\ud56d": 5465, "\u2581\uc624\ub514\uc158": 3421, "(7": 36, "\ubd84\ucbe4": 6423, "\u2581\ub450\ub4dc\ub7ec": 1775, "\uc2dc\ub300": 6708, "\u2581\uacf5\ubd80": 1042, "\u2581\ubc14\uafd4": 2188, "\u2581\uc774\uc720": 3732, "\u2581\uc791\uace1": 3932, "\uade4": 5537, "\ub6b1": 5987, "\uc62e": 6976, "\u2581\uc8fc\uc2dd\uc2dc\uc7a5": 4231, "\u2581\ubcc4": 2348, "\uc870\uc0ac": 7255, "\ub053": 5645, "\uc140": 6596, "\ud729": 7981, "\u2581\ubc1d\ud600": 2258, "\u2581\uba54\uc774\uc800\ub9ac\uadf8": 2021, "\u2581\uac00\uad6c": 733, "\u2581\uad6d\ud68c": 1162, "\u2581\uc810\uac80": 4075, "\u2581\uac70\uc8fc": 875, "\uc2a4\ub7fd": 6669, "\u2581\uacb0\uc815": 945, "\u53f2": 5259, "\u25812004": 561, "\u2581\uac80\ud1a0": 903, "\u2581\ucd95\uad6c": 4562, "\u2581\ud55c\ub54c": 4968, "\ud734": 7982, "\uac70\ub9ac": 5382, "\uc194": 6618, "\u2581\uc804\uc9c0\ud6c8\ub828": 4053, "\uc6c5": 7017, "\u2581\ubaa9\uc228": 2075, "\ucc10": 7385, "\u2581\uc81c\uc678\ud55c": 4145, "\ud751": 7985, "\u2581\ub2e8\uc9c0": 1593, "\u2581\ube48": 2547, "\u2581\ubcf4\ub0c8\ub2e4": 2365, "\ud589\uc815": 7885, "\u2581\uad11\uc8fc\uc2dc": 1099, "\u2581\ub3c8\uc744": 1731, "\u2581\ucd94\ucc9c": 4559, "\u2581\ud480\uc5b4": 4889, "\uc601\uc5c5": 6953, "\u2581\uc6b0\ub9ac\uc740\ud589": 3505, "\ud5c9": 7889, "\u2581\ub2f5": 1615, "\u2581\uacb0\uc2b9": 943, "\ud23c": 7651, "\u2581\uc720\ub7fd": 3581, "\u2581\ub2ec\ub7ec": 1599, "\u2581\uc788\uc74c": 3883, "G": 290, "\u2581\ub2ec\ud558\ub294": 1604, "\ubc1b\ub294": 6290, "\u2581\uc2e0\ud638": 3033, "\ubc94": 6333, "\u2581\uba74": 2029, "\ubd81\ud55c": 6415, "cm": 384, "\u2581\ub4a4\uc9d1": 1785, "\u2581\uc18c\ube44\uc790": 2833, "\ubc15\ub78c\ud68c": 6282, "\ubfd0\ub9cc": 6485, "\u2581\uc788\uace0": 3857, "\ud55c": 7828, "\uc73c\ub85c\uc11c": 7080, "\u258118": 547, "\u2581\ubbfc\uac04": 2170, "\u2581\uc27d\uc9c0": 2925, "\ubb58": 6249, "\u2581\ub2e8\uacc4": 1586, "\u2581\ubc1c\uc0dd\ud560": 2245, "\u2581\uace0\uac1d\ub4e4": 995, "\u2581\uad6c\uc131\ub41c": 1121, "\u2581\uc6b8\uc0b0": 3525, "\u2581\uc5f4\ub9b0\ub2e4": 3365, "\ub9cc\uc6d0": 6153, "\u2581\uc9c4\ud589\ub41c": 4373, "\u2581\uc624\ube60": 3429, "\ubc25": 6304, "\u2581\ubd84\ub4e4": 2471, "\ud559\uc0dd": 7825, "\ud1b5\ud569": 7638, "\u7530": 5299, "\u2581\ub9ce\uc774": 1956, "\uac00\uaca9": 5331, "\u2581\uc788\uaca0": 3856, "\uac1c\uc0ac": 5363, "\u2581LA": 667, "\u7532": 5300, "\u2581\ub73b": 1872, "\ud2f1": 7675, "\uc9dc\ub9ac": 7362, "\ud640\uc5d0\uc11c": 7934, "\u2581\ud3ed\uc5fc": 4875, "\ub527": 5956, "\u2581\uc2b9\ubd80": 2954, "\u2581\uc2dc\ub294": 2968, "\ub300\ube44": 5814, "\ube74": 6462, "\uc0c9": 6538, "\u2581\uc0ac\uc9c4\uc744": 2628, "\u2581\ubc95\uc801": 2328, "\uc790": 7147, "\ud0ac": 7577, "\uc790\uce58": 7169, "\u2581\ub17c": 1498, ",": 46, "\u2581\ubab0": 2081, "\uc8fc\uac00": 7277, "2.0": 122, "\u2581\uc774\ubbf8\uc9c0": 3693, "\u2581\uc774\uc815": 3740, "\u2581\uc774\uac19\uc740": 3648, "\ud769": 7992, "34": 150, "\uad49": 5487, "\ud5d0": 7891, "\ub808\ub4dc": 6051, "\u2581\ucd94\uc0b0": 4547, "\u2581\uc774\uc2a4\ub77c\uc5d8": 3709, "as": 376, "\ud0ec": 7604, "[PAD]": 1, "\ub4dc\ub9ac": 5924, "\ub205": 5744, "\ud32c\ub4e4": 7702, "\uc790\ub4e4\uc758": 7154, "\ud588\ub2e4\uace0": 7870, "\ub155": 5724, "\u2581\uae30\ud68c\ub97c": 1308, "\u2581\ud655\uc0b0": 5127, "\u2581\ubb38\uc7ac\uc778": 2124, "\u2581\uc788\uc5c8\ub2e4": 3873, "\ub97c": 6116, "\u2581\ubd80\uc9c4": 2454, "\u2581\uc5b4\ub5bb\uac8c": 3225, "\u2581\uac78\uc2a4\ub370\uc774": 892, "\ub0c9": 5688, "\uc77c\uac04": 7127, "\u2581\uc0ac\uc774\uc5d0": 2620, "\u6bd4": 5291, "\uaddc\uc81c": 5534, "\u2581\uc9d1\uacc4\ub410\ub2e4": 4386, "\uc811": 7225, "\u2581\ub300\ud68c": 1694, "\u2581\uac83\ucc98\ub7fc": 920, "\u2581\ub274": 1541, "\ub77c\uc774": 6011, "\ud30c\uc774\uc5b4": 7684, "\u2581\ubc14\ub78c": 2195, "\u2581\ucd08\ubc18": 4506, "\u2581\uc560\ub110\ub9ac\uc2a4\ud2b8": 3195, "\u2581\ubcf5\uc9c0": 2406, "\u2581\uc790\uc5f0\uc2a4\ub7fd\uac8c": 3917, "\u2581\ud130": 4728, "\uc0b4": 6519, "\u2581\ubd88\uacf5\uc815": 2488, "\u2581\ubcf5": 2401, "\u2581\uc7ac\ubbf8\uc788": 3978, "\u2581\ubcf4\uc720": 2383, "\u2581\ubabb\ud55c": 2089, "\u2581\ubb34\ub974\uc2dc": 2105, "\u2581\uc788\uc5c8\ub294\ub370": 3872, "\ucc98\ub7fc": 7417, "\uac1c\ub85c": 5360, "\u2581\ub9d0\uc774": 1963, "\u2581\ub04c\uc5c8\ub2e4": 1362, "\u2581\uc601\uc0c1": 3380, "\u2581\uc9c1\uc6d0\ub4e4": 4354, "\ubaa8\ub378": 6214, "\uc608\uc0b0": 6959, "\ub8e8\ud0c0": 6096, "\u2581\uce21\uadfc": 4612, "\u2581\uc0c8\ub86d\uac8c": 2700, "\ucc44\ub110": 7407, "\u2581\ub124": 1469, "\u2581\ub54c\ub9c8\ub2e4": 1847, "\uc704\ub294": 7047, "\u2581\ud48d\ubd80\ud55c": 4895, "\uc9c0\uae08": 7323, "\u2581\uacbd\uc6b0": 968, "\u2581\uba85\ud655": 2042, "\u2581\u25a0": 717, "\u2581\uc218\uc900\uc73c\ub85c": 2904, "\u2581\uacb0\ud63c": 950, "\u2581\uc2e4\uc81c\ub85c": 3050, "\u2581\ub0ae": 1429, "\u2581\uc6b4": 3513, "\uac00": 5330, "\ub3cc": 5868, "\ucf58\uc11c\ud2b8": 7540, "\u2581\uad00\uacc4": 1076, "37": 153, "\u2581\ub300\ud615\ub9c8\ud2b8": 1691, "\ubc88": 6328, "\ucf1c": 7530, "\u2581B": 637, "\u2581\ub2f9\ucd08": 1630, "0%": 61, "\u2581\uc54a\uc544": 3155, "\ub4e4": 5931, "\u25812000": 557, "\u2581\uacbd\uae30\uc5d0\uc11c": 960, "\u2581\ucee4\ud50c": 4655, "\uc5c5\uccb4\ub4e4": 6880, "\ud134": 7612, "90": 237, "\u2581\uac83\uc774\ub2e4": 913, "\u2581\uae30\ucd08": 1304, "\u2581QPR": 685, "\u2581\uc0dd\uac01\uc744": 2706, "\u2581\uc774\uc11c\uc9c4": 3706, "\u2581\uc7c1\uc810": 3989, "\uac8c": 5400, "\u2581\uace8\ud0a4\ud37c": 1018, "\uc0c0": 6526, "\ud0c0\uc218": 7583, "\u2581\ub54c": 1844, "\u2581\ucd9c\uc2e0": 4578, "\ubb34": 6228, "\u2581\ubcc0\ud654\ub97c": 2347, "-4": 53, "\uac78": 5390, "\ub610": 5980, "\ub960": 6110, "\u2581\ubd84\ub958": 2472, "\uc2b4": 6698, "th": 444, "\u2581\uc0ac\ub9dd\uc790": 2596, "\u2581\uc601\uc5c5\uc774\uc775": 3383, "\u2581\uae30\uc18c": 1287, ";": 252, "\u2581\ubc29\uc1a1\ub41c\ub2e4": 2275, "\uc0ac\ubb34\uc18c": 6501, "\u2581\ubcc0\uc2e0": 2344, "0.3%": 69, "\u2581\uc131\ub3d9\uc77c": 2789, "\u2581\uc815\ucc45\uc744": 4120, "\ubc18\ub3c4\uccb4": 6287, "\u2581\uc804\ud574\uc84c\ub2e4": 4060, "\u00e6": 484, "\ub0ac\ub2e4": 5672, "\ub0af": 5675, "\ubb35": 6232, "\u2581\uc790\uadf9": 3888, "\u2581\uc878\uc5c5": 4195, "AM": 265, "\u2581\uc88b\uc558": 4208, "\u2581\uac10\uc0ac\uc6d0": 794, "\u2581\uba64\ubc84": 2027, "\u2581\uc774\ubbf8\uc9c0\ub97c": 3694, "\u2581\ud655\ubcf4": 5126, "\ucbd4": 7381, "_": 365, "\ubca4\ucc98": 6348, "\uc5c8\uc73c\uba70": 6892, "\u2581\ud648\uacbd\uae30": 5105, "\u2581\ub9ce\uc558": 1953, "\u2581\ubcf4\uac74": 2356, "\u2581\ubb34\ub8cc": 2103, "\u2581XML": 700, "\u2581\uacb0\uc2ec": 944, "\u2581\ubd80\ubb38": 2435, "\u2581\ud718": 5189, "\u2581\uacbd\ucc30": 975, "\u2581\uae08\uba54\ub2ec": 1238, "\u2581\uacb0\ub860": 941, "\u2581\ud3ec\ud568\ub410\ub2e4": 4866, "\u2581\ud574\uc57c": 5010, "\u2581\uadf9": 1216, "\u2581CES": 641, "\ud22c\ud45c": 7647, "\u2581\uacbd\ucc30\uc5d0": 977, "\u2581\ubc14\ub780\ub2e4": 2194, "\u2581\ucc38\uc11d\ud574": 4433, "\uacf0": 5449, "\uac70": 5377, "\u00b1": 476, "\u2581\ub0a8\ubd81\uc815\uc0c1\ud68c\ub2f4": 1418, "\u2581\ud558\uace0": 4926, "\u2581\ud68c\uc0ac\ucc44": 5157, "\u2581\ud758\ub7ec": 5201, "\u2581\uc18c\ub140\uc2dc\ub300": 2827, "\u2581\uc788\uc5b4\uc57c": 3870, "\uae08\ub9ac": 5551, "\uc717": 7061, "\ub9ac\uc2a4": 6127, "\ub5a0": 5969, "\uc2dc\uc758\ud68c": 6715, "82": 226, "\u2581Mnet": 674, "\u2581\ubd80\uc5ec": 2445, "\u2581\ud608": 5069, "\ub367": 5847, "\uc870": 7253, "\u2581\ud074\ub77c\ub77c": 4690, "\u2581\ub09c": 1406, "\u2581\ucc29\uc6a9": 4424, "\u2581\ucc3e\uc740": 4448, "a": 367, "\u2581\ub300\ud1b5\ub839\uc9c1": 1671, "\u2581\ud68c\uc7a5\uc740": 5164, "\u2581\uc911\uc21c": 4266, "\u2581\ud615\ud0dc\ub85c": 5087, "\u2581\uc774\ud558": 3751, "\uae30\ub85c": 5571, "\u2581\uce98\ub9ac\ud3ec\ub2c8\uc544": 4647, "\u2581\uac00\ub974": 749, "\u2581\uc544\ub3d9": 3106, "\u2581\uadf8\ub7ec\uba74\uc11c": 1200, "\u2581\ud1f4": 4760, "\u2581\ubc25": 2266, "\u2581\ud65c\uc6a9\ud574": 5147, "\uac16": 5353, "\ub300\uc758": 5818, "\ud154": 7622, "\u2581\uc5b8\uae09\ud588\ub2e4": 3243, "\u2581\uc131\uc7a5\uc138": 2794, "\u2581\uc911\uc774\ub2e4": 4274, "\uaf5d": 5625, "\uc3f4": 6775, "\ud2b9\ubcc4": 7664, "\u9053": 5319, "\u2581\uc774\ub904\uc9c8": 3681, "\u2581\ub3c5\ub9bd": 1726, "\ub0a8": 5666, "\u2581\ubaa9\ud45c": 2078, "\u2581\uad6d\ub9bd": 1141, "\uacf5\uac1c": 5454, "\uc11c": 6553, "n": 425, "\u2581\ub41c\ub2e4": 1771, "\u2581\uc18c\ubc29\ub2f9\uad6d": 2831, "\u2581\uc5ed\uc744": 3328, "\uc2ec": 6745, "\ud06c": 7565, "\u2581\ub3d9\uc6d0": 1757, "\u2581\ub808\uc804\ub4dc": 1888, "\u2581\ubc29": 2267, "\u2581\ud5a5": 5032, "\ub0b4\uae30": 5680, "LG": 313, "\u2581\ub2a5\ub825": 1559, "\u2581\uace0\uae09": 998, "\u2581\ub0b4\ub144": 1437, "\u2581\ucc59\uaca8": 4461, "\u2581\ud56d\ubaa9": 4995, "\ubc1c\uc804": 6298, "\uba85\uc73c\ub85c": 6207, "\ubd80\uac00": 6399, "\uc1c4": 6623, "\u2581\ubcc0\ub3d9": 2341, "\u2581\ud750\ub984": 5197, "\uc880": 7266, "\ud0f1": 7607, "\u2581\uc801\uc808": 4009, "\u2581\ud604": 5049, "\u2581\ubaa8\uc0c9": 2055, "\ub098\uac08": 5656, "\u2581\ud2b9\uc720": 4785, "\u2581\uc2e0\ud55c\uae08\uc735\ud22c\uc790": 3031, "\u2581\uc911\uc694": 4270, "\u2581\uc5d0\uc5b4\ucee8": 3288, "\u2581\ud544\uc694\ud558\ub2e4": 4922, "\u2581\ucc44\ud0dd": 4456, "\u2581\uac00\ub2a5\uc131\uc774": 741, "\u2581\ubbfc\uc6d0": 2173, "\u2581\uc778\ucc9c": 3790, "\u2581\uc704\uc6d0": 3557, "\u2581\ud544\uc694\uac00": 4920, "\u2581\uae00\ub85c\ubc8c": 1233, "\u6bcd": 5290, "\u2581\ub4f1\uc758": 1825, "\ub78c": 6018, "\u2581\ub9ac\ub354": 1902, "\uad7f": 5520, "\ub178": 5725, "5": 172, "\u2581\ucd5c\ub300": 4527, "\uc704\uc6d0\ud68c\ub294": 7055, "\ub11b": 5699, "st": 441, "\ucc3e": 7404, "\u2581\uc65c\uace1": 3467, "\u2581\ud611\uc5c5": 5078, "\uc9d1\ud589": 7355, "64": 196, "\u2581\uc9c0\uc0ac": 4320, "\u2581\ud55c\ud3b8": 4974, "<": 253, "\u2581\ubb34\uc5c7\ubcf4\ub2e4": 2113, "\u2581\ube44\ub9ac": 2527, "\u25813": 589, "\uacb0\uc815": 5417, "\ubb47": 6245, "M": 316, "\u2581\ub9d0\ud588\ub2e4": 1966, "\u2581\uace0\ubc31": 1004, "\u2581KB": 660, "\uc790\ubcf8": 7161, "\uc2dc\uc2a4\ud15c": 6713, "\uc998": 7314, "\u2581\uc774\uac83": 3650, "PM": 338, "\u2581\ubc1c\uc804": 2249, "\u2581\ud61c\ud0dd\uc744": 5089, "\u2581\ub0b4": 1434, "\u2581\uc911\uc694\ud558\ub2e4": 4272, "\u2581\ubfcc\ub9ac": 2570, "\u2581\uc811\uadfc": 4087, "\u2581\uc0c1\uc2b9\ud55c": 2673, "\ubb3c\uc9c8": 6243, "\uc5e0": 6913, "\u2581\ud601\uc2e0": 5048, "\ube44\ub97c": 6443, "\ub09a": 5662, "\ud280": 7654, "\u65b0": 5282, "\ubd84\uaed8": 6420, "\uc720\ud50c\ub7ec\uc2a4": 7066, "\uc12d": 6570, "\u2581\uc2a4\ub9c8\ud2b8": 2931, "\u2581\uc2a4\ub178\ub4e0": 2930, "\uc70c": 7059, "\u2581\uacc4\uc57d\uc744": 986, "\ud5dd": 7894, "\u2581\uac08\uc218\ub85d": 783, "\u2581\uac00\uc2dc": 756, "\u2581\uacf5\uc5f0\uc744": 1049, "\u2581\ud0c8\ub77d": 4712, "\u2581\ub298\ub9ac": 1552, "\uad73": 5515, "\u2581\ucde8\uc784": 4605, "\u2581\uc788\uc73c\ub2c8": 3877, "\u2581\ub9cc\ub4e4\uc5c8\ub2e4": 1944, "\u5e02": 5274, "\ub118": 5698, "\u2581\uc5ec\uc131": 3312, "\u2581\ub6f0": 1867, "el": 391, "\u2581\uc624\ub298": 3419, "\uac10\uc744": 5344, "\u2581\ud1b5\uc99d": 4753, "\ub77c\uba70": 6008, "\u2581\uce5c\uad6c\ub4e4": 4628, "\u2581\ube44\ud574": 2544, "\u2581\ub208\ubb3c\uc744": 1538, "\ube44\uc11c\uad00": 6444, "\u2581\uc6b0\ub9ac": 3501, "\u2581\ud589\ubcf5": 5025, "\u2581\ub2e4\ub974\ub2e4": 1566, "\u2581\ub300\ud1b5\ub839\uc758": 1669, "\u2581O": 680, "\ud488": 7748, "\ubccd": 6359, "\uc138\uacc4\uc77c\ubcf4": 6582, "\u2581\ub9ac\ubca0\uc774\ud2b8": 1904, "\u793e": 5306, "\u2581\uc22b\uc790": 2922, "\u2581\ud654\uc7ac": 5120, "5,000": 175, "\uc2e4\uc7a5": 6741, "\u2581\uac00\ub9ac": 750, "\ucc45": 7408, "\ud559\ub144": 7824, "\ud588\uc73c\uba70": 7877, "\ubee4": 6475, "\u2581\uc8fc\ucd5c": 4242, "\ud30d": 7686, "\u2581NHN": 678, "\u2581\uc5d0\uc774": 3289, "\u2581\uc5c5\ubb34\ubcf4\uace0": 3266, "\u2581\ud300\uc758": 4798, "\u2581\ub9c8\ucce4\ub2e4": 1922, "\u2581\uc815\uad8c": 4093, "\uae30\uc0ac": 5574, "\uc8fc\uc758": 7284, "\u570b": 5260, "\u2581\uac00\uc2b4": 755, "\ub25c": 5752, "41": 163, "\ub515": 5951, "\uc2e4\uc801": 6742, "\ud790\ub9c1\ucea0\ud504": 7999, "\u25bd": 5225, "\ud2bf": 7669, "?\u201d": 263, "\u91ce": 5321, "\uccab": 7430, "\u2581\uc8fc\uc694": 4233, "\u2581\ub3cc\ub824": 1733, "\ub9bf": 6138, "\u2581\uc5ed\ud560": 3330, "\u2581\uc5bc\uad74": 3251, "\uba74": 6198, "\u2581\uac00\ub294": 736, "\uc2f9": 6754, "\u2581\ub098\uc624\ub294": 1390, "\u2581\uc5c6\uc774": 3283, "\uc628\ub77c\uc778": 6972, "\u2581\uc81c\ubaa9\uc73c\ub85c": 4138, "\u2581\uc720\uc9c0": 3592, "\uc060": 6490, "\uc5d4\ud130\ud14c\uc778\uba3c\ud2b8": 6911, "\u2581/": 525, "\u2581\ud558\uc815\uc6b0": 4944, "\ubc1b\uc740": 6293, "\u2581\uc7a5\ucc29": 3967, "\ud558\ub098": 7792, "\uc600\ub358": 6947, "\u2581\ubcc0\uc218": 2343, "\u2581\ub610\ud55c": 1864, "\uc624\ub978\ucabd": 6967, "\u2581\uc9d5\uacc4": 4394, "\u2581\uac10\ub3c5\ub2d8": 787, "\uacbc": 5422, "\ucd2c": 7456, "\ub4dc\ub798\uace4": 5923, "\uc575": 6842, "\uae43": 5588, "\ud639": 7930, "\u2581\ub300\uae30\uc5c5": 1639, "\u25819": 627, "\u7f8e": 5307, "\u2581\uc18c\uac1c": 2824, "\u2581\ud734\ub300\uc804\ud654": 5193, "\ud754": 7986, "\u00c6": 480, "\u2581\uad6d\ucc44": 1158, "\u2581\ub0b4\ub2e4\ubd24\ub2e4": 1440, "\ud30c": 7682, "\u2581\uc778\uc9c8": 3789, "\ud3c9": 7724, "\u2581\uc758\uacac": 3618, "\u2581\uc77c\uac01\uc5d0\uc11c\ub294": 3804, "\u2581\ucd5c\uadfc": 4525, "\ucd1d\ud68c": 7454, "\u2581\ud328\ub110": 4816, "\uc6c3": 7015, "\u2581\uc720\ucd9c": 3593, "\ud2b9\uc704": 7665, "\u2581\uc7ac\uac00\ub3d9": 3970, "\ubc14\ub78c": 6275, "\u2581\uc0c1\ud669\uc744": 2692, "\u2581\ub9ce\ub2e4": 1951, "\u2581\uc8fc\ubaa9\ub41c\ub2e4": 4226, "\u2581\ud398": 4829, "\u2581\ud750": 5196, "30": 144, "\u2581\uc720\ub825": 3582, "\u2581\uc900\uacf5": 4247, "\u2581\uc2e0\uc124": 3019, "\u2581\ucd9c\ubc1c": 4573, "\u2581\ud2b9\uc131": 4782, "\ubd81\ubd80": 6414, "\u2581\uc624\ub798": 3422, "\uc0f9": 6551, "\uc124": 6566, "\uc885\ubaa9": 7269, "\ub838\ub358": 6075, "\u5973": 5265, "\u2581\ub298\uc5b4\ub0a0": 1556, "\u2581\uc758\ud639\uc744": 3645, "\ub381": 5857, "\u2581\ubc1c\ud589": 2254, "\u2581\uacb0\ud63c\uc2dd": 951, "\u2581\ucde8\uc784\uc2dd": 4606, "\uc0ac\uac00": 6494, "\uc5b8\ub860": 6867, "\uad6d\uac00": 5504, "\u2581\ucc28\uc774\uac00": 4414, "\u2581\ud53c\ud574\uc790": 4915, "\u2581\uacfc\ub3c4\ud55c": 1059, "\uc651": 6987, "\ud56d": 7846, "\u2581\uc7ac\uacc4\uc57d": 3973, "\u2581\uc218\uc694\uac00": 2893, "\u2581\uc788\uc5c8\ub358": 3874, "\ub299": 5763, "\u2581\uac83\uc785\ub2c8\ub2e4": 919, "\u2581\uc778\uc218\uc704\uc6d0": 3779, "\u25812012": 569, "\ub41c": 5899, "\u2581\ub538": 1840, "IT": 305, "\u2581\uc0ac\ubc95": 2602, "\u2581\uc774\uc218": 3707, "\u2581\uc790": 3886, "\uac1c\uad6d": 5358, "\ube44\uc544": 6445, "\u2581\ud658\uc601": 5138, "\u2581\ud22c\uba85": 4764, "\ub9e8": 6173, "\u2581\ubc29\ud5a5": 2285, "\ubea8": 6470, "\u2581\ub3d9\ubc18": 1747, "\u2581\uacc4\ud68d": 990, "\uc2f8": 6752, "\ub418\ub294": 5889, "\ud300\uc7a5": 7679, "\u2581\uc5ec\uae30\uc5d0": 3302, "\uba85": 6204, "\u2581\uc21c\uc774\uc775": 2917, "\u2581\uc18c\uc911\ud55c": 2847, "\u2581\uac11\uc790\uae30": 806, "\uc250": 6652, "\uac1c\uadf8\ucf58\uc11c\ud2b8": 5359, "\ub7f4": 6042, "\u2581\uce58\uc19f": 4623, "\ud325": 7696, "\u258180": 625, "\u2581\uacbd\uae30\ub97c": 959, "\uae30\ub150": 5567, "\u2581\ucc3e\ub294": 4445, "\u2581\uc9d1": 4384, "\uc2dc\ud0a4\uace0": 6723, "\u2581\ub2e4\uc591\ud55c": 1575, "\u2581\uc774\uc288": 3708, "\uc9c1\uc6d0": 7343, "c": 382, "\uad6c\uc7a5\uc5d0\uc11c": 5500, "\ubf51": 6480, "\u2581\ud558\ud5a5": 4947, "\u2581FA": 649, "\u2581\uac15\uc870\ud588\ub2e4": 819, "\u2581\uc54a\uaca0\ub2e4": 3148, "\u2581ELS": 646, "\u2581\ud53c\ud574\uac00": 4913, "\ub300\ub85c": 5812, "\uacf5\ub3d9\uccb4": 5457, "\ubc14\ub2e4": 6274, "PI": 337, "\u2581\ub4b7": 1786, "\uc0e4": 6546, "\u2581\ucd94\ucca8": 4560, "\u2581\uc2e0\uc784": 3027, "\ubd80\ud130": 6410, "\u2581\uc2a4": 2929, "\uc058": 6488, "\uc529": 6792, "\u2581\uac70\ub798\ub418\uace0": 868, "\ubd81\ubc29\ud55c\uacc4\uc120": 6413, "\ub8e9": 6097, "\ubc16\uc5d0": 6285, "\u2581\uae30\uc0c1": 1285, "\u2581\uc120\uc815\ub410\ub2e4": 2762, "\u2581\uc62c\ub9ac": 3445, "\u2581\uc784\ub300": 3829, "\u2581\ub3cc\ud30c": 1739, "\u53cd": 5258, "\u25a6": 5219, "\ubd95": 6428, "\ud230": 7649, "\u2581\uacc4\uc18d": 984, "\u2581KDB": 663, "\u2581\ub300\ud45c\ud300": 1679, "\ub73b": 5997, "\uc704\ud5d8": 7056, "\u2581\uae09\uc99d": 1255, "\u2581\ud1b5\uc81c": 4752, "\uc81d": 7240, "\ubbc0": 6254, "\u2581\uc6cc\uc2f1\ud134": 3532, "\ub4dc\ub77c\ub9c8": 5922, "\u25816": 617, "\u2581\uafb8\uc900\ud55c": 1354, "\u2581\uc774\ub8e8": 3676, "\ub800\ub2e4": 6047, "\u2581\uc9c0\ubc29": 4316, "\u2581\ub530\ub85c": 1837, "\u2581\uad00\ud589": 1095, "\u2581\uc784\uae30": 3828, "\u2581\ucee4": 4652, "\u2581\ub300\uae30": 1638, "\u2581\ucc28\uc6d0\uc758": 4412, "\u2581\uad00\uacc4\uc790\ub4e4": 1079, "\u2581\uc0bc\uc131\ud654\uc7ac": 2655, "\u2581\uc5d0\ud53c\uc18c\ub4dc": 3291, "\u2581\uad50\ud1b5\uc0ac\uace0": 1113, "\u2581\ubcf4\uc5ec\uc904": 2379, "\ub5b3": 5973, "\ubc43": 6320, "\u2581\uc790\uc2e0": 3909, "\u2581\ud55c\ub9c8\ub514": 4969, "\uc2dc\ud2f0": 6728, "\u2581\uc62c\ub790\ub2e4": 3442, "09": 91, "\u4e9e": 5248, "\u2581\uc601\ud558": 3389, "\u2581\ud574\uc11d": 5008, "\ud0d3": 7595, "\u2581\ub9e1\uc544": 1982, "\ub968": 6111, "\u2581\ub0b4\ub0b4": 1436, "MS": 321, "\u2581\ubd80\uc778": 2447, "\ub784": 6017, "it": 413, "\u2581\uc8fc\uac00": 4214, "\u2581\ud328\uc158": 4818, "\ubbf9\uc2a4": 6262, "\u2581\uac00\ub3d9": 744, "\u2581\uc8fc\ub85c": 4222, "\u2581\uadf8\ub9b0": 1211, "\u2581\ub85c\ube44": 1890, "\u2581\ub9cc\uc5d0": 1946, "\u2581\uc785\uc7a5\uc744": 3845, "88": 232, "\u2581\ucc0d": 4400, "\ud61c": 7922, "\u2581\ubcf4\uc774\uc9c0": 2391, "\u2581\uc601\ud5a5\uc744": 3393, "\u2581\ub9e4\ub3c4": 1990, "\u2581\uc0ac\uc2e4": 2604, "\u2581\uac01\uc885": 776, "\u2581\uacbd\uc601": 967, "\u2581\ub0a8\uaca8": 1410, "\u2581\ub118\uc5b4": 1465, "\u2581KBO": 661, "\u2581\ub2ec\ub77c": 1598, "\u25c0": 5226, "\u2581\ud3d0\uae30": 4853, "-1": 49, "\ud601\uba85": 7901, "}": 462, "\u2581\ube44\uad50\uc801": 2519, "R": 342, "(4": 33, "\u2581\uc544\ub984": 3109, "\uc30d": 6759, "\uaed8\uc11c": 5612, "\uc801": 7202, "\u2581\ubd80\ub2f4\uc744": 2427, "\u2581\uc591\uc131": 3216, "\u2581\uc9c0\uc6d0\uc744": 4332, "\u2581\uae30\uc5b5": 1291, "\u2581\ud68c\ub2f4": 5154, "\u2581\uc654\ub2e4": 3464, "\u2581=": 631, "\u2581\uc704\ud5cc": 3570, "\u2581\ubc14\ub2e4": 2191, "\ucd5c": 7458, "\u2581\ub9ac\uc2a4\ud06c": 1905, "\u2581\ud2b8\ub80c\ub4dc": 4774, "\u2581\uc790\ub8cc": 3895, "\u2581\ubc15\uadfc\ud61c": 2200, "\u2581\ubc1c\uad74": 2238, "\u2581\uc911\ub2e8": 4261, "\u2581\uc7a0": 3945, "900": 238, "\u2581\uc810\uc218": 4077, "87": 231, "\u2581\uc628\ub77c\uc778": 3438, "\uce90\ud53c\ud0c8": 7504, "\u2581\ube44\uad50": 2518, "\u2581\uaddc\ubaa8\uc758": 1181, "\u258140%": 607, "\u2581\uc0ac\ub78c\ub4e4\uc774": 2586, "\uaca0\ub2e4\ub294": 5408, "\ud589\ubcf5": 7882, "\u2581\uadc0\uad6d": 1175, "\ub4b7": 5917, "\u2581\ub7f0\ub358": 1882, "\uc5c8\uace0": 6886, "\u2193": 509, "\uafbc": 5629, "\u2581\uc774\uc885": 3743, "\uacf5\ubb34\uc6d0": 5458, "\ucc28\uc804": 7393, "59": 187, "\u2581\ub300\ucc98": 1664, "\ub4e3": 5930, "\u2581\uce68\uc218": 4631, "\u5e74": 5276, "\uc0d8": 6541, "\u2581\uc18c\ube44\uc790\ub4e4": 2834, "\uc131\uacfc": 6574, "\u2581\ub9e4\ub9e4": 1993, "\u2581\uc911\uc18c\ud615\uc8fc": 4265, "\ubed7": 6474, "\uc7a5\uc774": 7188, "\u2581\uadc0\uc5ec\uc6b4": 1176, "\u2581\uc12c": 2780, "\u2581\uc774\uc640": 3725, "\ub9c8\uc744": 6143, "\ud588\uc9c0\ub9cc": 7880, "\ub180": 5732, "\u2581\ud611\ub825\uc5c5\uccb4": 5074, "\uc0ac\ub294": 6497, "\u2581\uc0ac\uc2e4\uc0c1": 2605, "\u2581\uc5c5\uc885": 3267, "\uc804\ud658": 7216, "\u2581\ubc94\uc8c4": 2320, "\u2581\uace8": 1016, "\u2581\ubcf8\ud68c\uc758": 2416, "\u2581\uc804\uccb4": 4054, "\u2581\uad6d\uac00\uae30\ub85d\uc6d0": 1134, "\u2581\uc5ec\uc790": 3318, "\u2581\uc2e0\ub3d9\uc5fd": 3015, "\ub418\uae30": 5888, "\u2581\ud65c\uc131\ud654": 5144, "\u2581\uc544\ub2c8": 3097, "\u2581\ube44\uc2b7\ud55c": 2534, "\uce6d": 7494, "\ub0b3": 5677, "\ud0c0\ub97c": 7582, "0.2%": 67, "0.1%": 66, "\ub9ac\uadf8": 6123, "\ud22c": 7641, "\u2581\uc18c\uc720": 2844, "\u2581\uc0c1\ub2f9": 2660, "\u2581\ub410\ub2e4": 1762, "\u2581\ub192\uc544": 1514, "\u2581\uac83\uc5d0": 908, "\u2581\ud0d3\uc5d0": 4718, "\ubc1b\uc744": 6294, "\ube5a": 6457, "\uc9f1": 7368, "\u2581\uc9d1\ud589\uc720\uc608": 4391, "\ud3d0": 7727, "\u2581\ubc8c\uc774\uace0": 2315, "\ub304": 5831, "\u2581\ud2b9\ubcc4": 4778, "\u2581\uae08\uc735\ub2f9\uad6d": 1244, "\u2581\ubd88": 2485, "\uac07": 5339, "\u2581\u3010": 725, "\ub300\uc0c1": 5816, "\ub234": 5750, "\u2581\ubc30\uc6b0\ub4e4": 2293, "68": 200, "\u2581\uc5c5\ub370\uc774\ud2b8": 3263, "\u2581\uc874\uc7ac": 4193, "\u2581\uc870\uc9c1\uac1c\ud3b8": 4187, "\u2581\ub0a9\ubd80": 1426, "\uc5c8\ub358": 6889, "\ud760": 7989, "\u2581\uc9c4\uc8fc\uc758\ub8cc\uc6d0": 4367, "\u2581\uc751\uc2dc": 3616, "\u258165": 620, "\ubc14\uc774": 6277, "\uc9da": 7360, "KT": 310, "\u2581\ub358\uc9c0": 1703, "\uc131\uc740": 6575, "\ucef5": 7520, "\u2581\ud658\uacbd": 5137, "\u2581\uc9c0": 4297, "0.5": 71, "\u2581\uae30\uc0ac\ubcf8\ubb38": 1284, "\u2581\uc774\ub9c8\ud2b8": 3689, "\uac15": 5350, "\uc120\uc744": 6564, "32": 148, "\u2581\uadf8\ucce4\ub2e4": 1215, "\u2581\ub300\ub9cc": 1644, "\u2581\uc218\uc6a9": 2894, "\u2581\uc694\uad6c": 3481, "\uc870\ucc28": 7261, "\u2581\uae40\uc815": 1330, "\u2581\uc2dc\ubbfc\ub4e4": 2976, "\u2581\uc54a\uc558": 3156, "\ub2e8\uc9c0": 5790, "\u2581\ub3c5\uc77c": 1727, "\u2581\ud1a0\ud06c\uc1fc": 4741, "\uc548\ub4dc\ub85c\uc774\ub4dc": 6813, "\u2581\uc0c8\ub204\ub9ac\ub2f9\uc740": 2697, "\u2581\ub3c4\uc2dc": 1713, "\uc74c\uc545": 7090, "\u2581\uc18d\uc5d0": 2858, "\u2581\uc6d4\ub4dc": 3547, "\u2581\ub178\uc0ac": 1485, "83": 227, "\u2581\uc544\uc26c\uc6c0": 3115, "\u2581\uae30\uc5c5\uc758": 1294, "\u2581\uc7a5\uc560": 3963, "\u2581\ucde8\ub4dd\uc138": 4601, "\u2581\uc870\uc0ac": 4171, "\uc2dc\ud0a8": 6726, "\ubc14\ud034": 6279, "\u2581\ub0a8\uae34": 1412, "\uc123": 6565, "\uc0ac\uc5c5\uc790": 6506, "\u2581\uc0ac\ub294": 2582, "\u2581\ubd80\uc2e4": 2444, "\u2581\uc870\uc2ec": 4179, "\u2581\ucde8\ud558\uace0": 4610, "\u2581\uc778\ud134\uae30\uc790": 3797, "\u2581\uae30\uc18c\ub41c": 1288, "\u2581\ucd9c\uc5f0\ud588\ub2e4": 4582, "\u2581\uc9c4\ud589\ub41c\ub2e4": 4374, "\u2581\uc720\uc7ac\uc11d": 3590, "ri": 438, "\u2581\uae08\uac10\uc6d0": 1236, "\u2581\ub9e4\ucd9c": 2001, "\u2581\ud2b9\uc9d5": 4788, "\ud1b5\uc2e0": 7637, "\u2581\uae40\uc9c4": 1333, "\uc131\uc774": 6577, "\u2581\uac1c\uadf8\ub9e8": 836, "\u2581\ub54c\ubb38\uc774\ub2e4": 1850, "\uc37c": 6767, "\u2581\ub41c": 1770, "\u2581\ud799\ud569": 5216, "\uc785": 7138, "\u2581\ud2b9\uc0ac": 4781, "\u9280": 5323, "\uc6d0\uc744": 7025, "\u2581\ud604\ud589": 5067, "\uad70\uc740": 5513, "\ubb38\uc744": 6235, "\u2581\uac1c\ud3b8\uc548": 858, "\uc557": 6826, "\ubcd1\uc6d0": 6362, "\ubc99": 6340, "\uc744": 7088, "\u258110%": 534, "\ubb38\ud654": 6238, "\ud551\ud06c": 7781, "\u2581\ub192\uc600\ub2e4": 1519, "\u25812013.0": 572, "\u2581\uae08\uc735\uc704\uae30": 1245, "\uc555": 6825, "92": 241, "\u2581\uc368\ub2c8": 3081, "\u2581\uac70\ub860": 870, "AR": 267, "\u2581\uc810\uc5d0\uc11c": 4078, "\u2581\ud328\uc2a4": 4819, "\u2581\uc774\ub807\uac8c": 3673, "\ub3d9": 5872, "\u2581\ubc31\uc545\uad00": 2299, "\uc21c": 6643, "\ud638": 7925, "\u2581\uc2e4\ud5d8": 3057, "\uc139": 6590, "\u2581\uc0ac\ud68c\ubcf5\uc9c0": 2635, "\u2581\uc788\uc9c0": 3884, "\uc73c\ub85c\uc368": 7081, "\u2581\uc77c\uc774": 3818, "\u2581\ub9db": 1967, "\u2581\ud3c9": 4841, "\u258133": 598, "\uadf9\ubcf8": 5544, "\u2581\ucca8\ub2e8": 4480, "\ubba4": 6251, "\u2581\ubcf4": 2355, "\u2581\ubbfc\uc8fc\ub2f9\uc740": 2177, "\u2581\ud504\ub85c\ucd95\uad6c": 4903, "\uc120": 6559, "96": 245, "\u2581\uc774\ub4e4\uc740": 3666, "\u2581\uc7a5\uad00": 3955, "\ud558\uc790": 7818, "\uc0b0\uc5c5": 6517, "2012": 131, "\u2581\uc2b9\ubd80\uc8fc": 2955, "\u2581\uc785\uc740": 3843, "\ucee4": 7512, "\u2581\uc7a0\uc7ac": 3948, "\u2581\uad6d\ud68c\uc758\uc6d0": 1164, "\ub144\uae4c\uc9c0": 5714, "\u2581\uc138\uacc4": 2802, "\u2581\uc785\uc99d": 3848, "\ud1b5\ud654": 7639, "\u2581\ucea0\ud551": 4650, "\u2581\uc774\uc7ac": 3737, "\u2581\ud55c\uad6d\uc804\ub825": 4964, "\uc6b4\ub3d9": 7011, "\ub2d8": 5778, "\ud2c8": 7671, "\u2581\uc544\ubca0": 3113, "Q": 341, "\u2581\uc6d0\uce59": 3543, "\uc29b": 6663, "\u2581\uc774\uc5b4\uc9c4": 3722, "\ud55c\uad6d\uc2dc\uac04": 7830, "[UNK]": 0, "\uba85\uc740": 6208, "\ub825\uc744": 6065, "\uc1a1": 6621, "\ube14\ub85d": 6440, "\uc6c0": 7014, "\u2581\ubb34\uc81c\ud55c": 2116, "02": 83, "\u2581\uac1c": 835, "\u258170": 622, "\u2581\uc8fc\ub3c4": 4220, "NE": 324, "\u2581\ubb38\uc81c": 2125, "\u2581\uce90\ub9ad\ud130": 4645, "\u2581\uad6c\uc18d": 1122, "\u2581\ub204\uad6c\ub098": 1529, "\uaddc\uce59": 5535, "\ub7a9": 6029, "\ubd80\ub2f4": 6401, "\u2581\ud45c\ud604": 4885, "\u2581\uae09\uaca9": 1251, "\u2581\ud604\uc9c0": 5066, "\uad50\uc721\uccad": 5492, "\u2581\ud3c9\uac00\ub97c": 4843, "\u2581\uc774\ub3d9\ud1b5\uc2e0": 3663, "\uc5ec\ub984": 6919, "\u2581\uae40\uc6a9\uc900": 1328, "\u2581\ub2ec\ub9ac": 1601, "\u2581\uc2ac": 2948, "\u2581\ubd88\uacfc\ud558\ub2e4": 2490, "\u2581\uae09\ub4f1": 1252, "\u2581\ub300\ub2e4\uc218": 1640, "\uc5ce": 6895, "\u2581\uac74\ucd95": 887, "\u2581\ucd08\uacfc": 4502, "\ub9cc\uc6d0\uc73c\ub85c": 6154, "\u2581\uc7ac\uc0b0": 3982, "\u2581\uae30\ub300": 1267, "km": 418, "\u2581\uc2a4\ub9c8\ud2b8\ud3f0": 2932, "\ubab0": 6221, "\u2581\uc2dd\uc0ac": 3008, "\uc228": 6646, "\uc6b4\uc601": 7012, "\ub86d\uac8c": 6088, "\u2581\uc6f9": 3551, "\ucea0\ud504": 7509, "\uae30\ub97c": 5573, "\u2581\uc9c0\uc9c0": 4340, "\u2581\uc88b\uaca0\ub2e4": 4205, "\u2581\uac10\ub3c5\uc758": 789, "\uaca9": 5412, "\uba54\uc774": 6191, "\u2581\uc9c8\ubcd1": 4382, "\u2581\uc9dc": 4396, "0.00": 64, "\u2581\uafb8\uc900\ud788": 1355, "\u2581\ucd94\uc815": 4553, "\u2581\ub9c8\uac10": 1908, "\u2581\uc2a4\ud0c0": 2938, "\u2581\ud615\uc81c": 5085, "\u2581\uc55e\uc5d0\uc11c": 3191, "\u2581\ubabb\ud55c\ub2e4": 2090, "\u2581\ud32c": 4821, "~8": 469, "\u2581\uc644\uc804": 3461, "\u2581\uad6c\uc785": 1124, "\u2581\uc8fc\uad00": 4218, "\u2581\ubd88\ud655\uc2e4\uc131": 2500, "\ud48b": 7749, "0.6%": 74, "\u2581\ub2e8\uae30": 1587, "\u2581\ubd80\uc871": 2451, "\u2581\ubab8\ub9e4": 2085, "\u2581\ucd9c\uc0b0": 4575, "\uac74\uc804\uc131": 5388, "\u2581\uc8fc\uc7ac": 4238, "\ud558\uaca0\ub2e4\ub294": 7787, "\ub978": 6115, "\u2581\ud504\ub9ac": 4904, "\uc6d0\uc774": 7027, "\u2581\ud6c4\uc6d0": 5183, "\u2581\ub300\ubd81": 1648, "\u2581\uac00\uc7a5": 760, "\ub0b4": 5678, "\u2581\ud765\ubbf8": 5206, "\u2581\uc608\uc0c1\ub418\ub294": 3406, "\u2581\uc804\uc2dc": 4043, "\ub4dd": 5926, "\u2581PC": 682, "\u2581\ubbfc\uc8fc": 2175, "\u2581\uc678\uc5d0": 3475, "\ube0c\ub808\uc774\ud06c": 6435, "\u2581\uc911\uad6d\uc758": 4260, "\u2581\ub2f9\ud588\ub2e4": 1631, "\ud758": 7987, "\u2581\ubc1c\ud45c\ud588\ub2e4": 2253, "\u2581\ubaa9\ub3d9": 2070, "\u2581\ud6c4\uc18d": 5182, "\uc73d": 7085, "\ud574\ub2ec\ub77c": 7849, "\uce58\ub97c": 7487, "\uc154": 6601, "\uc190": 6616, "\uce5c": 7489, "\uc6b0\ub294": 7006, "\u2581\ud14c": 4733, "\u258139": 604, "\u2500\u2500\u2500": 513, "\u2581\ucd5c\uc6b0\uc120": 4535, "\u2581\uacf5\ubaa8": 1038, "\u2581\uc911\uc2ec\uc73c\ub85c": 4268, "\uccb4\ud5d8": 7440, "\u2581\ub123\uc5b4": 1468, "\uc598": 6854, "\u2581\uc18c\ube44": 2832, "\u2581\ucc29\ub959": 4422, "$": 10, "\u2581\uc5f0\uc2b5": 3350, "\u2581\ud48d": 4894, "\uadc0": 5529, "\ubc0f": 6271, "\ubc95\uc744": 6337, "\u2581\uc120\ubcf4\uc5ec": 2745, "\u2581\ucf58\uc11c\ud2b8": 4676, "\u2581\uc0ac\uba85": 2598, "\ud504\ub85c": 7755, "\ud558\uc774\ub2c9\uc2a4": 7817, "\u258100:0": 528, "\u2581\uc120\uc784": 2760, "\u2581\uc54a\ub294": 3151, "\ub2c8\uae4c": 5771, "\u2581\uc788\uc5c8\uc9c0\ub9cc": 3875, "\u2581\ud761\uc218": 5203, "\u258115": 543, "\u2581\uc0c1\ud0dc\uc5d0\uc11c": 2682, "\u2581\uac00\uaca9": 728, "\u2581\uc2b9\uc778": 2957, "\u2581\uc624\ub7ab\ub3d9\uc548": 3424, "\u2581\ubcc4\ub3c4\ub85c": 2349, "\u2581\uc5bb\uc740": 3249, "\u2581\uc811\ucd09": 4090, "\u2581\uacfc\ud559": 1071, "\u258180%": 626, "\u2581\ubcf4\uc548": 2375, "\u2581\uc5ec\ub860": 3306, "\u2581\ucd5c\uc6b0\uc218": 4536, "\uc801\uc778": 7206, "\u2581\ud558\uaca0\ub2e4": 4925, "\u4f01": 5251, "\u2581\uad8c\ub9ac": 1172, "\u2581\ub298": 1550, "\u2581\ub208\uc5d0": 1540, "\uc878": 7265, "\ubc49": 6322, "\uc900\ud76c": 7291, "\uc628": 6971, "IB": 298, "\u2581\uace8\ud504\uc7a5": 1020, "\u2581\uba85\ub839": 2036, "\u2581\ubc29\ubb38": 2268, "\u2581\ud5e4": 5046, "\u2581\uacf5\uc815": 1052, "\u2581\ud3d0\uc1c4": 4854, "\ud3b4": 7719, "\uc0c1\ud669": 6534, "\u2581\uacc4\uae30\ub85c": 982, "\u2581\uc6b0\uc2b9\uc744": 3510, "\uc774\ubc88": 7109, "\u2581CGV": 642, "\u1100": 490, "\u2581\ud558": 4924, "\uc5d8": 6912, "\u2581\uc788\uc2b5\ub2c8\ub2e4": 3867, "\u2581\ud658\uc728": 5139, "\u2581\ub354\ubd88\uc5b4": 1699, "\u2581\uadfc\uac70": 1222, "\u2581\ub2e4\uc774\uc5b4\ud2b8": 1580, "\u2581\uc2e4": 3036, "\uc2a4\uc640": 6674, "\u2581\ubcc4\ub3c4\uc758": 2350, "\u2581\uc7ac\uc815\uc808\ubcbd": 3985, "\u2581\uae08\uc735\uad8c": 1242, "\u2581\ub05d\ub098": 1365, "\u2581\ubcf4\uc720\ud55c": 2385, "\u2581\ucd98\ucc9c": 4567, "\ucd95": 7463, "SBS": 344, "\u2581\uce58\ub8cc": 4619, "\u2581\uc4f0": 3084, "\u2581\uc77c\ubc29\uc801": 3808, "\u2581\uc5d0\uc2a4": 3287, "\uc5f0\uc2b9": 6935, "\u2581\uad6c\ub9e4": 1119, "\u2581\uc7ac\ub2a5": 3975, "\uc808": 7217, "\uae08\uc744": 5557, "\uc232": 6651, "II": 300, "\u2581\ud55c\ud654": 4976, "\uc92c": 7305, "\u2581\uc2f6\uc740": 3075, "\u2581\uc704\uc870": 3560, "\u2581\uc774\ub04c\uc5c8\ub2e4": 3655, "\uc778\ud130\ub137": 7125, "\u2581\uc778\ud130\ubdf0": 3795, "\ucf08": 7527, "\uaf34": 5617, "\ubd84\uae30\uc5d0": 6419, "\u2581\ubd88\ub7ec": 2493, "\u2581\ucd5c\uac15\ud76c": 4521, "\u5317": 5256, "\ud750": 7984, "\uc26c": 6653, "\u2581\ub298\uc5c8\ub2e4": 1558, "\u2581\uc778\uc99d": 3787, "\u258127": 585, "\u2581\uad6d\uc870": 1157, "\u2581\ubcf8\uaca9\ud654": 2412, "\u2581\uc2dc\ub3c4": 2971, "\u2581\uc544\ub2c8\ub0d0": 3098, "\u2581\uc704\ub85c": 3554, "\u2581\uc88b": 4204, "\u2581\ucd9c\uc804": 4585, "\uae61": 5600, "\ub214": 5747, "\ub4ef": 5943, "\uc788\ub2e4": 7143, "\u2581\uc720\ub9ac": 3584, "\u2581\ubb34\ub300": 2098, "\u2581\uc601\uc5ed": 3387, "\u2581\ud398\ub110\ud2f0": 4830, "\u2581\u25b2": 719, "\u2581\ub9ce\uc9c0": 1957, "\u2581\uc2a4\ud3ec\uce20": 2945, "\u2581\ube44\ubc00": 2528, "\u2581\ud68c\ubcf5": 5155, "\uac2d": 5372, "\u2581\ubc8c\uc778": 2317, "\uc654\ub358": 6991, "\ucf8c": 7548, "IM": 301, "\u2581\uad6d\ubbfc\uc758": 1148, "\u2581\uce90\uc2a4\ud305": 4646, "\ub9d1": 6161, "\uac1c\uc131\uacf5\ub2e8": 5365, "\u2581\uae30\uc5ec": 1295, "\u2581\uc2dc\uc791\ub41c": 2987, "\uacf5\ub2e8": 5456, "\u2581\ubd80\ud0c1": 2458, "\u2581\uc5ec\ud589": 3321, "\u2581\uc810\uc720\uc728": 4079, "\u2581\uc6c0\uc9c1\uc774": 3526, "\ud589\uc704": 7884, "\u2581\uc655": 3465, "\u2581\uc870\uc791": 4182, "\u2581\ub6f0\uc5b4\ub118": 1870, "\uc9c0\ud6c8": 7341, "\u2581\ubb38\uc81c\ub294": 2127, "\u2581\ub450": 1773, "\u2581\ubd84\uc11d\uc774\ub2e4": 2477, "\uafd4": 5634, "\ud0c4": 7590, "\u2581\uc601\ub4f1\ud3ec": 3379, "\ub9cc\ud07c": 6157, "\uc55e\uc73c\ub85c": 6833, "\uc5ec\ud589": 6925, "[SEP]": 3, "\u2581\ud610\uc758\ub97c": 5072, "\uc298": 6662, "\u2581\ub178\uc870": 1488, "\ub77c": 6003, "\ub141": 5711, "\u2581\uc788\ub2e4\uace0": 3863, "\u2581\uc791\uac00": 3931, "\u2581\uc785\uace0": 3838, "\u2581\uc5b8": 3241, "\u2581\uace0\uc591": 1008, "\u2581\uc5c5\uadf8\ub808\uc774\ub4dc": 3262, "\u2581\ud3ec\uc778\ud2b8": 4859, "\u2581\uc18c\uc18d\uc0ac": 2838, "\u682a": 5288, "\ub458": 5910, "\u2581\uad6c\uac04": 1116, "\u2581\uc788\uc73c\uba70": 3878, "\ub974\ud2b8": 6114, "\uc8fc\ub294": 7280, "\u2581\uc74c\uc545": 3610, "\u2581\ubb38\uc758": 2122, "\ub428": 5903, "\u2581\uc81c\ub3c4": 4137, "\u2581\uc788\ub358": 3865, "\u2581\uae40\ud0dc": 1334, "\u2581\uacbd\uc81c\uc801": 974, "\uc548\uc815": 6817, "\u2581\ub300\uc804": 1660, "\u2581CCTV": 639, "\u2581\uacfc\uc138": 1060, "\u2581\ud45c\uc815": 4883, "\u2581\uc6d0": 3533, "\u2581\uac00\uce58\ub97c": 772, "\ub08c": 5654, "\u2581\uc5ec\ubd80\ub97c": 3311, "\u2581\ud655\ucda9": 5135, "\uc12f": 6571, "\uc200": 6626, "\u2581\ud574\uba85\ud588\ub2e4": 5004, "\uceec": 7517, "\u2581\ud574\uba85": 5003, "\ud0d5": 7597, "\u2581\uc0dd": 2704, "\u2581\ud56d\uc0c1": 4996, "\uc5b5\uc6d0\uc744": 6863, "\ud558\uc9c0\ub9cc": 7820, "\u2581\uc7a1\uace0": 3951, "\ucda9": 7472, "\u2581\ubc8c\uc774\ub294": 2316, "\u2581\ubaa8\uc2b5": 2056, "\u2581\ud5c8": 5037, "\u2581\uc0c8": 2695, "\u2581\uc5f0\ub9d0": 3345, "\u2581\ubc18\uc751": 2217, "\ubcfc": 6386, "\ucabc": 7375, "\u2581\ubcf4\uc774\uba70": 2390, "\u2581\uce74\ub4dc": 4636, "\u2581\ucd9c\uadfc": 4571, "\u2581\ub9cc\ub098": 1933, "\u2581\ub4f1\uc7a5": 1828, "\u2581\uc88c": 4211, "\u2581\uc5ec\uae30": 3301, "\ub300\ucc45": 5819, "\uc53d": 6796, "\ud568\uaed8": 7838, "\ubaa8\ubc14\uc77c": 6215, "\ud15d": 7625, "\ucf13": 7529, "\u2581\uc7ac\ud310\ubd80\ub294": 3987, "\ud53c\ud574": 7771, "l": 420, "\ucd95\uad6c\uc5f0\ub9f9": 7465, "\u2581\u201c\u2018": 715, "\u2581\ubca0\ud2b8\ub0a8": 2335, "\u2581\uc784\uba85": 3830, "\u2581\uc791\uc740": 3939, "\uafcb": 5633, "\u258123": 581, "...\"": 56, "\u2581\uc2b9\ub9ac": 2951, "\u2581\uc774\uba85\ubc15": 3691, "\ub0a8\ubd81": 5667, "\u2581\ucc45\uc784": 4458, "\uc5c6\uc774": 6883, "\ucf54\ub4dc": 7534, "\u2581\ubc97\uc5b4\ub098": 2332, "\u2581\ube44\uc2b7": 2533, "\ub625": 5983, "\uc5c6\ub294": 6882, "\u2581\uae30\uc5c5": 1292, "\u2581\uc5f4": 3358, "\u2581\uc9c0\ub0b4": 4307, "\uad6d\ub0b4": 5505, "\uc838\uc57c": 7246, "\u2581\uc5f4\ub838\ub2e4": 3361, "\ubd10": 6393, "\uae30\ud68d": 5583, "\ud154\ub808\ucf64": 7623, "\ub9ac": 6122, "\u2581\uc2e4\ucc9c": 3053, "\u2581\ud604\ub300\ubaa8\ube44\uc2a4": 5053, "\uccad\uc0ac": 7433, "\u2581\uc2e0\uc6a9\ub4f1\uae09": 3024, "+": 45, "\u2581\ube44\uc911": 2539, "\u2581\ucd94\uc2e0\uc218": 4549, "\u2581\ubbf8\ub798\ubd80": 2156, "\u2581\ub298\ub824": 1551, "\ud588\ub294\ub370": 7867, "\u2581\uad6d\uac00\uc815\ubcf4\uc6d0": 1137, "\u2581\uae34": 1311, "\u2581\uaf2c\ub9ac": 1346, "\ub2c8": 5770, "\u2581\ud615\uc131": 5083, "\u2581\ud65c\uc57d": 5145, "\uc73c\ub824": 7077, "\ud759": 7988, "\uae34": 5584, "\ud328": 7697, "\u2581the": 708, "\u2581\uadf8": 1185, "\u2581\uc624\ud53c\uc2a4\ud154": 3433, "\ud0dc\uc601": 7599, "\ud559\uad50": 7823, "\u2581\ub9de\uc11c": 1973, "\u2581\uc11c\uadc0\ud3ec": 2719, "V": 357, "\uc5c5\uc18c": 6876, "\u2581\uc81c\uacf5\ud558\ub294": 4132, "\u2581\ubc18\uba74": 2212, "\u2581\uc2e4\uc81c": 3049, "\u2581\uc811\uc218": 4089, "\u2581\uc790\uccb4\uac00": 3926, "\u2581\ud30c\ud2b8\ub108": 4804, "\u2581\uc21c\ub9e4\uc218": 2915, "\u2581\uc5b8\ub860": 3244, "\u258140": 606, "\u2581\uc694": 3480, "\ub7f0\ub2dd\ub9e8": 6041, "\u2581\uacbd\uae30": 956, "\u2581\uc131\uacf5\ud588\ub2e4": 2784, "\u2581\ud478": 4886, "\ud038": 7562, "\uc800\ucd95\uc740\ud589": 7201, "\u2581\uc591": 3214, "\ubcf4\ud5d8": 6377, "\u2581\uc625": 3436, "\ub4f1\uae09": 5945, "\ud2f0\ube0c": 7674, "\ud504\ub85c\uc57c\uad6c": 7758, "\u2581\uacaa\uace0": 935, "\u2581\uc774\uc6a9\uc790": 3727, "\uc774\uc5c8\ub358": 7113, "\u2581\uc2e0\uc6a9\uce74\ub4dc": 3025, "\u2581GS": 651, "\u2581\ud574\ub3c4": 5002, "\u2581\ud65c\ub3d9\uc744": 5142, "\u2581\ubb54\uac00": 2146, "\ube0c\ub9ac": 6436, "\uc13c": 6591, "\uc9c0\ub098\uce58\uac8c": 7324, "\u2581\uc815\ub2f9\uacf5\ucc9c": 4098, "\u2581\uad70\ubd80": 1166, "\u2581\ub9c8": 1907, "\u2581\uc544\uce68": 3130, "\u2581\uac10\uc2dc": 799, "\uc6b8": 7013, "\u2581\uc774\uc5d0": 3724, "\u2581\uc138\uc0c1": 2811, "\u2581\uc0ac\ub791\uc744": 2591, "\u2581\uc548\ubcf4": 3137, "\u2581\ub4dc\ub7ec\ub0b8": 1794, "300": 145, "\u2581\uc18c\uc2dd\uc5d0": 2840, "\ud29c": 7656, "\uc796": 7173, "\uc740": 7086, "\u2581\ud3ed\ub85c": 4873, "\u2581\uc774\ub4e4": 3665, "\u5b50": 5266, "go": 400, "\u2581\uac80\uac70": 896, "0.0": 63, "\ucb49": 7380, "\uc9c1": 7342, "\u2581\uc2dc\ubbfc\ub2e8\uccb4": 2975, "\u2581\ubc15": 2199, "\ub6f4": 5989, "\ub290\ub0d0": 5758, "\u2581\uc815\ubd80\uc870\uc9c1": 4111, "\u2581\uc5d0\ub9ad": 3286, "\u2581\uc5ed": 3322, "\uc190\ud574\ubcf4\ud5d8": 6617, "\uc774\ud558": 7117, "\ud6c8\ub828": 7971, "\u2581\ub2e4": 1562, "\u2581\uc885": 4197, "\u2581\u25c6": 723, "\u2581\ub0b4\ub1a8\ub2e4": 1439, "\u2581\uc138\uc6cc": 2814, "\u2581\ud0d3": 4717, "\u2581\ub69c\ub837": 1866, "\u2581\ubd95\uad34": 2502, "\ud574\uc11c": 7850, "\u2581\uc0b6": 2649, "\u5357": 5257, "\uba3c": 6184, "\uba85\uc744": 6209, "\u2581\uc720\uce58": 3594, "\u2581\uc758\uc0c1": 3630, "\u2581\uc18c\ud504\ud2b8\uc6e8\uc5b4": 2852, "\u2581\ub9cc": 1931, "\uc0c1\ud488": 6533, "\u2581\uc804\ud22c": 4057, "\u2581\ub2ec\ub824": 1600, "\uac74\uc124": 5386, "\u2581\uc81c\uc57d": 4143, "\u2581\uc18c\uc2dd\ud1b5": 2842, "\u2581\uc774\ubc16\uc5d0": 3696, "\ub798": 6023, "\u2581\ub4e4\uc5b4": 1804, "\u2581\uc774\uc81c": 3742, "\ub179": 5730, "\u2581\uc4f8": 3087, "\uc6cd": 7019, "\u2581\uac04\ub2f4\ud68c": 778, "\uaf43": 5622, "\u2581\uc560\uc815": 3198, "\u2581\ud3ec\ud1a0": 4863, "\u2581\uc0c8\ud574": 2702, "\u2581\ud669": 5149, "\ud2f4": 7676, "\u2581\uc0ac\ud68c": 2633, "\u2581\ucc3e\uae30": 4444, "\uc5bb": 6869, "\u2581\ubd80": 2423, "\u2581\ubc1c\uacac\ub410\ub2e4": 2237, "\u2581\ubc16\uc5d0": 2205, "\u2581\uce90": 4643, "\uc5ed": 6926, "\ub461": 5912, "\u2581\ub098\ud0c0\ub0b4": 1402, "\u2581\uad00\ub78c": 1082, "\uc74c": 7089, "\u2581\uc5b4\ub835\ub2e4": 3232, "1.3%": 98, "\u2581\uc81c\uac70": 4129, "\u2581\uc120\ubcf4\uc77c": 2750, "\uc591": 6853, "\u5927": 5263, "\u2581\uc9d1\uc911": 4389, "\u2581\ub192": 1511, "\u2581\ubc18\ub4f1": 2211, "\u2581\uc790\ub8cc\ub97c": 3896, "\ub9c8\ub2e4": 6142, "\u2581\uc54a\uc73c": 3160, "\u2581\uc678\uad50": 3469, "\u2581\uc758\uc6d0": 3634, "\u2581\uacbd\ucc30\uad00": 976, "\u2581\ubd84\uc11d": 2476, "\u2581\uc601\ud5a5": 3390, "\uace0\ub4f1\ud559\uad50": 5441, "\uc568": 6838, "\u2581\ucd08\ub4f1\ud559\uad50": 4505, "\u2581\uc778\uc120": 3775, "\u2581NLL": 679, "ch": 383, "\u2581\uc9c4\uc9dc": 4368, "\u2581\uc791\uc131": 3935, "\ud14d": 7620, "\u2581\uc775": 3757, "\u2581\ubcd1\uc5ed": 2352, "\ub808": 6050, "\ud611\uc758\ud68c": 7916, "\u2581\ub4ef": 1813, "\u2581\uc694\uccad\ud588\ub2e4": 3491, "\u2581\uc774\uba54\uc77c": 3690, "\ud790": 7998, "\u2581\uc1a1": 2869, "\u2581\uc2e0\ubd84": 3018, "\u2581\uc911\uc7a5\uae30": 4276, "\ubcc4\ub85c\ub294": 6358, "\uce74\ud398": 7497, "\u2581\uacf5\uac04": 1024, "\u2581\uc2dc\uc7a5\uc5d0\uc11c": 2993, "\ubcf4\uac74": 6365, "\u2581\ub098\ub77c": 1376, "\uc5f0\uae08": 6932, "\u2581\uc18d\ub3c4": 2857, "\u2581\uba54\uc778": 2023, "\u2581\ubc18\ub3c4\uccb4": 2209, "\u25812017": 578, "\uc544\ud30c\ud2b8": 6809, "\u2581\ud14c\uc2a4\ud2b8": 4736, "\u2581\ub300\ud574": 1685, "\u2581\ub0b4\ubd80": 1446, "\u2581\uc804\uae30": 4015, "\u2581\uae0d\uc815\uc801": 1256, "\u2581\ub300\ud1b5\ub839\uc9c1\uc778\uc218\uc704\uc6d0\ud68c": 1672, "\ub2e4\uba74": 5784, "\u2581\ud6a8\uacfc\uac00": 5171, "\u2581\ube44\uacf5\uac1c": 2516, "\ub300\uac00": 5809, "\u2581\ub0b4\uc6a9\uc740": 1450, "\u2581\ubd88\uad6c\uc18d": 2491, "\u2581\uadf8\ub140": 1190, "\u2581\ud310\ub2e8\ud588\ub2e4": 4808, "\u2581\ud30c\uc6cc": 4803, "\ub057": 5647, "\u2581\uc2ec\uc0ac": 3065, "\u2581\uc5ec\ubd80": 3310, "\uacbd\uc601": 5427, "\u2581\uc9c4\ud589\ub418\ub294": 4372, "\ub958": 6107, "\uc608": 6957, "\ud0c0\uc6cc": 7585, "\u2581\ud328\ud0a4\uc9c0": 4820, "\u2581\ub298\uc5b4\ub09c": 1555, "\u2581\uae30\uc131\uc6a9": 1286, "\u2581\uac83": 905, "\u2581\ubcf4\uc99d": 2395, "\u2581\ub178\ud6c4": 1493, "\u2581\uc218\uc2ed": 2889, "\u2581\ud669\uc6b0\uc5ec": 5151, "\u2581\uc5e0\ub137": 3297, "\u2581\uc2e4\ub9dd": 3039, "\u2581\uc5ec\uc758\ub3c4": 3317, "\u2581\ubc18\uc601": 2216, "MC": 319, "\u2581\ubaa8\uc73c\uace0": 2065, "\u2581\ubd88\uad6c\ud558\uace0": 2492, "\u2581\ub3d9\ucc38": 1760, "\u2581\uace0\uc18c": 1006, "...\u201d": 58, "\u2581\ucda9": 4588, "74": 213, "\uae08\uc735\uc9c0\uc8fc": 5556, "\u2581\ucc28\uc774": 4413, "\u2581\ub0b4\uac00": 1435, "\ub128": 5706, "\u2581\ucfe0": 4680, "\u258136": 601, "\u2581\ud63c\ub780": 5101, "\u2581\uad00\ub828\ud574": 1087, "\ud478": 7743, "\ubcf4\uc774": 6374, "\uacfc\ud559": 5471, "\u2581\ub118\uae30": 1463, "\u77e5": 5304, "\uae4d": 5593, "\ub5bb": 5975, "\u2581\uac10\uba74": 792, "\uae30\ub2a5": 5569, "\u2581\ubb38": 2120, "\uc4f4": 6780, "\uc774\ub77c\ub294": 7103, "\uc55e": 6832, "\u2581\uc2dc\uc120\uc744": 2980, "\u738b": 5297, "\u2581\ub2f5\ud588\ub2e4": 1617, "\u2581\ubd81\ud55c": 2465, "\u2581\ub5a0\ub098": 1853, "\u2581\uc885\ub8cc": 4200, "\u2581\uad00\uac1d": 1074, "\u2581\uc870\uce58": 4188, "\u2581\uc0ac\uc774\uc5d0\uc11c": 2621, "\u2581\uc885\uad50": 4198, "\ubca8\ud2b8": 6350, "\uc218": 6629, "\u2581\ud1b5": 4743, "\u25818": 624, "\u2581\uc774\uc6a9\ud574": 3730, "\uc804\uc790": 7214, "\u2581\uc190\ud765\ubbfc": 2866, "\ucd08": 7446, "\u2581\ubf51\uc544": 2569, "\u2581\uc5ed\uc804": 3329, "\u2581\uadf9\ubcf5": 1218, "\uc0c5": 6535, "\u2581\ub9c8\ucf00\ud305": 1926, "\u2581\ud3b8\uc131": 4834, "\uc18c\ub4dd": 6608, "\u2581\uc778\uc7ac": 3784, "\u2581\ud310\uacb0": 4806, "\u223c": 511, "\u2581\uc637": 3454, "\u2581\uc721\uc131": 3600, "\u2581\ud0c0\uc120": 4701, "\u2581\uc2dc\uac04": 2962, "\u2581\uc218\ube44\uc218": 2881, "\u2581\ub0a8\uc544": 1420, "\u2581\ud45c\uc2dc": 4882, "\u2581\ub300\uac70": 1634, "\ub144": 5712, "\ub9e4\uce58": 6171, "\ubc14\uc774\uc624": 6278, "\uc7a5": 7178, "\u2581\uacfc\uc7a5": 1064, "0.1": 65, "\u2581\ucf54\ub108": 4666, "\uc1fc": 6625, "\u2581\uc5ec\ub984": 3307, "\u2581\uae30\ub300\ud558\uace0": 1271, "\u2581\uc9c0\uae08\uc740": 4301, "\u2581\uc9c0\uc6d0\ud55c\ub2e4": 4334, "\u2581\uc7ac\ub09c": 3974, "\uc2eb": 6744, "\ud558\uba74\uc11c": 7812, "\ud588\uc744": 7879, "\u2581\uc9d1\ub2e8": 4388, "\u2581\ubbf8\uc18c": 2163, "\u2581\uae00\uc744": 1234, "\u2581\ub07c": 1369, "\u2581\uc758\uc6d0\uc774": 3637, "\u2581\uc131\uc7a5\ub960": 2793, "\u2581\uc218\uc775\uc744": 2899, "\u2581\ucd94\uc9c4\ud560": 4557, "\u2581\ud574\uc18c": 5009, "\uc553": 6823, "\u2581\ub9e1\uc740": 1985, "\u2581\ubd80\ud488": 2459, "\uc2dc": 6705, "\ucf58\ud150\uce20": 7541, "\uacf5\uae09": 5455, "\u2581\uc5ec\uc804\ud788": 3320, "\ud584": 7862, "\u2581\uad6d\uc138\uccad": 1151, "\u260e": 5232, "\ud558\ub824": 7806, "\u2581\ud559\uc0dd": 4952, "\u2581\uac80": 895, "\ub451": 5908, "\uc2a4\ub7fd\uac8c": 6670, "\u2581\ud380\ub4dc": 4828, "\ud32c": 7701, "\u2581\uc2ec\uac01": 3061, "\u2581\uc0ac\ub78c": 2584, "\u2581\ubcf4\ub3c4\uc790\ub8cc": 2370, "\uc120\ubb3c": 6561, "\uae30\uac04": 5563, "\u2581\ub0b8": 1454, "\u2581\ub179\ud654": 1497, "\u2581\ub208": 1535, "\uc874": 7264, "\uca4c": 7371, "\u2581\ubabb\ud588\ub2e4": 2093, "\u2581\uc5b4\ub835": 3231, "0.6": 73, "\u2581\uc6d4\ub4dc\ucef5": 3548, "CC": 275, "\ub864": 6085, "\uc465": 6778, "\u2581\uc0dd\uc874": 2715, "\ud310\ub9e4": 7689, "\u2581\uc62e\uae30": 3453, "\u2581\ubd84\ub178": 2469, "ut": 452, "\u2581\uc555\uc218\uc218\uc0c9": 3183, "\u2581\ucda9\ubd84": 4593, "\ubc88\ud640": 6331, "\u2581\uc7a1\uc544": 3952, "\uc0bc": 6521, "\uc815\ucc45": 7231, "\u2581\u2018": 712, "\uc2a4\uc644\uc9c0\uc2dc\ud2f0": 6675, "\u2581\uc758\uc2dd": 3631, "\u2581\uc54a\uac8c": 3147, "\u2581\ubcc0\uacbd": 2340, "\u258125": 583, "\u2581\ud611\ubc15": 5075, "\uc785\ub2c8\ub2e4": 7139, "\u2581\ub099": 1404, "\u2581\uc8fc\ubb38": 4227, "\u2581\uac10\uc131": 795, "\u2581\uc5f0\ucd9c": 3357, "\ub840": 6078, "\u2581\uc911": 4257, "\ubd09": 6392, "\u2581U": 695, "\uc22d": 6649, "\uc804\uc744": 7213, "\u2581\uc548\ud0c0\ub97c": 3143, "\u25810.2": 527, "\u2581\ub4f1\uc5d0\uc11c": 1821, "\u2581\uae00": 1231, "\u2581\uc7a5\ub974": 3959, "\ub418\uc5c8\ub2e4": 5896, "\u2581\uc2e0\uc6a9": 3023, "\ub9ce": 6158, "\uce7c": 7500, "\ub7c9": 6035, "\u2581\ubd81": 2462, "\ud328\ubc00\ub9ac": 7698, "\u2581\uc544\uc9c1": 3129, "\u03bc": 489, "\u2581\ud0c0\uaca9": 4699, "\u2581\uc885\ubaa9": 4202, "\uadf9": 5543, "\ub791": 6022, "\ucd1b": 7451, "\u2581\ub300": 1633, "\u2581\uc2dc\uccad\uc790\ub4e4": 3001, "\u2500": 512, "\uc5b4\uc57c": 6856, "\u2581\uc5b4\uc81c": 3238, "\u2581\ud2f0\ucf13": 4796, "\u2581\ud55c\uad6d\uc740\ud589": 4961, "\ub2e4": 5782, "\u2581\uae30\ub85d": 1273, "\u2581\uc5f0\uc560": 3351, "\u2581\uc8fc\uc7a5": 4236, "\ube14\ub799": 6439, "\uc544": 6797, "\ud3f0": 7736, "\u2581\ud63c\uc790": 5102, "\uc5d0\uc11c": 6903, "\u2581\uc774\uc775": 3736, "\u2581\ub9e1\uc558\ub2e4": 1984, "\u2581\ud68c\uacc4": 5153, "\uc2dc\uc124": 6712, "\u2581\ud2b8\uc704\ud130\uc5d0": 4776, "(9": 38, "\u2581\uc774\uc5b4\uac00\uace0": 3717, "\u2581\uc18c\uc9d1": 2849, "\u2581\ucd94\uc9c4": 4555, "\u674e": 5286, "\u2581\uadf9\ub300\ud654": 1217, "\u2581\ubcf8\uaca9\uc801\uc778": 2411, "\ub144\ubd80\ud130": 5717, "\u2581\uacb8": 952, "\ub418\uc790": 5897, "\uba38\ub2c8": 6180, "\ub418\uba74\uc11c": 5893, "\ucad3": 7378, "\u2581\ub2f9\uc120": 1624, "\u2581\uc7a0\uc815": 3949, "\u2581\uc81c\uc791": 4147, "\u0327": 488, "\u2581\uac1c\uc815\uc548": 852, "\ud0b9": 7580, "\u2581\uc778\ub825": 3767, "\ud558\ub2e4": 7798, "\u2581\uae09\ub77d": 1253, "\u2581(": 522, "\u2581\ub4dc\ub7ec\ub0c8\ub2e4": 1795, "\u2581\uacfc\ud0dc\ub8cc": 1070, "\u2581\uc720\uc785": 3589, "\u2581\ucd5c\ucd08\ub85c": 4540, "\u2581\uc5c6\uc9c0\ub9cc": 3284, "\ub3c4\uc11c\uad00": 5862, "\u2581\ud1b5\ud589": 4757, "\u2581\uc720\uac00\uc99d\uad8c\uc2dc\uc7a5": 3575, "\u2581YG": 701, "\u2581\uad6d\ud1a0\uad50\ud1b5\ubd80": 1159, "\u2581\ud604\uc5ed": 5061, "\uc5e5": 6915, "\u2581\ub300\ud1b5\ub839": 1667, "\ubd80\uc7a5": 6406, "\ub738": 5996, "\u2581K": 659, "\u2581\ud3ed\uc6b0": 4876, "\uc464": 6777, "\u2581\ubc1c\ub9e4": 2240, "\uc0ac\uc640": 6507, "\u2581\uac08\ub4f1": 782, "\u2581\uc5f4\uc5b4": 3370, "\u2581\uaca8\ub0e5": 929, "\u2581\uce58\uc5f4\ud55c": 4625, "\u2581\ud2b9\ubcc4\ud55c": 4780, "\u2581\uc758\uc0ac": 3629, "ad": 370, "\u2581\uae30\ub2a5": 1264, "\u2581\uc138\uc885": 2816, "\u2581\uac8c\ub2e4\uac00": 922, "\ub9b0\ub2e4": 6134, "\u2581\uc5ec\ub984\ucca0": 3308, "\u2581\uc785\uc9c0": 3849, "\u2581\ub9cc\ub4dc\ub294": 1938, "\u2581\uac00\ub4dd": 745, "\uad00\uad11": 5476, "\u2581\uc54c\uac8c": 3167, "\u2581M": 671, "\u2581\uae30\ubcf8": 1280, "\u2581\uae40\uc5f0\uacbd": 1324, "\ub9ac\uc870\ud2b8": 6130, "\uba58": 6193, "\uc410": 6776, "\ub41c\ub2e4": 5900, "\ucf5c": 7542, "\u2581\uc758\uc57d\ud488": 3633, "\ubd93": 6427, "\ub514\uc2a4\ud50c\ub808\uc774": 5949, "\u2581\ub0a8\uc790": 1423, "\ub818": 6058, "New": 328, "\u2581\uac00\uc804": 761, "\u2581\ub098": 1370, "\u2581\ub0a9\uce58": 1427, "\u2581\uc774\ub978\ub2e4": 3684, "\ub9de": 6166, "\u2581\uacf5\ud3ec": 1054, "\u2581\ud310\ub9e4\ub7c9": 4810, "\ubcf5\ud569": 6381, "\uca4d": 7372, "04": 86, "\u2581\uc870\ub2ec": 4167, "\uaddc\ubaa8": 5533, "\u2581\ubb18": 2094, "\ucda5": 7470, "500": 177, "\ub370\ub2e4": 5851, "\uc62c\ud574": 6975, "\u2581\uae08\uc735": 1240, "\uac00\uc9c0": 5335, "\uc824": 7242, "\u2581\ub300\ud45c\ub2e8": 1676, "\u2581\uc606": 3395, "\u2581\uc870\uac74": 4163, "99": 248, "\ucfe8": 7554, "\u2581\ud798\ub4e0": 5212, "\u2581\ubd88\ud3b8": 2499, "\u2581\ud575\uc2ec": 5016, "\u2581\ud22c\uc5b4": 4766, "\u2581\ube59": 2551, "\ub310": 5833, "\u2581\ub2a6\uc5b4": 1561, "\u2581\uc6b0\ub9ac\uac00": 3502, "\u2581\ubca0": 2333, "\u2581\uc778\uc218\uc704\uc6d0\ud68c": 3780, "\u2581\uc7a5\ub09c": 3958, "\u2581\uc2f6\uc5c8": 3074, "46": 168, "\u2581\ub9e1\uace0": 1981, "\ud504\ub77c": 7754, "\u2581\uc70c\ub9ac\uc5c4": 3573, "\u2581\uadf8\uac04": 1187, "\ub78d": 6019, "\uac9f": 5404, "\ub7fd": 6044, "\ud749": 7983, "\uce30": 7481, "\u2581\uc6b4\uc804": 3520, "KB": 308, "\u2581\ubc30\uacbd\uc73c\ub85c": 2289, "\u2581\ub9de\ub294": 1971, "\uc704\uc6d0\uc7a5": 7053, "\u2581\ub530": 1833, "\u2581\ud611\uc758": 5079, "\u2581\ube0c": 2505, "\u2581\uad11\uace0": 1097, "9%)": 236, "\u2581\uacb0\ucf54": 948, "\u2581\uc288": 2926, "\u2581\ud574\uacb0": 4999, "\u2581\ubd80\uc704\uc6d0\uc7a5": 2446, "\ub985": 6118, "\u00a1": 470, "\u2581\uac00\uc9c4": 769, "\u2581\ud569\ub9ac\uc801": 4989, "\u2581\uaddc\ubaa8\ub85c": 1180, "\ud3f4\ub9ac": 7738, "\u2581\ub0a8\ub2e4\ub978": 1414, "\u2581\uad70\uc0ac": 1167, "\u2581\ub300\uad6c": 1636, "\u2581\uc790\uccb4": 3925, "kr": 419, "\uc0ac\uc9c4": 6511, "\u2581\ub298\uc5b4\ub098": 1554, "\u2581\uc804\ub450\ud658": 4024, "\u2581\uc18c\ub9ac": 2829, "\u2581\uc808\uac10": 4068, "\u2581\uc791\ub144": 3933, "\uc138\ub300": 6583, "\u2581\uacbd\uacc4": 954, "\u2581\ub9cc\ud55c": 1949, "\uc7a5\uc560": 7182, "\u2581\uacfd": 1072, "\uc5c5\uc790": 6877, "z": 459, "\u2581\uc555\ub3c4\uc801": 3179, "\u2581\uc704\uc548\ubd80": 3556, "\u258150%": 613, "\u2581\uc790\uc720": 3920, "\uc774\uc9c0\ub9cc": 7116, "\u2581\uc7ac\ubbf8": 3977, "\u2581\ubaa8\ub974\uaca0\ub2e4": 2050, "\ud611\ub3d9\uc870\ud569": 7912, "\u2581\ub0ae\ucd94": 1432, "\u2581\ub4dc\ub77c\ub9c8": 1789, "\ub9c8\ud2b8": 6148, "\u00d8": 482, "\ub0bc": 5683, "\u2581\ud06c\uae30": 4683, "\ud611\uc0c1": 7914, "\ub69d": 5985, "\uba38": 6179, "\ub18d\ud611": 5735, "\u2581\uc555\ub825": 3180, "\ub300\ud559\uc6d0": 5826, "\u2581\ub118": 1460, "\ub959": 6108, "\u2581\ubaa8\uc2b5\uc774\ub2e4": 2060, "\ubc1c\uc804\uc18c": 6299, "\u2581\ub300\uc911": 1661, "\u2581\uac00\ub824": 747, "\ucd1d\ub9ac": 7453, "\ub77c\ub294": 6005, "\u2581\ub300\ucd9c": 1666, "\uc758": 7095, "\u6734": 5285, "\uac70\ub798\uc18c": 5380, "\u2581\uc788\uc744\uae4c": 3881, "\u2581\ub3c4\uc911": 1722, "\u2581\uc989\uac01": 4280, "51": 179, "\u2581\ud6c4\ubc18": 5178, "\u2581\uc99d\uac00\uc728": 4287, "\ube5b": 6458, "\u2581\ubb34\uc2e4\uc810": 2112, "\ub0ab": 5670, "\u2581\uc568\ubc94": 3204, "\u2581\uc5b4": 3220, "\u2581\ud604\ub300\uc911\uacf5\uc5c5": 5055, "\uc92c\ub2e4": 7306, "\u2581NC": 676, "\u2032": 504, "\uac19": 5354, "\uae30\uc5c5\uc740\ud589": 5578, "\ud018": 7559, "\u2581\uc9c0\uc2dc": 4326, "\u2581\uac01\uc790": 775, "\u2581\uae34\uae09": 1312, "\u2581\uc2dc\uccad\uc790\ub4e4\uc758": 3002, "\u2581\ub54c\uae4c\uc9c0": 1845, "7000": 209, "\u2581\uc2ec": 3060, "\u2581\uc55e\ub450\uace0": 3185, "9%": 235, "\u2581\uccb4\uacc4\uc801": 4494, "\u2581\uc7ac\uc815": 3984, "\uc554": 6824, "\uba55": 6192, "\u2581\uc720\uc871": 3591, "\u2581\uc804\ubb38\uac00": 4034, "\u2581\ud588\ub358": 5020, "\u2581\uc2dc\uc0c1\uc2dd": 2979, "70": 207, "\ub429\ub2c8\ub2e4": 5906, "\ub2d9": 5779, "\u2581\ube0c\ub77c\uc9c8": 2507, "\u2581\uc5f0\uae08": 3340, "\u2581\uc788\uc73c\uba74": 3879, "\u2581\ud76c\ub9dd": 5208, "\uc0ac\ub78c": 6498, "\u2581\ud3f4": 4879, "\u8eca": 5316, "\uc138\ud2b8": 6588, "\uad50\ud68c": 5494, "\u2581\uad00\uacc4\uc790": 1077, "86": 230, "\u2581\ubbf8\ubaa8": 2161, "2.3%": 123, "\u2581\uc9c0\uc5f0": 4330, "\u2581\ud5c8\uc704": 5041, "\u2581\uadf8\uc758": 1214, "\u2581\uc2dc\uc791\ud588\ub2e4": 2990, "\u2581\uc804\ub2ec": 4022, "\u2581\uc21c": 2912, "\u00bf": 479, "\ucc9c": 7422, "\u2581\ub4e4\uace0": 1802, "\u2581\ub2e4\uc18c": 1572, "\u5148": 5253, "\ub144\uc0dd": 5718, "\u2581\uc62c": 3439, "\uc18c": 6607, "\uad6d\uc7a5": 5508, "\u2581\ud2b8": 4773, "\uc714": 7060, "\u2581\ub9c9\uc544": 1929, "\uc90d": 7294, "\ub098\ubb34": 5660, "\uad7d": 5519, "\u2581\uc5c6\ub2e4\ub294": 3275, "\u2581\uac1c\ubcc4": 841, "\u2581\ud1b5\ud654\uc815\ucc45": 4759, "\ubc95\uc6d0": 6336, "\u2581\uc2e4\uc2dc": 3043, "\u2581\ubb34\ub98e": 2106, "\u2581\ube44\uc6a9": 2535, "1.7%": 103, "\u2581\ub204\ub9ac\uafbc\ub4e4\uc740": 1532, "\u2581\ub5a0": 1852, "\uc810\uac80": 7221, "/": 59, "\ubcc0": 6355, "\u2581\uc544\uc6b8\ub7ec": 3120, "\ud54d": 7778, "45": 167, "\u2581\ub3c4\uc785": 1720, "\u2581\uc124\uacc4": 2770, "\uc78e": 7146, "\ub300\ucd9c": 5820, "\u2581\ubc88": 2307, "\u2581\uc870\uc131": 4177, "\u2581\uc0ac\uace0": 2576, "\u2581\uc774\uacf3": 3651, "\u2581\ucc28\uae30": 4404, "\uada4": 5528, "\uadc0\ud0dc": 5530, "\u2581\uac1c\uc131\uacf5\ub2e8": 846, "\ubd80\uc0b0": 6405, "\u2581\ub098\uc130": 1385, "\ud604\uc9c0\uc2dc\uac01": 7907, "\u2581\uace0\uac1d\uc5d0\uac8c": 996, "\uc655": 6992, "\ubd05": 6390, "1.6%": 102, "\u2581\ubd84\uc704\uae30\ub97c": 2483, "\ubc95": 6335, "r": 435, "\ud5f7": 7898, "\ud558\uae30": 7789, "\ub550": 5966, "\u2581\uc2ec\uac01\ud55c": 3062, "\ucd0c": 7449, "\uae08\uc18d": 5552, "\uc0b0\uc5c5\ub2e8\uc9c0": 6518, "\u00f7": 485, "\uc999": 7315, "\ub410": 5878, "\u2581\uc5fc\ub450\uc5d0": 3375, "\u2581\ud06c\ub8e8\uc988": 4686, "\uc6cc": 7018, "\u2581\uc7a5\uc18c": 3962, "\u2581\ucd94\uc801": 4552, "\u2581\ubb38\ud654\uccb4\uc721\uad00\uad11\ubd80": 2133, "\u2581\uc9c1\uc811": 4358, "\uc704\uad8c": 7045, "\uc5b5\uc6d0\uc73c\ub85c": 6862, "\u2581\uc0ac": 2573, "\u2581\uc774\ub3d9\ud761": 3664, "\u2581\uacf3\uc774": 1022, "er": 394, "\u2581\ucd5c\uc120\uc744": 4530, "\ubcfc\ub968": 6388, "\u2581\uc6d0\uc778": 3538, "\u2581\uc544\uc774\ub514\uc5b4": 3124, "\u2581\ucc29": 4420, "\uacbd\ucc30\uccad": 5434, "\uc84c\uc2b5\ub2c8\ub2e4": 7251, "\u2581\uc0c1\ub300": 2664, "13": 110, "\u2581\uc6e8\ub529": 3550, "\ud30e": 7687, "\u2581\ub2f9\ucca8": 1629, "\u2581\ubbf8\uce58\uc9c0": 2166, "\u2581\uc2dd": 3006, "\u2581\ud559\uad50\ud3ed\ub825": 4950, "\uc790\ub4e4\uc774": 7155, "\ud058": 7564, "\uaca0\uc2b5\ub2c8\ub2e4": 5409, "\ub9b4": 6135, "\u2581\uc801\uc751": 4006, "\ud074\ub7fd": 7570, "\u2581\ub4dd\uc810": 1797, "\u2581\ubd88\uac00\ud53c": 2487, "\u2581\uad6d\ud68c\uc5d0\uc11c": 1163, "\u2581\uccb4\ub825": 4495, "\u2581\ud2b8\uc704\ud130": 4775, "\ub044": 5640, "\uc610": 6962, "\u2581\ub0ae\uc544": 1430, "\u2581\ub3d9\uacb0": 1742, "\u2581\ubcf4\ud638": 2400, "\u2581\ub192\uc558\ub2e4": 1517, "\u2581\ub2f4\uaca8": 1608, "\u2581\uc9c0\uc18d\uc801\uc778": 4324, "\ub188": 5733, "\uc0ac\uc5c5\ubd80": 6505, "\u2581\uc74c\uc2dd": 3609, "\ud558\uaca0\ub2e4\uace0": 7786, "\ub6f0": 5988, "\uac78\uc74c": 5391, "\u2581\ud3ed\ubc1c": 4874, "\u2581\ub05d": 1363, "\u2581\ubd84\uba85\ud788": 2475, "\u2581\uc0ac\ud68c\uc801": 2636, "\u2581\uc220": 2918, "\u2581\uc5f0\uad6c\uc6d0\uc740": 3338, "\u2581\uccad\uad6c": 4484, "\u2581\ud3c9\ud0dd": 4850, "\u258150": 612, "\ub808\uc774": 6054, "\u2581\ub4e4\uc5c8\ub2e4": 1811, "\u2581\ucc3d\ucd9c": 4443, "\u2581\uc544\uc2dc\uc544": 3116, "\u2581\uc720\ub3d9\uc131": 3580, "\uc751": 7094, "\u2581\ud22c\uc785": 4767, "\uc5c5\uccb4": 6879, "\u2581\ucf5c": 4679, "\uc62c": 6973, "\u7537": 5301, "\u2581\uc2dc\uc791\uc73c\ub85c": 2988, "\ud398": 7712, "\uc67c": 6997, "\ubdd4": 6430, "\u2581\uc0c1\ud658": 2688, "\u25812015": 576, "\u2581\ub6f0\uc5b4": 1868, "\ub099": 5661, "\u2581\uc0c1\uc7a5": 2677, "(17": 24, "\ub2a0": 5764, "\u2581\uc2dc\ub9ac\uc988": 2973, "\u2581\ucc98\uc74c\uc774\ub2e4": 4470, "\uc5c5\uc885": 6878, "\u2581\ubc1c\ud45c\ud55c": 2252, "\u2581\ud655\uc2e4\ud788": 5129, "\u2581\ub458\ub7ec": 1780, "\u2581\uc120": 2734, "\ubf55": 6481, "\u2581\ub3c4\ub0b4": 1710, "2000": 129, "\u2581\uc804\uc6d0": 4048, "\u2581\uad00\ud55c": 1094, "\u2581\uae40\uc885": 1331, "\u2581\ubc95\ub960": 2323, "\ubc1f": 6302, "\ubed4": 6473, "\ud56b\uc774\uc288": 7845, "400": 161, "\u2581\uac15\ub0a8": 808, "\u2581\uc785": 3836, "\u2581\uc2e4\ub0b4": 3037, "\u2581\uc5ed\uc0ac": 3325, "\u2581\uc8fc\uc5f0": 4232, "\uc778\ud130\ub0b4\uc154\ub110": 7124, "\ub193\uace0": 5738, "\u2581\uade0\ud615": 1184, "\u2581\uc804\ub9dd": 4027, "\u2581\uaf3d\ud78c\ub2e4": 1350, "\u2581\ub178\ud558\uc6b0": 1491, "\u2581\uac00\uacc4\ubd80\ucc44": 732, "\u2581\uc5ec\ub2f9": 3303, "\ub4ec": 5941, "2.5%": 125, "\u2581\uc18c\uc124": 2835, "\u25812": 553, "\u2581\uace8\ud504": 1019, "\u2581\uc0ac\ud68c\uacf5\ud5cc": 2634, "\u2581\uc800\uc9c0\ub978": 3995, "\u2581\ubb3c\ub9ac": 2142, "~20": 465, "\u2581\uc870\ud569\uc6d0": 4190, "\u2581\ucc28\uc9c8": 4419, "\ub144\uac04": 5713, "\u2581\uc774\uc801": 3738, "\ub9f5": 6175, "\ubd07": 6391, "\uc290": 6661, "\u2581\uc57c\uc678": 3210, "\uc8fd": 7287, "\uce89": 7502, "\ub81b": 6059, "\ubcbd": 6354, "\u2581\uc6b4\uc601\ud558\ub294": 3518, "07": 89, "\u2581\uc778\uc1c4": 3776, "\u2581\uc544\ub2c8\ub0d0\ub294": 3099, "1.5%": 100, "\u2581\uae30\uc7ac\ubd80": 1298, "\u2581\uc6b0\uc8fc": 3511, "\u2581\uc0c1\uc2b9\ud588\ub2e4": 2674, "\u2581\uc778\ub3c4": 3765, "\u2581\uae30\ucd08\uc790\uc0b0": 1305, "\u2581\uae30\ub150": 1263, "PC": 334, "\u2581\uc870\uc0ac\uacb0\uacfc": 4172, "\u2581\uc9c0\uc5ed": 4329, "\u2581\uccad\uc18c\ub144": 4487, "\u2581\ud589\uc0ac\uc5d0": 5028, "\ucf10": 7528, "\ud578\ub4dc": 7861, "OS": 331, "\ub8ec": 6098, "\u2581\uc2b9\uc9c4": 2958, "\u2581\uc5c4\uccad\ub09c": 3258, "\u2581\uc54a\uae30": 3150, "\uac1d": 5370, "\u2581\ubd10": 2420, "\ub365": 5846, "\u258112": 539, "\u2581\uacf5\uaca9": 1030, "\u1175": 494, "\ubbf8\ub514\uc5b4": 6257, "\u2581\ubaa8\uc544": 2061, "\uc0ac\uac74": 6495, "\u2581\ud3ed\ub825": 4872, "\uad00\ub828": 5477, "\uc778\uc0ac": 7121, "',": 17, "\u2581\ub300\uacb0": 1635, "\u2581\uc5f0\uae30": 3341, "\ud0dc\ud3c9\uc591": 7600, "\u2581\uc2e0\ub8b0": 3016, "\u2581\ubbff\uace0": 2180, "\ud588": 7864, "\u2581\ud3ec\ud568": 4864, "\u2581\uc624\ub978": 3426, "\u2581\ub208\ube5b": 1539, "0.7%": 76, "\u2581\ud6cc\ub96d": 5185, "\u2581\uc2e4\uc218": 3042, "\u2581\ubbf8\ud22c\ub370\uc774": 2168, "\u2581\uc138\ubbf8\ub098": 2808, "\u2581200": 556, "23": 135, "\uc528\uc758": 6791, "\u2581\uc54a\uc744\uae4c": 3164, "\u2581\uae30\uc900\uc73c\ub85c": 1303, "\u2581\uc774\ud574": 3752, "\u2581\uc7ac\ubb34": 3976, "\u2581LIG": 669, "\uc6e0": 7036, "\ub300\ud559\uad50": 5825, "\ub86d": 6087, "\u2581\uacf5\uac1c\ub41c": 1028, "\u664b": 5284, "\u2581\ucd5c\ub2e4": 4526, "BS": 273, "\uc775": 7118, "\u2581\ud3bc\ucce4\ub2e4": 4838, "\ub918": 6105, "\u2581\uc62c\uc2a4\ud0c0": 3448, "\u2581\ud1a0\uc9c0": 4740, "\uad34\ubb3c": 5486, "%)": 12, "\u2581\uc721\uad70": 3598, "\u2581\ud3ec\ud568\ud55c": 4868, "\ucc44\uad8c": 7406, "\u2581\ub5a0\ub09c": 1854, "\u2581\uc9c0\ud558\ucca0": 4347, "\ub12c": 5707, "\ub95c": 6109, "\ud504\ub9ac": 7759, "\u2581\uae68\ub057": 1343, "\u2581\ucc59\uae34": 4463, "\ud68c\uc7a5": 7960, "\u2581\uc815\ub9ac": 4101, "\u2581\uae30\ub85d\ud558\uba70": 1275, "\u2581\ub530\ub978": 1839, "!": 5, "PS": 340, "\u2581\uc791\ub3d9": 3934, "\u2581\uc774\uc5b4\uc9c0\ub294": 3721, "\u2581\ud1a0\ub300\ub85c": 4738, "\ubcd1": 6361, "\u2581\uc794": 3941, "\u2581\ubd80\ucc98": 2456, "\u2581\uc81c\uc7ac": 4150, "\u2581\ud3d0\uc9c0": 4855, "\u2581\uc804\ud615": 4063, "\u2581\ucc45": 4457, "\u2581\ubb34\uac8c": 2096, "\u2581\ud55c\ubc88": 4971, "\uba85\uc774": 6211, "\uc5f0\ud569\ud68c": 6939, "\u2581\uc218\ube44": 2880, "\u2581\uc81c\uc2dc": 4139, "\ud648\ub7f0": 7936, "\u2581\uc2dc\ub2ec\ub9ac": 2969, "\ub3c4": 5859, "\u2581\uc6b0\uc2b9": 3509, "\u2581\uc810\uc810": 4083, "\ubbfc": 6263, "\u2581\ub3c4\uc6c0\uc774": 1719, "\u2581\uacf5\uc7a5": 1051, "\u2581\ub9ac\ud3ec\ud2b8": 1906, "\u2581\uc138\uc6e0\ub2e4": 2815, "\u2581\ub192\uc544\uc84c\ub2e4": 1515, "\uc816": 7233, "\u2581\uc548\ud30e": 3144, "\u2581\ub9c8\ub828": 1911, "\u80ce": 5309, "\u2581\uc5f4\uace0": 3359, "\uc73c": 7074, "\uc9c8\uc11c": 7351, "\ub124\uc694": 5703, "\ube4c": 6451, "\uc695": 7001, "\uc654": 6989, "\uc50c": 6784, "\u2581\uc810\uc774\ub2e4": 4082, "\u2581\uc55e\uc138\uc6cc": 3189, "\u2581\uac00\uae4c\uc6b4": 734, "\u2581\uc790\uc6d0": 3918, "\u2581\ubd80\ucd1d\ub9ac": 2457, "\u2581\uc815\ud669": 4127, "\ub07c\ub9ac": 5650, "U": 356, "an": 374, "\u2581\uc5f0\uad6c": 3336, "\ud558\uba74": 7811, "53": 181, "(24": 30, "\u2581\ub9c8\uce58\uace0": 1924, "\u2581\ud569\ub958": 4988, "\ub2e5": 5786, "\u2581\ub178\ub3d9": 1477, "\u2581\uc810\ucc28": 4084, "\u2581\uc2e4\ud0dc": 3054, "\u2581\uc2a4\ud2b8\ub808\uc2a4": 2942, "\u2581\uc778\uc0ac": 3769, "\u2581\uc2e4\ud604": 3058, "\uc54c": 6821, "\u2581\uc785\ucc30": 3850, "\u2581\uc120\ubc1c": 2742, "\ud6c4": 7968, "\ucea0": 7507, "\u2581\uc0c8\ub204\ub9ac\ub2f9": 2696, "\u2581\uae08\ub9ac": 1237, "\u2581\uc608\ub2a5": 3399, "\u2581\uac00\uaca9\uc740": 729, "\u2581\uc880": 4196, "\u2581\uc2dc\uc2a4\ud15c\uc744": 2983, "\uc2f8\uc6c0": 6753, "\ud3ec\ud1a0": 7732, "\uc804\ub7b5": 7208, "w": 455, "\u2581\ud488\uc9c8": 4893, "\u2581\uc804\ub0a0": 4016, "\ub9ac\uc544": 6129, "\u2581\uc9e7\uc740": 4397, "\uc790\uc6d0": 7166, "\uc5ec\uba85\uc774": 6922, "\uc790\uac00": 7148, "\u2581\u201c": 714, "\u2581\ub54c\ubb38": 1848, "\ucd98": 7467, "\u2581\ub958\ud604\uc9c4": 1898, "\u2581\ub124\ud2f0\uc98c\ub4e4\uc740": 1474, "\ucf69": 7546, "\ubc1b\uc544": 6291, "\u2581\uad00\uc911": 1092, "\u2581\uc5d4": 3292, "\u2581\ud138\uc5b4\ub1a8\ub2e4": 4732, "\ud55c\ub2e4\ub294": 7833, "\u2581\uc815\uc2dd": 4116, "\u2581\uc6b0\ub9ac\ub294": 3504, "\u2581500": 614, "\u2581\uc751": 3612, "\uc9c0\ubc29\uacbd\ucc30\uccad": 7333, "\u2581\ubb34\uc2a8": 2110, "\u2581\uc2b9\uac1d": 2950, "\u2581\ud3bc\uccd0": 4837, "\u96fb": 5324, "\u2581\ucd5c\uace0\uc704\uc6d0": 4523, "\ub144\ub300": 5715, "\u2581\ub2f9\uc5f0\ud788": 1627, "\u2581\ubc1d\ud614\ub2e4": 2261, "\u2581\ucda9\ubd81": 4592, "\u2581\uc724": 3601, "\u2581\uc774\ub370\uc77c\ub9ac": 3661, "\u2581\uc788\ub290\ub0d0": 3859, "\ub355": 5841, "\uc801\uc774\uace0": 7204, "\u2581\uc5bc\uc74c": 3254, "\u2581\uc138\ubb34\uc870\uc0ac": 2807, "1%": 94, "\uba85\uc5d0\uac8c": 6206, "\uc548\uc804": 6816, "\u2581\uc7ac\uac1c": 3971, "\u2581\ub300\ud1b5\ub839\uc740": 1668, "\u5929": 5264, "\ubabb": 6224, "\ud588\uc5b4\uc694": 7874, "\u2581\uadf8\ub300\ub85c": 1192, "\uc9d9": 7359, "\u2581\ud569\uc758": 4991, "\u2581\uc120\ubb3c": 2740, "-2": 50, "\u2581\uc5b4\ub824\uc6b8": 3227, "\ucc9c\uc5b5\uc6d0": 7426, "\uc138\ud3ec": 6589, "\u2581\uc0ac\uae30": 2580, "\u2581\uc2e4\uc2dc\ud55c\ub2e4": 3046, "\u2581\uc218\ucd9c": 2906, "\u2581\ud0c4\ub825": 4708, "\ub178\ud2b8": 5729, "\uc2ac": 6697, "\ud5e4": 7895, "\u2581\uc704\uce58": 3563, "\u2581\uc0ac\uc815": 2626, "\u2581\uc5b4\ub5a4": 3224, "\u2581\uc790\uaca9": 3887, "\u2581\uac70\ub4ed": 866, "\u2581\uac83\uc740": 910, "\uc138\uc774\ube0c": 6587, "\u2581\ubd80\uc0b0": 2440, "\uac94": 5403, "\ud588\uc73c\uba74": 7878, "\u2581\uac70\uce5c": 879, "\uacf5\uc5f0": 5462, "\ud514": 7766, "\u25817": 621, "\u2581\ucc28\uc9c0": 4415, "\u2581\uc774\ub294": 3658, "\ud0c0\uc810": 7588, "\u2581\uc81c\uc870\uc5c5": 4152, "\u2581\ub179\uc74c": 1496, "\u2581\uc774\ud2c0": 3750, "\ube44\uac00": 6442, "\u2581\uc885\ud569": 4203, "\u2581\uba40\ud2f0\ubbf8\ub514\uc5b4": 2014, "\u2581\uc9d5\uc5ed": 4395, "\uacf5\uc7a5": 5464, "\u4eba": 5250, "\uc885\ud569": 7270, "\u2581\uc870\ub840": 4168, "\u2581\uac10\ucd95": 805, "\u2581\ud0c0\uc728": 4702, "\u2581\ubcf8\uaca9\uc801\uc73c\ub85c": 2410, "\ud384": 7709, "\u2581\ud0dc\uc5b4\ub0ac\ub2e4": 4726, "\u2581\ube44\uc2a4\ud2b8": 2532, "\u2581\uce5c\ud658\uacbd": 4629, "PGA": 336, "\u2581\ub9c9\uae30": 1928, "\uc9c0\uac00": 7319, "\u2581\uc148\uc774\ub2e4": 2821, "\u2581\uc545\ud654": 3134, "\u2581\ub18d\ucd0c": 1509, "\uace0\uac1d": 5440, "\u2581\uacf5\uc5f0": 1048, "\uc22b": 6648, "\ub530": 5959, "\u2581\uac70\ub454": 864, "\u2581\uc120\uace0\ud588\ub2e4": 2738, "\ud655\uc778": 7945, "\u7121": 5295, "\u2581\uc77c\uc790\ub9ac": 3819, "\u2581\uc8fd\uc74c": 4245, "\u5fc3": 5278, "\u2581\uc218\uc220": 2888, "\ud22c\uc5b4": 7644, "\uc27c": 6656, "\u2581\uc2e0\uace1": 3013, "\u2581\uadf8\ub9ac": 1209, "79": 218, "\u2581\ub300\ud574\uc11c\ub3c4": 1688, "\u2581\uc5b4\ub824\uc6c0\uc744": 3229, "\uc904": 7292, "\u2581\uace0\uc601\uc6b1": 1009, "\u2581\uc801\uc2dc\ud0c0": 4002, "\uc0bc\uc131": 6522, "\uae09": 5558, "91": 240, "\u2581\uacf5\ub3d9": 1036, "\u2581\uc9c8\ubb38": 4380, "\u2581\ubaa8\uc2b5\uc73c\ub85c": 2057, "\u2581\ubc1b\uc9c0": 2234, "\u2581\uc81c\uc2dc\ud588\ub2e4": 4141, "\uaef4": 5613, "\u2581\uac19\uc774": 834, "\ub7c9\uc774": 6036, "\ud559": 7821, "\u2581\uc544\ubc84\uc9c0": 3112, "\u25812006": 563, "\u2581\uc0b4\uc778": 2645, "\u2581\ud55c\uad6d\uc778": 4963, "\uace0": 5439, "\u2581\uace0\ubbfc": 1002, "\uc19c": 6619, "\u2581\uc62c\ub824": 3443, "\u2581\ub300\uc0ac": 1650, "\u2581\ucc3e\uc544": 4446, "\ub150": 5722, "\u2581\ub9c8\uc9c0\ub9c9": 1919, "0.8": 77, "\u2581\ubaa8\uba58\ud140": 2052, "\u2581\ud070": 4688, "\uc100": 6552, "0.4%": 70, "\u2581\ub274\uc695": 1543, "\u2581\uac15\ub0a8\uad6c": 809, "\u2581\uc990\uac70\uc6b4": 4282, "\u2581\uac74\uac15": 882, "\u2581\ub35c": 1704, "\uc9c0\ub09c\ud574": 7326, "\u2581\ud3b8": 4832, "q": 433, "\u2581\ucd5c\uc545": 4534, "\u2581\ud615\ud0dc": 5086, "MBC": 317, "\u2581\ucd94\uad6c": 4545, "\uc2a4\ucf54": 6680, "\ubc40": 6319, "\ubbf8": 6255, "\u2581\ub3c4\ucfc4": 1724, "\u2581\ubc29\uc1a1\uc5d0\uc11c": 2276, "AS": 268, "\u2581\uc874": 4192, "(6": 35, "\u2581\ud798": 5211, "\u2581\uacfc\uc815\uc5d0\uc11c": 1066, "\u2581\ub204\uac00": 1527, "700": 208, "\u2581\ub2f5\ubcc0": 1616, "\uc9c0\ub294": 7327, "\u2581\ud655\uc778\ub410\ub2e4": 5131, "\uc559": 6831, "\uad11\uace0": 5482, "\uc810\uc73c\ub85c": 7222, "\u2581\ubc30\uc6b0": 2292, "\u2581\ud22c\uad6c": 4763, "\ud310": 7688, "\u2581\uc0ac\uace0\uac00": 2577, "\ud558\uc9c0": 7819, "\u2581\uc9c1": 4349, "\u2581\uc5b4\ub824\uc6b4": 3226, "\uacbd\uc7c1": 5428, "\uc624\ud508": 6969, "\uac1c\uc6d4\uac04": 5367, "\uc84c\uace0": 7249, "\u2581\uacf5\ubc29": 1040, "\uc9c0\ub9cc": 7330, "\ucd1d": 7452, "\uc545": 6811, "\u2019,": 500, "\u2581\uae40\uc131": 1321, "\uc810": 7220, "\u2581\ud648": 5104, "\u2581\ub18d\uc5c5": 1508, "\u2581\ub418\uc5b4": 1767, "\u2581\ud3bc\uce60": 4840, "20": 127, "\u2581\uc720\ub098\uc774\ud2f0\ub4dc": 3577, "\u2581\ub54c\ubb38\uc5d0": 1849, "\u2581\ub178\ubb34\ud604": 1484, "\u258138": 603, "\u2581\ubb34\ub354\uc704": 2101, "\uc5b4": 6855, "\ub300\uc6b0\uc99d\uad8c": 5817, "\ud391": 7711, "\u2581\uc790\ub9ac\uc5d0\uc11c": 3900, "\u2581\ucc44\ub110": 4453, "\u2581\uc6b4\uba85": 3515, "\ubabd": 6225, "\u2581\uc815\uae30": 4096, "\u2581\uba74\ub2f4": 2030, "\ub524": 5955, "\u2581\uc2dc": 2959, "\u2581\ud14c\ub7ec": 4734, "\u2581\uc8fc\uc7a5\ud588\ub2e4": 4237, "\ucc98\ub9ac": 7418, "\u2581\ud310\ubb38\uc810": 4811, "\ubcf4\uae30": 6368, "\u2581SM": 690, "\ud68c\ub9d0": 7956, "\ubfdc": 6487, "\uac1c\ud601": 5369, "1%)": 95, "\u2581\ub9e4\ub825\uc744": 1992, "\u2581\uc608\uc0c1": 3405, "\u2581\ud558\ub77d": 4933, "\uc5d0\uc120": 6906, "\ud588\ub358": 7872, "\ud65c": 7948, "\ucf04": 7526, "\u25811997": 550, "\u2581\ud569\ub2c8\ub2e4": 4986, "\u2581\uc2dd\ub2f9": 3007, "\u2581\uc804\ub9dd\uce58": 4030, "\u2581\ucee4\ud53c": 4656, "\u2581\ud589": 5022, "\ub2d0": 5777, "\u2581\ub178\ucd9c": 1489, "\u2581\uc720\uc0ac": 3586, "\ud14c": 7618, "\ud63c": 7931, "\u2581\uc0c1\ud669\uc5d0\uc11c": 2691, "\ud669\uae08\uc5b4\uc7a5": 7952, "\u2581\ubcf4\uc778\ub2e4": 2392, "\u2581\ubbf8\ub798": 2155, "\uc790\ub9ac": 7159, "\u2581\uc9c0\ub3c4\uc790": 4312, "\ube48": 6450, "\u2581\ubca0\uc774\uc9d5": 2334, "\uc573": 6841, "\ud143": 7616, "\ubaac": 6220, "\u2581\ucc38\uc758\uc6d0": 4437, "\u2581\uc74c\uc131": 3608, "\u2581\uc0ac\uc0c1": 2603, "\u2581\ucde8\uc5c5": 4604, "\u2581\uc774\ub904\uc9c4": 3680, "\u2581\uc778": 3758, "\u2581\uc6d0\ub0b4\ub300\ud45c": 3535, "\u2581\uc5c6\uc560": 3277, "\u2581\ub2f4\uc740": 1614, "\u2581\uc9c0\uc790\uccb4": 4335, "\ubc15\ubb3c\uad00": 6283, "\u2581\uc804\uc5d0": 4045, "\u2581\ubc29\uc1a1\ub418\ub294": 2273, "\uaf64": 5626, "\ubfcc": 6483, "\ud53c\uc548\ud0c0": 7770, "\u2581\uc5c6\ub2e4\uace0": 3274, "&#34;": 14, "\u2581\ub290\ub080": 1547, "\u5cf6": 5272, "\uce60": 7490, "\u2581\uc138\uc885\uc2dc": 2817, "\u2581\ubc15\uba85\uc218": 2201, "\u2581\ucf58\ud150\uce20": 4678, "\ub9fa": 6178, "\ubf50": 6479, "\u2581\ub2e4\ub2c8": 1564, "\u2581\uc720\ud1b5": 3595, "\u2581\uafc8": 1356, "\ud0c0": 7581, "\u2581\uae40\ud55c\uae38": 1336, "39": 155, "\uc57d": 6846, "\u2581\ub9e4\ucd9c\uc774": 2003, "\u2581\ud544\uc218": 4918, "\ubb54": 6248, "\u2581\ubaa8\ub450": 2047, "\uacf6": 5467, "\u2581\uc560\ub9ac\uc870\ub098": 3197, "\u2581\uc54a\uc558\ub2e4": 3157, "\u2581\ud22c\uc790": 4768, "\uc5c8\uc73c\ub098": 6891, "\uc8fc": 7276, "\u2581\ucd94": 4541, "\uc528\uac00": 6786, "\u5916": 5262, "\u2581\uc62c\ub790": 3441, "\ubcd5": 6363, "\u2581\uc2dc\ubbfc": 2974, "\u2581\ud589\uc815": 5030, "\u2581\uc790\ub9ac\ub97c": 3898, "\u2581\ud3b8\uc9d1": 4836, "\u2581\ud575": 5014, "\u2581\ud6a1\ub839": 5168, "\u2581\uc55e\uc7a5\uc11c": 3193, "\u2581\uac19": 830, "\u2581\ubb3c\uac00": 2136, "\u2581\ub300\ud559": 1680, "\u2581\ubc94\ud589": 2321, "\u2581\uc7ac\ud65c": 3988, "\u2581\ubc30\uacbd": 2288, "\u2581\uc2dc\uac01": 2961, "\uc6a9\ud488": 7004, "\u2581\uc815\ubd80": 4106, "\u2581\uad8c": 1170, "\u2581\uae40\uc528": 1322, "\u2581\uc2a4\ud398\uc778": 2944, "\uc130": 6572, "\u2581\ub9e4\uccb4": 2000, "\u9b3c": 5329, "\u2581\ub300\uc751": 1659, "\u2581\uc2dc\uac04\uc774": 2964, "\ub560": 5967, "\u2581\ucd94\uc9d5\uae08": 4558, "\u2581\ub9c8\uc744": 1916, "\ub154": 5723, "\uc65c": 6993, "\u2581\ub9e4\ub825": 1991, "\u2581\ub9e4\uc785": 1997, "\u2581\uc9c4\ub8cc": 4362, "P": 333, "\u2581\uc778\uc5f0": 3782, "\u2581\ub098\ud0c0\ub0c8\ub2e4": 1403, "\u25cb": 5230, "\u2581\uc0c1\uc2b9\uc138": 2671, "\u5f17": 5277, "\uc608\ubc29": 6958, "\ub1e8": 5742, "\u2581\uc218\uc0ac\ub97c": 2883, "\uc7a5\uacfc": 7179, "\u2581\uc790\ub9ac": 3897, "\ud070": 7567, "\u2581\ubc29\uc9c0": 2281, "22": 134, "\u2581\uc2dc\ud5d8": 3005, "44": 166, "\u2581\uce21\uba74\uc5d0\uc11c": 4614, "\uba64": 6195, "\u2581\uc804\uba74": 4032, ")": 40, "ab": 368, "\ub144\uc5d0\ub294": 5720, "\ub618": 5982, "\u2581\uc788\uc744\uc9c0": 3882, "\ubc24": 6303, "MOU": 320, "\u2581\ubf50\ub0c8\ub2e4": 2567, "\u2581\uc2dc\uc0ac": 2978, "\uc2a4\ud2f0": 6692, "\u201d": 502, "\u8b49": 5315, "^": 364, "\u2581\ucf58": 4675, "\u2581\ub178\ub825\ud558\uaca0\ub2e4": 1483, "F": 285, "\u2581\ub2e8": 1585, "\uba3c\ud2b8": 6185, "\u2581\uc9c0\ucf1c": 4342, "\u2581\ubc1b\ub294": 2224, "\u2581\ud6a8\uacfc\ub97c": 5172, "\u2581\uce21": 4611, "\u2581\u25a6": 718, "\u2581\ud55c\uad6d\uac70\ub798\uc18c": 4959, "\ud338": 7704, "\uad6c\uc5ed": 5499, "\uc5d4": 6909, "\uc9c0\uc5ed": 7337, "\uce98": 7506, "\u2581\uc218\ubc16\uc5d0": 2879, "9": 234, "\u2581\uad00\uacc4\uc790\ub294": 1078, "\u2581\uc783\uc740": 3825, "\ub9b0": 6133, "\ubfd0": 6484, "\u2581\uc2e4\uc2dc\ud55c": 3045, "\uc9e0": 7364, "]": 363, "ro": 439, "\ud604\ub300": 7904, "\uacc4\ud68d": 5438, "\u2581\uc9c4\ud589": 4370, "\u2581\uc751\uc6d0": 3617, "\u2581\uc815\ubcf4": 4103, "\u2581\uadf8\ub54c": 1194, "\u2581\uc624\ub974": 3425, "\uc990": 7313, "\u2581\uad50\uacfc\ubd80": 1104, "\uc7a5\uad00": 7180, "\u2581\uacb0\uad6d": 940, "\u2581\ubd80\ub300": 2430, "\u2581\uc54a\uc9c0\ub9cc": 3165, "\ub9c8\ucf00\ud305": 6146, "\u2581\ub178\uc120": 1486, "ct": 387, "\uca54": 7373, "\uce6b": 7493, "\ud638\ub294": 7926, "\u2581\uc751\ub2f5\uc790": 3615, "\u2581\ubc00\ub824": 2182, "\u2581\ub5a8\uc5b4\uc84c\ub2e4": 1858, "\u2581\ud611\ub825": 5073, "\u2581\uc774\uc57c\uae30": 3714, "\u2581\uc774\ubc88\uc5d0": 3698, "\u258124": 582, "\u2581CJ": 643, "\uc124\uad6d\uc5f4\ucc28": 6567, "\uc2b5\ub2c8\uae4c": 6700, "\ud1b0": 7634, "\ud33d": 7705, "\uc6e8\uc5b4": 7039, "\uacf5\uc0ac": 5459, "\u2581\ud504\ub85c\uc81d\ud2b8": 4902, "\uc544\uc9c1": 6806, "\u524d": 5255, "\uc0ac\uc774\ub4dc": 6509, "\ub780": 6016, "\uc900": 7288, "MBN": 318, "\u2581\uc774\ub7ec\ud55c": 3671, "\u2581\ucd94\uc815\ub41c\ub2e4": 4554, "\u2581\uc778\ucc9c\uacf5\ud56d": 3791, "\u2581\ubc29\ubb38\ud574": 2269, "\uafe8": 5635, "\u2581\ud64d\ubcf4": 5110, "\uc81c\uc57d": 7237, "\uae30\uad00": 5564, "\ubc34\ub4dc": 6317, "\u2581\ubcc0\ub3d9\uc131": 2342, "\ub294\ub370": 5761, "\uc2a4\ud398\uc15c": 6693, "21": 133, "\u2581\uc601\uad11": 3377, "\u2581\ucef8\ub2e4": 4661, "\uac80\uc99d": 5395, "\u2581\ucd9c\uad6d": 4570, "FTA": 289, "\u2581\uc2ec\uc9c0\uc5b4": 3067, "\u2581\uc808\ucc28": 4071, "\u2581\ubc30\ucd9c": 2295, "\ubd04": 6389, "\ubfd4": 6486, "\uceeb": 7516, "\ud0c0\uc6b4": 7584, "\u2581\ud3ec\ucc29": 4861, "\uc0ac\uc5c5": 6503, "\uae30\ub294": 5568, "\u2581\uc2dc\ubc94": 2977, "\uc788\ub294": 7142, "\u2581120": 540, "\u2581\uaf3d\ud788": 1349, "\u2581\ubcd1": 2351, "SP": 348, "\ub4a4": 5916, "\ud15c": 7624, "\u2581\uc131\ud3ed\ub825": 2797, "\u2581\uac1c\ucd5c\ud55c\ub2e4": 855, "\u2581\ucde8\ub4dd": 4600, "\u258130%": 593, "\ub8f0": 6099, "\u2581\ub3d9": 1741, "\u2581\ud0a4": 4693, "\u2581\uc131": 2781, "36": 152, "\u2581\ub179\uc0c9": 1495, "\u2581\ube14\ub799\ubc15\uc2a4": 2511, "\u2581\uc548\uc5d0": 3138, "\uc0ac\uc2e4": 6502, "\ud3c9\uac00": 7725, "\ud568\uc73c\ub85c\uc368": 7840, "\u2581\uc800\ub834": 3992, "\uc9d6": 7358, "\ucf55": 7538, "2": 119, "\u2581\uc0ac\uc5c5": 2609, "\u2581\uc790\ub140": 3891, "\u4e2d": 5247, "\uac04": 5337, "\uc6e0\ub2e4": 7037, "\ub418\uace0": 5887, "\ucc45\uc744": 7409, "\u2581\uac16\ucd98": 828, "\uc77c\uc5d0\ub294": 7133, "\u2581\ud604\uc7a5": 5062, "\u2581\uc5f4\ucc28": 3373, "\u2581\ube60\ub974\uac8c": 2555, "\u2581\uc601\uc5b4": 3381, "\ud0f0": 7606, "\ud1b1": 7635, "\ud558\ub77c\uace0": 7805, "\ud551": 7780, "\u2581\uad50\uc721\ubd80": 1110, "\u2581\uc791\uc5c5": 3936, "\u2581\uc9c4\ucd9c": 4369, "\u2581\uc2e0\uc911": 3029, "\u2581\ub098\uba38\uc9c0": 1379, "\uc660": 6994, "\uc721": 7067, "\u2581\uc2dc\uc98c": 2998, "\ubb8c": 6250, "\ucc48": 7411, "\u2581\uc54a\uc73c\uba74": 3161, "\u2581\ud50c\ub808\uc774": 4908, "\u2581\ucf00": 4662, "\ucc1c": 7387, "\u2581\uc900\uc218": 4250, "\uc5c4": 6872, "\u2581\ub354\uc6b1": 1700, "\u2581\ubcf4\ub0b8": 2364, "\u2581\ube68\ub9ac": 2563, "\u2581\uc0b4\ud574": 2648, "\u2581\ud480": 4888, "\u2581\ubc95\uc6d0": 2326, "\u2581\ud558\ub098": 4928, "\uc2fc": 6755, "\uc5f0\uc218\uc6d0": 6934, "\u2581\ucda9\uccad": 4597, "\u2581\ud53c\ud574\ub97c": 4914, "\u751f": 5298, "\u2581\ub4f1\ub85d\uae08": 1819, "\u2581\uc555\ubc15": 3182, "\u2581\ub9cc\uae30": 1932, "\u2581\uae30\uc5c5\ub4e4": 1293, "\u2581\ub85c\ucf13": 1892, "\u2581\ubc29\ubd81": 2271, "\uc9d1": 7354, "\u2581\ud610\uc758\ub85c": 5071, "\u2581\uccad\ub144": 4485, "\ubb34\ub98e\ud30d\ub3c4\uc0ac": 6229, "\u2581\ud558\uba74\uc11c": 4940, "\ud568\uc744": 7841, "\u2191": 507, "\u2581\uae40\ubbfc": 1320, "\u2581\uc8fc\uc81c": 4239, "\u2581\ub85c\uadf8\uc778": 1889, "\u2581\uc218\uc775\ub960": 2897, "\u2581\uc608\ubc29": 3401, "\u2581\ub9ac\uadf8": 1901, "\uaf2d": 5616, "\uccb4\uc81c": 7439, "\uc870\uce58": 7262, "\u2581\ub3cc\uc544\uc624": 1736, "\u2581\uc5ec\uc131\ub4e4": 3313, "\ubbac": 6253, "\ubc29\uc1a1": 6306, "\uc5c9": 6894, "?": 258, "\u2581\uc2f6\uc5b4": 3073, "\u2581\uc774\ubc88": 3697, "\u2581\uc81c\uacf5\ud558\uace0": 4131, "\ucee8": 7514, "\u2581\uc57c\uac04": 3207, "\u2581\uc74c\ubc18": 3607, "\u2581\ub3c4\ubc1c": 1712, "\ubc29": 6305, "\u2581\uac08": 781, "\u2581\uc644\ud654": 3463, "\u2581\uc790\uc8fc": 3924, "\u2581\uc990\uae38": 4284, "\u2581\ud3c9\uc0dd": 4847, "01": 82, "\u2581\ud604\uae08": 5050, "\u2581\ubb3b": 2134, "\uae08": 5550, "\u2581\ubbf8\ub2c8": 2152, "\u2581\uc77c\ubcf8\uc758": 3810, "\ud588\uc2b5\ub2c8\ub2e4": 7873, "\u2581\uc54c\ub824": 3169, "\uc2a4\ud0c0": 6684, "\u2581\ucd5c\uc18c\ud654": 4532, "\uac74": 5384, "\uc815": 7227, "~3": 466, "al": 371, "\ubed0": 6471, "\u2581\uac10\uc815": 803, "\u2581\uac00\ubc29": 752, "\u2581\uba4b\uc9c4": 2015, "\u2581\uc720\ub85c\uc874": 3583, "\uc0c1\uc744": 6531, "\uc2dc\ud0a4\ub294": 6725, "\u4e00": 5242, "\u2581\ud3c9\ud654": 4851, "\ub140": 5710, "\uc0c1\ud0dc": 6532, "\u2581\ube44\uc728": 2536, "\u2581to": 709, "\ub2e6": 5787, "\uc2e3": 6737, "\uac19\uc740": 5355, "\ucc28": 7389, "\u2581\uc815\uc0c1": 4113, "\u2581\uc870\uc0ac\ub410\ub2e4": 4173, "\u2581\uccad\uc640\ub300": 4489, "GB": 291, "\u2581\uc6a9\uc778": 3497, "\u2581\uc808\ucc28\ub97c": 4072, "\u2581\uc124\uba85": 2773, "\u2581\ud3c9\uac00": 4842, "\u2581\uc791\uc6a9": 3938, "\uae30\uc5c5": 5577, "\ub374": 5854, "\u2581\ub124\ud2f0\uc98c": 1472, "\ub529": 5957, "\u2581\uac1c\uc785": 849, "\u2581\uc778\ud53c\ub2c8\ud2b8": 3799, "\u2581\ud604\uc0c1": 5058, "\uacbd\ucc30": 5431, "\ub4c0": 5918, "\uac2f": 5373, "\u2581\uc2e0\uc2dc\ub0b4\ud2f0": 3022, "\u2581\uc368": 3080, "\u2581\ud0c8": 4711, "\u2581\uc774\ub904\uc9c0": 3679, "\u2581\uc694\uad6c\ud558\ub294": 3482, "\ub300\uac15": 5810, "\ucef4\ud37c\ub2c8": 7519, "\ud648": 7935, "\uc2a4\ud1a0\uc5b4": 6690, "\ucff5": 7555, "\u2581\ubc1b\uc744": 2233, "\ucea1": 7510, "\ub744": 5998, "\u2581\uc2e0\uc81c\ud488": 3028, "57": 185, "\u2581\uc544\ub07c": 3094, "\u2581\uc8fc\uc2dd": 4230, "\u2581\ud1b5\uc2e0": 4749, "\uc170": 6605, "(8": 37, "\u2581\ucc9c": 4471, "\ub358": 5842, "\u2581\ub9c8\uce58": 1923, "&": 13, "\u2581\uac83\ub3c4": 907, "\u2581\ub5a8\uc5b4\uc9c0": 1859, "\u2581\uac8c\uc2dc\ubb3c": 924, "\u2581\ubc8c\uc368": 2311, "\u2581\uc5c6\uc5c8\ub2e4": 3280, "\u2581\ucd94\uc9c4\ud558\uace0": 4556, "\u2581\ud6d4\uce5c": 5186, "\ub807": 6049, "\ub8fd": 6103, "\ud558\ub290\ub0d0": 7793, "\uc2a4\uce94\ub4e4": 6678, "\uc2a4\ud3ec\uce20": 6694, "\u2581\uac74\ub9bd": 883, "\ubcb3": 6351, "BO": 272, "12": 109, "\u2581\ucd1d": 4512, "\u258135": 600, "\u2581\ucde8\uc57d": 4603, "TS": 353, "\ubaa8": 6213, "\u2581\ubc95": 2322, "\u2581\uace0\ubc1c": 1003, "\u2581\uc2a4\ucf00\uc904": 2936, "\u2581\uccad": 4483, "\u2581\uc6b0\uc218": 3508, "\ub098\uac14\ub2e4": 5657, "\uc1e0": 6624, "\u2581\ud765\ud589": 5207, "\uc5f0\ud569": 6938, "\uc720": 7063, "\ud574\uc218\uc695\uc7a5": 7851, "\uc558\ub358": 6829, "\u2581\ud788\ud2b8": 5210, "4000": 162, "\u2581\ubc8c\uc5b4\uc9c0": 2312, "\u2581\uc218\ub9ce\uc740": 2877, "\uc58f": 6852, "\uc634": 6978, "\uc2dc\ucf1c": 6720, "\uaecc": 5607, "\u2581\u20182013": 713, "\u258155": 616, "\ub9e4\ucd9c": 6170, "\uc0d0": 6540, "\u2581\ubcf5\ubb34": 2403, "\u2581\uc5ec\uc57c": 3315, "\ub044\ub7ec": 5641, "\uce20": 7478, "\u2581\uc911\uc778": 4275, "\ub410\uc9c0\ub9cc": 5885, "\ube44": 6441, "\u2581\ud6c4": 5176, "\u2581\uc804\ub7b5": 4025, "\u2581\ubd80\ub974": 2432, "\u2581\ubd80\ud68c\uc7a5": 2461, "\u2581\uc591\uc801\uc644\ud654": 3217, "\u2581\ub300\ud654\ub85d": 1693, "\ud65c\ub3d9\uc744": 7950, "???": 261, "\u2581\uc124\ubb38\uc870\uc0ac": 2776, "\ucf00\uc774": 7525, "\ub314": 5835, "\uc678": 6995, "\ub4e4\uc740": 5937, "\uc815\uce58": 7232, "\u2581\ud33d\ud33d": 4825, "\u2581\ub9d0\ud574": 1965, "\u2581\uc778\ub3c4\ub124\uc2dc\uc544": 3766, "\u2581\ubcf4\ub3c4": 2369, "\u2581\ud588\ub2e4": 5019, "\ucc30": 7397, "\uc9c0\uba74\uc11c": 7331, "\u2581\ub098\ub85c\ud638": 1378, "\u2581\ube5b": 2553, "\uc18c\uc1a1": 6612, "\u2581\ud574\uc0c1": 5006, "\u2581\ubc14": 2186, "\u2581\uc0ac\ub9dd": 2595, "\u2581\uae40": 1316, "\u2581\ubc0f": 2184, "\uadf8\ub8f9": 5542, "\u2581\ubc95\uc778": 2327, "\u2581\uc790\ubcf8": 3902, "\u25c7": 5228, "\u2581\ud648\ud398\uc774\uc9c0": 5107, "\u2581\ud558\uae30": 4927, "\ubaa8\uc528": 6216, "\u2581\uc2dc\uc704": 2985, "\u2581\uc120\uc218": 2753, "\uac04\ub2e4": 5338, "\ud0c0\uc784": 7586, "\u2581\uc784\uc2dc\uad6d\ud68c": 3832, "\u975e": 5326, "\ub2c8\uc544": 5774, "\u2581\ub048\ub2e4": 1358, "\uc633": 6977, "\ud3ec\uc778\ud2b8": 7731, "\u2581\uc218\uce58\ub2e4": 2908, "\ub10c": 5695, "\u2581\ud2b9\ud5c8": 4790, "\u2581\ud310\uc815": 4813, "\ub9e4\ub9e4": 6169, "`": 366, "\u2581\ub300\uc678": 1657, "\u2581\ucc44\ubb34": 4454, "\ud54f": 7779, "\ud558\uace0": 7788, "\u2581\ucc3d\ub2e8": 4439, "\u2581\uc911\ud765": 4278, "\ud604\uc7a5": 7905, "\u2581\uadf8\ub7ac": 1197, "\u2581\ub2e8\ud589": 1596, "\u2581\ud0c0\uc774\ud2c0": 4704, "84": 228, "\u2581\uc81c\uacf5\ud55c\ub2e4": 4133, "\u2581\uce5c\uad6c": 4627, "\ub9c1": 6139, "\u2581\ub178\ub825\uc744": 1482, "\u2581\ub418\uc9c0": 1768, "id": 407, "\u2581\ud314": 4814, "\u2581\uc120\uc0ac": 2751, "\u2581\uc601\ud5a5\uc73c\ub85c": 3392, "\uac10\ub3c5": 5342, "\u2581\uc790\uc0b4": 3906, "\u2581\uac00\ub2a5\ud55c": 743, "\u2581\uadf8\ub0e5": 1189, "\uc624\ub294": 6965, "\u2581\uc5b4\ub9b0": 3233, "\u2581\ub370\uc774\ud130": 1708, "\ucc14": 7386, "\u2581\ub7ec\uc2dc\uc544": 1881, "\u2581\ud569\ub3d9": 4987, "\uc2b9": 6703, "8%)": 221, "\u2581\uac1c\ubc1c": 839, "\u2581\uaca9": 931, "\u2581\uad6c\uc790\ucca0": 1125, "\u2581\ub118\uac8c": 1461, "(1": 20, "\ub05d": 5648, "\ubcf4\uace0": 6366, "\u2581\uae40\ud604": 1337, "\uc5ec": 6916, "\u2581\ub118\uce58\ub294": 1466, "\uc58c": 6851, "\u2581\ud558\ubc18\uae30": 4941, "\ub460": 5911, "\ud568\uc5d0": 7839, "\ud2f0": 7673, "\ud6a8\uacfc": 7966, "\ucf65": 7544, "\uc790\ub294": 7150, "\u2581\uace0\ubc31\ud588\ub2e4": 1005, "com": 386, "o": 427, "\u2581\uc5ec": 3298, "\u2581\ud1b1\uc2a4\ud0c0": 4742, "\u2581\ubc1b\uc558\ub2e4": 2230, "\ub215": 5748, "\u2581\uadf8\ub7fc\uc5d0\ub3c4": 1203, "\u2581\ud6a8": 5169, "\uccad\uc740": 7435, "\ub2e8": 5788, "\uc2e0\ub3c4\uc2dc": 6734, "\u2581\uc57c": 3206, "\u2581\uad50\ud1b5": 1112, "\u2581\uc5b4\uae68": 3221, "\u2581\ud68c\uc758": 5160, "\uc88b": 7271, "\ud1a1": 7631, "\u2581\uc870\uc808": 4183, "\u2581\ubd84": 2468, "\u25813.0": 590, "\u2581\ud5a5\uc0c1": 5033, "\u2581\ubbf8\ub514\uc5b4": 2154, "\uac1a": 5356, "\u2581\uc785\ubc95": 3841, "05": 87, "\uc600\uc73c\uba70": 6949, "\u2581\uba39": 2010, "\ub4f1\ub85d": 5946, "\uc544\uc77c\ub79c\ub4dc": 6805, "\u2581\uc9c0\ucf1c\ubcf4": 4343, "\u2581\uc751\uae09": 3613, "\u2581\uc564": 3203, "\u2581\uc9c0\ubaa9": 4315, "\u2581\uce68\ud574": 4633, "\u2581\ucd1d\ub9ac": 4515, "\u2581\uc6d0\ub0b4\ub300\ubcc0\uc778": 3534, "\ub370\uc77c\ub9ac": 5852, "\u2581": 517, "\u2581\uad74": 1168, "\u2581\uad50\uccb4": 1111, "\u2581\uacfc\uac70": 1058, "\ub291": 5759, "\u2581\ub458\uc9f8": 1782, "\u2581\ub2f9\uad6d": 1619, "\u2581\uc2dc\uac00\ucd1d\uc561": 2960, "\uc5ec\uba85\uc758": 6921, "\ud295": 7655, "\ud574\uc8fc\ub294": 7857, "\u2581\ub4f1\uacfc": 1816, "\u2581\uc74c": 3606, "\uc77c\ubcf8": 7131, "\u2581\ub3d9\ubc18\uc131\uc7a5": 1748, "\uc7a5\uc73c\ub85c": 7185, "\u2581\uac1c\uc7a5": 850, "\u2581\ub192\uc5ec": 1518, "\uc790\ub3d9\ucc28": 7151, "\u2581\uc774\uc5b4\uc9c0\uace0": 3720, "un": 449, "\u2581\ube44\ud310\ud588\ub2e4": 2543, "\u2581\uc7a5\uc724\uc815": 3965, "\u2581\ubd80\ubaa8\ub2d8": 2434, "\u2581\uc218\uc0c1": 2884, "\u2581\uacf3": 1021, "\u2581\ud639\uc740": 5099, "\u2581\uac1c\ub150": 837, "\ubc31": 6314, "\u2581\ud0c0\uc774": 4703, "\uacf5\uc57d": 5460, "\u25812009": 566, "0.3": 68, "\u2581\ubd09\uc0ac\ud65c\ub3d9": 2419, "\ubd80\uc7a5\ud310\uc0ac": 6408, "\u2581\uc11c\uc6b8\ub300": 2727, "\u2581\uae30\ubc18": 1278, "\ub0b1": 5676, "\uc74d": 7093, "\ucf00": 7523, "\uc2a4\ud14c": 6688, "\uc5f0\uad6c": 6929, "\ud68c\ub97c": 7955, "\u2581\ucd5c\uc2e0": 4533, "\u2581\ub17c\uc7c1": 1503, "\u2581\uceec\ub7ec": 4658, "\u2581\uacbd\ub9e4": 964, "J": 306, "\ub7b5": 6034, "\u2581\uc900\ube44": 4249, "\u00b0": 475, "\u2581\uc8fc\uc8fc": 4241, "\u2581\ud654\ub824\ud55c": 5113, "\u2581\ud569": 4984, "\u2581\uc9c0\ub0b8": 4308, "\uc624": 6964, "\u2581\uc0ac\uc5c5\uc744": 2610, "\u2581\ub05d\uae4c\uc9c0": 1364, "\ubcf5\uc9c0": 6380, "\u258117": 546, "\u2581\ubd80\uc815\uc801": 2450, "\uc54a": 6820, "\u2581\uc7ac\ud310": 3986, "\u2193]": 510, "\u2581\uc81c\uc791\uc9c4": 4149, "\u2581\ucc28\uc6d0\uc5d0\uc11c": 4411, "\u2581\ucd9c\uc5f0": 4579, "\u2581\uc678\uad6d": 3471, "\u2581\ud2b9\uc9d5\uc774\ub2e4": 4789, "\ub77c\uc6b4\ub4dc": 6010, "\ub3fc": 5876, "\ube7c": 6464, "\uac1c\ubc1c": 5362, "\u2581\uc131\ucd94\ud589": 2796, "\u2581\uc138": 2801, "\uaed1": 5610, "\uaec4": 5606, "\u2581\ub18d": 1507, "\u2581\ud669\uae08": 5150, "\ucac4": 7377, "\ud2b8\ub799": 7660, "\u2581\uc62c\ud574": 3450, "\u2581\ud68c": 5152, "\ubaa9\ud45c": 6218, "\uc815\ubd80": 7230, "\u2581\ub4e4\uc5ec": 1812, "\u2581\ud55c": 4955, "\uc2a4\ud06c": 6682, "\u2581:": 629, "\u2581\uc785\uc7a5\uc774\ub2e4": 3846, "\uc900\ud638": 7290, "\u2581\ud611\uc0c1": 5076, "The": 355, "\u2581PD": 683, "\u2581\uad6c\ucd95": 1130, "\u2581\ub2f9\ubd80\ud588\ub2e4": 1621, "\u2581\uc138\ub300": 2805, "\u2581\uc9c4\uc2e4": 4365, "\u2581\ud560\uba38\ub2c8": 4979, "\u2581\ucda9\ub0a8": 4590, "\u2581\uad6d\uc815\uc6d0": 1153, ">": 257, "\u2581\ucd9c\uc5f0\ud55c": 4580, "\u2581\uc81c\uc8fc": 4154, "\uc61b": 6963, "\uc9c0\uc6d0\uc13c\ud130": 7339, "\u2581\uc9c0\ub3d9\uc6d0": 4313, "\u2581\uc139\uc2dc": 2819, "\u2581\uc7ac": 3969, "\ud0c8": 7591, "\u2581\ud65c\uc8fc\ub85c": 5148, "\u2581US": 696, "\u2581KIA": 664, "\u2581\uc904\uc5c8\ub2e4": 4255, "\u2581\uac16": 825, "\ub2ec": 5793, "\ub0b8": 5682, "\uac40": 5376, "\ucf54\uc2a4\ub2e5": 7536, "\u2581\ub300\ubcc0\uc778": 1646, "\u2581\uaddc\uba85": 1178, "\u2581\ube68": 2562, "\u2581\uc0c1\ub2f9\ud55c": 2663, "\u2581\uc2a4\ubab0\ucea1": 2933, "\u2581\ud569\uaca9": 4985, "\ubb34\uc5ed": 6230, "\u2581\ud22c\uc790\uc790": 4770, "\u2581\ubc29\ud5a5\uc73c\ub85c": 2286, "\u2581\uc804\ubb38": 4033, "\ud6a8": 7965, "\u258119": 548, "\u2581\uce74\ud398": 4641, "\u2581\uc790\uc2e0\uc774": 3914, "\ub418\uc5b4": 5894, "\uc704\uae30": 7046, "\uc81c\ub97c": 7236, "\u2581\ub17c\ub780": 1499, "\u2581\uc774\uc9d1\ud2b8": 3747, "\ud380\ub4dc": 7708, "\u2581\uac15\ud654": 824, "'": 15, "\u258114": 542, "\u2581\uc54a\uace0": 3149, "\ubbf8\uc220\uad00": 6259, "\u2581\uae30": 1258, "i": 405, "\u2581\uc9c0\uc2dd": 4327, "\u2581\ubc94": 2318, "\u2581\uc624\ubc14\ub9c8": 3428, "\u2581\uc774\uc2dc\uc601": 3713, "\uc5c5": 6873, "\u2581\uac70\uc808": 874, "\u2581\uc5f4\ub9ac\ub294": 3363, "\u2581\uc5c4\ud0dc\uc6c5": 3259, "\u2581\uac00\uc6b4\ub370": 757, "\u2581\ubab0\ub824": 2082, "\ud6d7": 7974, "\uce58": 7483, "\uba74\uc11c\ub3c4": 6200, "\u2581\ub808\uc774": 1887, "\u2581\ubc14\ub00c": 2189, "\uc288\ud37c\uc2a4\ud0c0": 6660, "\uacfc\ud559\uae30\uc220": 5472, "\u2581\uc77c\ubcf8": 3809, "\u2581\uc788\ub294\ub370": 3861, "\u2581\uc561\uc158": 3202, "\u2581\uc774\ub97c": 3686, "\ub78f": 6020, "\uc9c0": 7318, "\u2581\uae30\ub300\ub97c": 1270, "\uca0c": 7370, "\u2581\ub77c\uc778\uc5c5": 1879, "\uc73c\ub2c8": 7076, "\u2581\uacf5\uacf5\uae30\uad00": 1033, "\uc218\uc11d": 6635, "\u2581\uc548\uc815\uc801\uc778": 3141, "\uae01": 5549, "\u2581\uac77": 888, "\u2581\ub73b\uc744": 1873, "\u2581\uc218\uc218\ub8cc": 2887, "\u2581\ub098\ub204": 1373, "\u2581\ucd94\uc138": 4548, "\u2581\uace0\ub824\ud574": 1000, "\u2581\ubc1b\uae30": 2223, "\ud638\uc120": 7927, "\u2581\uc624\ud788\ub824": 3435, "\u2581\uaf43\ubbf8\ub0a8": 1352, "\u2581\ud734": 5191, "\u2581\ub300\ud3ed": 1673, "800": 223, "\ub144\uc9f8": 5721, "\uc774\ub77c\uba70": 7105, "\u2581\ub098\uc774": 1397, "\u2581\uae34\uc7a5\uac10": 1314, "\u2581\ub5a8": 1856, "\u2581\uc120\ubcf4\uc778\ub2e4": 2749, "\u2581\uc774\uc804": 3739, "\ub429": 5905, "\uc288\ud37c": 6659, "\ub799": 6024, "\uc911": 7295, "\u2581\uc694\uc18c": 3487, "\u2581\uac10\ucd94\uc9c0": 804, "\ub354\ub77c\ub3c4": 5840, "\u2581\ubcf4\ub294": 2366, "\u2581\ub9e4\uc218": 1994, "\u2581\ud55c\ud61c\uc9c4": 4975, "\u2581\uace8\ub4e0": 1017, "\ub178\ub3d9": 5726, "\u2581\uc815\uce58": 4122, "\u2581\uad81\uae08": 1169, "\u2581\ub530\ub974\uba74": 1838, "\ucfc4": 7549, "\uae08\uc735": 5554, "\u2581\ucd5c\uace0\uc758": 4524, "\u2581\uacb0": 937, "\u2581\uc67c\ucabd": 3479, "\ub2f5": 5801, "\ud574\uc654\ub2e4": 7854, "\u2581\ub300\ud45c\uc801\uc778": 1678, "\u2581\uc9c0\ubc29\uc790\uce58\ub2e8\uccb4": 4317, "7%)": 204, "\u2581\ubaa9\uc18c\ub9ac": 2073, "\u2581\ub2e4\uc74c\ub2ec": 1579, "\u2581\ud53c\ubd80": 4910, "\u2581\uc5b4\ub824\uc6cc": 3230, "\ub5b4": 5974, "\ud574\uc628": 7853, "3\u20444": 156, "\u2581\uc811": 4086, "\u2581\ube44\uc988\ub2c8\uc2a4": 2541, "\ub084": 5653, "[MASK]": 4, "\u2581\uc911\uad6d": 4259, "\u2581\uacc4\uc808": 988, "\u2581\ub098\uc544\uac00": 1387, "\u2581\uc608\uae08": 3398, "\u2581\uc720\ub3c4": 3579, "\uae30\uc9c0": 5582, "\uad70": 5512, "0:00:00": 92, "\u2581\ubc1c\ud45c": 2251, "\uac10": 5341, "\u2581\uc2e4\ubb34": 3040, "\u2581\uac83\uc778\uc9c0": 918, "\u2581\uc120\uac70": 2735, "\u2581\ubc14\ub85c": 2196, "\u2581\uc5f0\uc18d": 3349, "\uc77d": 7134, "'(": 16, "\uc218\uc0ac": 6634, "\u2581\ub4dc\ub7ec\ub0ac\ub2e4": 1792, "IC": 299, "\uc6b0": 7005, "\u2581\uc11c\ubbfc": 2722, "\u2581\uc624\ub294": 3418, "\u2581I": 655, "\u2581\ucf54": 4665, "\ubc2d": 6311, "\u2581\uc544": 3093, "\ub00c": 5637, "\u2581\uc9c0\ud0a4": 4344, "\u2581\ud3ed\ud589": 4878, "\ub274\uc2a4": 5754, "\u2581\ubb38\uc81c\ub97c": 2129, "\u2581\uc190\uc2e4": 2862, "\u2581\uc544\uc608": 3119, "\uc99d": 7316, "\ub410\uc2b5\ub2c8\ub2e4": 5882, "\ucd28": 7455, "77": 216, "\u2581\ubc29\uc2dd": 2277, "X": 359, "\uad82": 5522, "\u2581\ud2b9\uc9d1": 4787, "\uce58\ub294": 7485, "\uc2b5": 6699, "\u2581\uc2e0\uacbd": 3011, "\uacc4\uc57d": 5437, "\u2581\uc798\ubabb\ub41c": 3944, "\u2581\ub3d9\uae30": 1743, "\uc704\uc5d0": 7051, "\u2581\uc9d3": 4393, "\uad00\uacc4": 5475, "\u2581\uce21\uba74": 4613, "\ud558\ub358": 7802, "\u2581\ub3cc\uc544": 1734, "\uc2dc\ub9ac\uc988": 6709, "\u2581Q": 684, "\u2581\uad6d\uc81c\uc0ac\ud68c": 1156, "\ud55c\ub2e4": 7831, "\u2581\ub0a8\uc740": 1422, "\ubcc4": 6356, "\u25811000": 537, "7.0": 205, "\u2581\uc544\ub2c8\ub2e4": 3100, "\u2581\ub300\ud574\uc11c": 1686, "\u2581\ud6a8\uc728\uc801": 5175, "\ub300\ub97c": 5813, "\uc2ed": 6749, "\u2581\uac10\ub3d9": 791, "\uc11c\uc6b8": 6556, "\u2581\uc787": 3852, "\u2581\ud504\ub85c\uadf8\ub7a8": 4898, "\ubc1b": 6288, "\u2581\uc724\uc528": 3602, "\uc544\ud2b8": 6808, "#": 9, "h": 401, "\u2581\uc6cc\ub099": 3531, "17": 114, "\u2581\uc77d": 3824, "\uc558": 6827, "\u2581\ubc15\uc218": 2202, "\u2581\uc774\uc2b9\uc5fd": 3712, "\u2581\ubd80\ub2f9": 2429, "\uc2b9\uc744": 6704, "\ub11d": 5700, "\u2581\uc778\ud55c": 3801, "54": 182, "\u2581\ub304\uc2a4": 1696, "\ub35c": 5843, "\uc6c3\uc74c": 7016, "\u2581\ucc98\uc74c": 4468, "\ud604\uc7ac": 7906, "\u2581\ub9e4\uc77c": 1996, "\u2581\uc6b0\uc120": 3507, "\u2581\uba85\ud488": 2041, "\ubc1b\uace0": 6289, "\u2581\uc778\uc99d\uc0f7": 3788, "\ub2a5": 5765, "\u2581\uc4f0\ub808\uae30": 3085, "\u2581\uad00\uc2ec": 1089, "\ub194": 5739, "\ub9c1\ud06c": 6140, "\u2581\uadf8\ub3d9\uc548": 1193, "\u2581\uac00\ub85c": 748, "\u9751": 5325, "\ud248": 7653, "\ubc95\uc778": 6338, "\uc918\uc57c": 7304, "\uae4c\uc9c0": 5592, "\u2581\uc2a4\ud06c\ub9b0": 2937, "\uc218\ub294": 6631, "\u258126": 584, "\u2581\uc911\uc694\uc131": 4271, "\ub809": 6055, "\u2581\uc0dd\uac01\ud574": 2709, "\u2581\ub0b4\uc6a9\uc758": 1452, "\ub54c": 5965, "\u2581\ud0c4\ud0c4\ud55c": 4710, "\u2581\uc758\ubbf8": 3628, "\ub5a4": 5971, "7.5%": 206, "\u2581\ud574\ubcd1\ub300": 5005, "\u2581\ubd88\uc548": 2497, "\u2581\uc720\ub2c8\ud3fc": 3578, "\ub4e4\uc758": 5939, "\uc18c\uc5f0": 6613, "\u2581\uc5d4\uc9c4": 3293, "\u2581\ubc14\ub77c": 2193, "\u2581\ud560": 4977, "\ud2b8": 7659, "\u2581\ub098\ub294": 1375, "ha": 402, "\u2581\uc608\uc0c1\ub41c\ub2e4": 3407, "\ub7a0": 6027, "\u300e": 5238, "\ub7a8": 6028, "\ubc1d": 6301, "\u2581\ub3cc": 1732, "\uc9d3": 7356, "\u2581\ub2ec\uc131": 1602, "\u2581\uc11c\ube44\uc2a4\ub97c": 2725, "\u2581\uc9c0\uae08": 4299, "\u2581\uac70\ub798\ub7c9": 869, "\u2581\uc804\ud588\ub2e4": 4061, "\u2581\ud06c\ub85c\uc2a4": 4685, "\u2581\ud37c\ud3ec\uba3c\uc2a4": 4827, "\u2581\uc8fc\ub825": 4221, "\u258160%": 619, "\u2581\ubbf8\ub798\ucc3d\uc870\uacfc\ud559\ubd80": 2157, "\u2581\ubca4\ucc98": 2337, "\ube59": 6456, "\u2581\uc774\uc0ac\ud68c": 3703, "\u2581\uc774\ubcd1\ud5cc": 3701, "\u2581\ub1cc": 1524, "\u2581\ub290\ub07c": 1546, "\u2581\ub3d9\uc758": 1758, "\ucb48": 7379, "mm": 424, "\u2581\ud569\ubcd1": 4990, "\uc870\uc120\ud574\uc591": 7257, "\ucd95\uad6c": 7464, "\u25810": 526, "\u2581\ud5c8\ub9ac": 5039, "\u2581\ub2e8\ub9d0\uae30": 1589, "\ud6d9": 7975, "\u2581\ub098\ud0c0\ub0ac\ub2e4": 1401, "\ud504\ub85c\uace8\ud504": 7756, "\uc790\uc778": 7168, "\ud648\uc1fc\ud551": 7937, "\u2581\uc548\uc815": 3140, "\u2581\ud0a4\uc6b0": 4695, "\u2581\uc678\uc5d0\ub3c4": 3476, "\u2581\uc5ec\uc2e0": 3314, "\u2581\uc120\ub450": 2739, "\u2581\uc120\ubc15": 2741, "\u2581\ud559\ubd80\ubaa8": 4951, "\uc220": 6645, "\u2581\uc120\ubc1c\ud22c\uc218": 2743, "\u2581\uc120\ubcf4\uc600\ub2e4": 2746, "\u2581\uc804\ub144\ub300\ube44": 4020, "\u2581\ub123": 1467, "\uc911\uacf5\uc5c5": 7297, "\u2581\uacf5\uc2dc\ud588\ub2e4": 1045, "\u2581\uc9c8\ubb38\uc5d0": 4381, "\u2581\ud604\uc548": 5060, "\u2581\uae40\ubaa8": 1319, "\u2581\ub9ce\uc558\ub2e4": 1954, "\u2581\uc790\uc6d0\ubd09\uc0ac": 3919, "\u2581\ub9ce\uace0": 1950, "\uac31": 5374, "\uc5c6": 6881, "\u25813000": 595, "\u2581\uacf5\uac1c": 1026, "\u2581\uc870\uc728": 4181, "\u2581\ud559\uad50": 4949, "\u8fd1": 5318, "\u2581\ub4dc\ub7ec\ub0b4": 1793, "\ud604": 7903, "\ub824\ub294": 6062, "\u2581\uac70\uc9d3\ub9d0": 876, "\u2581\ubc18\ubcf5": 2215, "\u2581\uc0ac\uba74": 2597, "\u2581\uadf8\uac00": 1186, "\u2581\ubb38\uc790": 2123, "\u2581\uc5f0\ub839": 3344, "\u2581\ud560\ub9ac\uc6b0\ub4dc": 4978, "\uae6c": 5603, "\u2581\ub9ce\uc544": 1952, "\uc800\ucd95": 7200, "\u2581\ub4f1\uc774": 1826, "\u2581\uc758\ub3c4": 3622, "p": 432, "\ub0c8\ub2e4": 5687, "\ucd5c\uadfc": 7460, "\u2581\uba40\ud2f0": 2013, "\u2581\ub2f9\ubd84\uac04": 1622, "\u2581\uc120\uace0\ubc1b": 2737, "\u2581\uac15\uc138": 814, "\u2581\ub2f4\uc544": 1613, "\u2581\uac24\ub7ed\uc2dc": 861, "\uc5f0\uc608": 6936, "0%)": 62, "\ud329": 7700, "\uc8fc\uae30": 7278, "\u2581\ud06c\uac8c": 4682, "\uc7a5\uc744": 7187, "\uc99d\uad8c": 7317, "5%": 173, "\uc77c\ubc18": 7129, "\ud3ec\uc2a4\ud2b8": 7730, "\ud578": 7860, "\u2581\ub2ec\uc544": 1603, "\u2581\ud0d1\uc7ac": 4716, "\u2581\ub290\uaf08": 1545, "\u2581\ubb34\uc0b0": 2108, "\u2581\uc810\ub3c4": 4076, "\ud61c\uc9c4": 7923, "\u2581\uc7ac\ubc1c": 3979, "\u2581\ud638\uc751": 5092, "\uc62c\ub9bc\ud53d": 6974, "\u2581'2013": 521, "\u2581\ud2b9\ud788": 4792, "\uc740\ud589": 7087, "\u2581\uac74\uc124": 885, "2%": 120, "\uc77c\ubd80\ud130": 7132, "\u2581\uae30\ubd80": 1281, "\ud31c": 7691, "\u2581\uc0ac\ud0dc": 2630, "\uc0ac\uc9c4\uc81c\uacf5": 6512, "\u2581\uc0bc\uc131\uc804\uc790\ub294": 2654, "\u2581\uae08": 1235, "\u2581\uc2dd\ud488": 3009, "\uc2e0": 6733, "[CLS]": 2, "\uc0dd\uc0b0": 6544, "\u2581\uac1c\uc815": 851, "\uc774\ub77c\ub3c4": 7104, "\u2581\uace0": 993, "\u25a1": 5218, "\uacfc\uc815": 5469, "\ud654\ud559": 7943, "SS": 349, "\u2581\ubc1c\uc0ac": 2242, "\u2581\ubb34\ub824": 2102, "\u2581\uc678\ubd80": 3474, "\u2581\uc704": 3552, "\ubd80\ub974\ud06c": 6403, "\uc774\ub2dd": 7099, "\u2581\ucea0\ud504": 4649, "\uc2dc\ud0a4\uae30": 6724, "\ud587": 7863, "\u2581\ube44\uc790\uae08": 2537, "\u2581\ucd94\uc2e0\uc218\ub294": 4550, "\u2581\uc5c6\ub2e4": 3273, "\u2581\uad6d\uc815\uc870\uc0ac": 1154, "\u2581\uc790\ud0dd": 3928, "\uc9c4": 7344, "81": 225, "\u2581\ucd5c": 4519, "\u2581\ud0d1\uc2b9": 4715, "\u2581\ubd80\ubaa8": 2433, "\u2581\ud1f4\uc9c1": 4761, "\u2581\ub2ee\uc740": 1606, "\u2581\uaebe\uace0": 1345, "\u2581\ub2f9\uc0ac\uc790": 1623, "\u2581\uac00\uce58": 771, "\u2581\uc18c\uc2dd\uc744": 2841, "\u2581\ub760\uace0": 1874, "\u2581\uc218\uc694": 2892, "\u2581\uc774\uc6a9\ud55c": 3728, "\u2581\uc778\uc218": 3777, "\u2581\uc911\uc694\ud55c": 4273, "\ub300\ud559": 5824, "\u2581\ubc00": 2181, "\uc83c": 7247, "\u2581\ucc28\ubcc4": 4408, "\u2581\ub9e8": 2004, "\u2581\ub17c\ub780\uc774": 1500, "\u2581\ubd80\uc871\ud55c": 2452, "\uad6d\uc81c": 5510, "\uc218\uc775": 6639, "\u2581\ub300\uc6b0": 1658, "\uccd0": 7443, "\u2581\uace0\uad50": 997, ".": 54, "\u2581\uc804\uc138": 4041, "\uc774\ub77c\uace0": 7102, "\u2581\uc8fc": 4213, "\u2581\uae54": 1340, "\uc12c": 6569, "\u2581\ub0b4\uc6a9": 1449, "\u2581\uc11c\uc6b8\uc911\uc559\uc9c0\ubc95": 2730, "\uc2ec\uc0ac": 6747, "\u2581\ub204\uc801": 1533, "\u2581J": 657, "\u2581\ubd99\uc7a1": 2504, "\uc4f0": 6779, "\uc6d4\uae4c\uc9c0": 7029, "\u2581\uae4a\uc740": 1338, "\ud68c\uc0ac": 7957, "\u2581\uc808\ubc18": 4070, "\u2581\uccb4\ud3ec": 4498, "\u2581\uad00\uce21": 1093, "\u2581\uc804\ud1b5": 4056, "\u2581\uc704\ud574\uc11c\ub294": 3569, "\u2581\ubd84\uc591": 2481, "\u2581\uae40\ub3d9": 1318, "\ub824": 6060, "\uc5d0\uc11c\ub3c4": 6905, "y": 458, "\u2581\ud0c0\uace0": 4700, "\uc36c": 6763, "\ud558\ub824\uace0": 7807, "\u2581\uad6d\ubc29\ubd80": 1150, "\u2581\ub118\ub294": 1464, "\u2581\uc54c\uc544": 3175, "\u2581\uc758\uacac\uc744": 3619, "\ubbfc\uc8fc": 6264, "\uc5f4": 6940, "\u2581\ud615": 5081, "\u2581\ud638\ud761": 5098, "\uba78": 6202, "\u2581\ub77c\uc774\ubc8c": 1877, "\u2581\uac1c\uc120": 843, "\u2581\ub8e8\uba38": 1896, "\u6aa2": 5289, "\uc548\ubcf4": 6814, "\uad6c": 5495, "\u2581\uc5ec\uac1d\uae30": 3299, "\u2581\uc131\uc801": 2795, "\u2581\ub9cc\ub4e4\uc5b4": 1943, "\u2581\uc7ac\ubc1c\ubc29\uc9c0": 3980, "10": 105, "\u2581\uac00\uae4c\uc774": 735, "\u2581\uc9c0\uad6c": 4298, "11": 108, "\ubc29\uc704": 6309, "\u2581\ub9c8\uc6b4\ub4dc": 1915, "\u2581\uc80a\uc740": 4073, "\ubc15": 6280, "\uc73c\ub85c": 7078, "\u2581\uc0ac\uc774\ud2b8": 2622, "\u2581\ud30c\uc545": 4802, "\u2581\ubcf4\uc5ec\uc8fc": 2377, "\u2581\uc2a4\ud3ec\uce20\uc870\uc120\ub2f7\ucef4": 2946, "\uc0c1\uacf5\ud68c\uc758\uc18c": 6528, "\ub2f4\ub2f9": 5799, "\u2581\uc0dd\ud65c": 2717, "\uc2e4\uc810": 6743, "\ub0a9": 5669, "\uc8fc\ubbfc": 7281, "\u2581\uba74\uc81c": 2033, "\u2581\ud30c\uad34": 4801, "\u2581\uac1c\ubd09": 842, "\uc231": 6650, "\u2581\ubaa8\uc558\ub2e4": 2062, "\u2581\uc778\ud504\ub77c": 3798, "I": 296, "\uc9c4\ud765": 7348, "\ucd95\uc81c": 7466, "\u2581\uba85\uce6d": 2040, "\u2581\ucd9c\uc7a5": 4584, "\u2581\ucabd\uc73c\ub85c": 4399, "\uae00\ub85c\ubc8c": 5548, "\uc0bd": 6524, "\ub808\ubbf8\uc81c\ub77c\ube14": 6052, "\u2581\uacbd\uae30\uce68\uccb4": 961, "\u2581\uc804\ubd81": 4040, "\u2581\uc124\ube44": 2777, "\u2581\uc6b0\ub824": 3499, "\u2581\uc8fc\uc694\ub274\uc2a4": 4234, "63": 195, "\uc138\ub825": 6584, "\u2581\uc7a5": 3954, "\u2581\ucea1\ucc98": 4651, "\u2581\ud765\uad6d\uc0dd\uba85": 5205, "\u2581\ud68c\uc758\ub85d": 5161, "\uc5ec\uc131": 6923, "\u2581\uc624\ud6c4": 3434, "\uc9c0\uc218\ub294": 7336, "\u2581\ubd88\uacfc": 2489, "\u2581\uae30\uc544\ucc28": 1290, "\ud07c": 7572, "\u2581300": 594, "co": 385, "\u2581\uc554": 3177, "\u2581\uae30\uac04": 1259, "\u2581\ud3ed": 4871, "\ud68d": 7962, "\ub2aa": 5768, "\uce74\ub4dc": 7496, "\uae30\uad6c": 5565, "0.5%": 72, "\u2581\uc6c3\uc74c\uc744": 3529, "\u2581\uacf5\uac1c\ud588\ub2e4": 1029, "\u2581\uae30\uc900": 1301, "\u2581\uc81c\ub300\ub85c": 4136, "?\"": 259, "\uc9d0": 7353, "\u2581\uc544\uc2dc\uc544\ub098\ud56d\uacf5": 3118, "\u2581\ud1a0": 4737, "\u2581\ud655\ub300": 5125, "\u2581\ucf54\ubbf8\ub514": 4669, "\u2581\ub300\uaddc\ubaa8": 1637, "\u2581\ube60": 2554, "\ub07c": 5649, "SNS": 347, "\u2581\uadf8\ub9ac\uace0": 1210, "\u2581\ucc0d\uc740": 4401, "\u2581\uc774\ub974\uba74": 3683, "\uc2dc\uc98c": 6718, "\ucd94": 7461, "\ub4e4\uc744": 5938, "\u2581\uc9c4": 4360, "\u2581\uc219": 2911, "\uc774\uc5c8\ub2e4": 7112, "\u2581\ud68c\uc6d0": 5158, "\ud574\uc57c": 7852, "\ub835": 6070, "\u2581\ubd80\uac01": 2424, "\u2581\uc644\uc131": 3460, "\u2581\uc0dd\uae30": 2710, "\ub80c": 6056, "\ub824\uace0": 6061, "\u2581\uc37c\ub2e4": 3082, "\ub2ff": 5807, "\u2581\ud5cc\uc7ac": 5045, "\u2581\ub178\ub3d9\uc790": 1478, "\uc9c0\ub97c": 7329, "\u2581\uc218\ud61c": 2910, "\uba74\uc11c": 6199, "\u2581\uc0c8\ub85c\uc6b4": 2699, "\u2581\uc55e\uc73c\ub85c": 3192, "\ub454": 5909, "\uc7c1": 7198, "\u2581\uc9c0\ubc30": 4318, "\ube75": 6463, "\u00b7": 478, "\u2581\ub9d0\uc744": 1962, "\u2581\ud734\uc2dd": 5195, "\ucc3c": 7401, "\u2581\uac78\uadf8\ub8f9": 890, "\u2581\uce5c": 4626, "\uc7a1": 7176, "\u2581\uc2b9\ub9ac\ub97c": 2952, "\ubcf5": 6379, "\u2581\uc5c5\uccb4": 3268, "\uc274": 6655, "\uc218\uc220": 6637, "\u258160": 618, "\uae68": 5602, "\u2581\ubbf8\uad6d": 2150, "\uaf42": 5621, "\u2581\uc9c0\ubd84": 4319, "\u2581?": 633, "\u2581\uc694\uc778": 3488, "\u2581\uc815\uc2e0": 4117, "\u2581\ucd94\ub77d": 4546, "\u2581\ucc28\ub7c9": 4406, "\u2581\uc904": 4252, "\ud544\ub4dc": 7775, "\u2581\ud589\uc9c4": 5031, "\u2581\uc77c\ub300": 3806, "\u2581\ube0c\ub77c\uc6b4": 2506, "\u2581\uc2dc\uccad\ub960": 2999, "\u2581\ub204\ucd9c": 1534, "\u2581\ud310\ub9e4": 4809, "\u2581\uc57d": 3211, "\u2581\ud2b9\uc815": 4786, "\u2581\uc704\uc6d0\uc7a5\uc740": 3559, "\uce58\ub8cc": 7486, "\u2581\ud5c8\uc6a9": 5040, "\u2581\uc2e4\ud589": 3056, "\uc5d0\uc11c\ub294": 6904, "\u2581\ubb34\uae30": 2097, "\u2581\uc0ac\uc6a9\uc790": 2614, "\u2581\uc2e0\ud765\uad6d": 3035, "\u2581\uc9c0\uae08\uae4c\uc9c0": 4300, "\uc6b0\uc2a4": 7008, "\ud5db": 7893, "\u2581\uc5c6\ub3c4\ub85d": 3276, "\u2581\ubcf4\ub2e4": 2368, "\u2581\uc2ec\ub9ac": 3064, "\uc5c8": 6885, "\u2581\uc801\ub9bd": 4000, "\u2581\ud76c\uc0dd": 5209, "\ub2e4\uc6b4": 5785, "\u2581\uc99d\uac70": 4290, "\u2581\ub178\uc778": 1487, "15": 112, "http": 404, "\u2581\ub610\ub2e4\uc2dc": 1863, "\u2581\uaf3d\uc558\ub2e4": 1348, "\u2581\uc9c1\uad6c": 4350, "\uc728\uc740": 7070, "\ub208": 5745, "\uc783": 7135, "\u2581\uc54c\ub824\uc84c\ub2e4": 3171, "\uc600\uc9c0\ub9cc": 6950, "\ud558\ub824\uba74": 7809, "\u2581\ub3c5\ud2b9\ud55c": 1729, "\u2581\uae0d\uc815\uc801\uc778": 1257, "\u2581\uc721": 3597, "\u2581\ud604\uc2e4": 5059, "\u2581\uac70\ub480\ub2e4": 865, "\uc7a6": 7190, "\u2581\ube60\uc9c4": 2561, "\u2581\uc124\ub9bd": 2772, "8": 219, "\ub4e0": 5928, "CD": 276, "\u2581\uc120\uc815": 2761, "\u2581\ud504\ub791\uc2a4": 4896, "\uc705": 7057, "\u25bc": 5224, "\ubb36": 6233, "\u2581\uac74": 881, "\uce75": 7498, "\u2581\ucd5c\ucd08": 4539, "\ub354\ub2c8": 5838, "\u2581\uc0dd\uac01\uc774": 2707, "000.0": 80, "\u2581\ub300\ucc45": 1663, "\ub801": 6048, "\u2581\uadfc\ubb34": 1225, "\u2581\ub3c4\uc57d": 1715, "\uacf5": 5452, "\uae54": 5596, "\uc5c5\uacc4": 6874, "\u2581\uc88b\uc740": 4209, "\ubd80\ud488": 6411, "\uc6e8\uc774": 7040, "\ud3bc": 7721, "\u2581\uc624": 3417, "\u2581\ub098\uc640": 1394, "\u2581\uce21\uc740": 4615, "\u2581\ud45c\uc900": 4884, "\u2581\ucca0": 4473, "6000": 192, "\u2581\uac80\uc0c9": 898, "\u2581\uba54\uc2dc\uc9c0": 2018, "\uae30\uc900": 5581, "\u2581\uc2dc\uc808": 2996, "\u2581\uc2e0\ud654": 3034, "\ub51b": 5953, "Y": 360, "\u2581\ubc94\uc704": 2319, "\uc798": 7174, "\u2581\uc774\uc5b4\uac14\ub2e4": 3718, "\u2581\uc544\ub2c8\uc9c0\ub9cc": 3104, "\u2581\uc804\ub9dd\ud588\ub2e4": 4031, "\u2581\uc774\ud63c": 3754, "\u2581\uc0c1\ud0dc": 2680, "\u2581\uac10\ub3c5": 786, "\u2581\uc778\uc815": 3785, "\u2581\uc8fc\ud0dd": 4243, "\ud321": 7695, "\ud37c": 7706, "\u2581\ub9dd\uba85": 1969, "\u2581\ubaa9\uc0ac": 2072, "\ub531": 5960, "\u2581\uc0ac\ubb34\uc2e4": 2600, "\u2581\uc704\ubc18": 3555, "\u2581\ud654\ud559": 5123, "\uc5b9": 6868, "\u2581\uc704\ud55c": 3566, "\u2581\ucde8\uc9c0": 4609, "\u2581\ubb38\uc81c\ub85c": 2128, "\u2581\ub098\uc628\ub2e4": 1392, "\ub9cc": 6150, "\uc881": 7267, "67": 199, "\u2581\uc0ac\uc6a9\ud558\ub294": 2615, "\u2581\ucee4\ubba4\ub2c8\ud2f0": 4653, "\u2581\uc811\uc18d": 4088, "\u2581\uac78\ub9b0": 891, "\uc600": 6944, "\ud658": 7946, "8000": 224, "\u2581\ub3fc": 1761, "\u2581\uba58\ud1a0": 2025, "\u2581<": 630, "\u2581\uacf5\uae09": 1034, "\u2581\uc9d1\ud68c": 4392, "ac": 369, "\u2581\ud30c": 4799, "\u2581\ub098\uc05c": 1380, "\u2581\ucf54\ub9ac\uc544": 4668, "\u2581\ud5cc": 5042, "\u2581\uc18c\uc18d": 2837, "\u2581\uc815\ucc45": 4119, "\u2581\ubb34\uc5ed": 2114, "\ub77d": 6015, "\u2581\ub300\uc0c1": 1651, "\ub31c": 5836, "\uae65": 5601, "\uc9c4\uc9dc": 7347, "\ub0c4": 5684, "\u2581\uc870\uce58\ub97c": 4189, "\u2581\ub2e8\uccb4": 1594, "\u2581\ubc18\ub300": 2208, "\u2581\ub77c": 1875, "\u2581\ub300\uc0c1\uc73c\ub85c": 1652, "\u2581\ubcf5\uc7a1": 2405, "\ub8e1": 6094, "\u2581\uc0c1\uc784\uc704": 2676, "\uc37d": 6768, "\u258134": 599, "\ud611\uc758\uccb4": 7915, "\u2581\ub0c9": 1456, "\uc7ad": 7197, "\u2581\ub300\uc120": 1654, "\uaed8": 5611, "\u2581\uc5ed\ub300": 3323, "\u2581\ubb34\uc8c4": 2118, "\u2581\ub3d9\uc2dc\uc5d0": 1751, "\uc14d": 6600, "\u2581\ube7c": 2564, "\u2581\uc0ac\ub78c\uc758": 2588, "\ud5d8": 7892, "\u2581\ud68c\uc7a5\uc758": 5165, "1000": 107, "\u2581\ud574\ub2f9": 5000, "\ub04a": 5643, "\u2581\uc0ac\uac74": 2574, "\u2581\uc774\uc911": 3746, "\u2581\uc81c\uc678": 4144, "\ubc97": 6339, "\u2581tvN": 710, "\ub014": 5639, "\u2581\uc6d0\ud65c": 3546, "\u2581\ubb34\uc870\uac74": 2117, "\u2581\uba85\uc774": 2039, "\ud720": 7980, "\u2581\uad8c\ud55c": 1173, "\u2581\ub514\uc9c0\ud138": 1832, "\u2581\uacfc\uc9d5\uae08": 1069, "\ud601\uc2e0": 7902, "\u2581\uc544\uc774\ub3cc": 3122, "\u65e5": 5283, "\u2581\uae40\uae30": 1317, "\u2581\ud55c\uad6d": 4958, "\u2581\ub54c\ub294": 1846, "\u2581\uc99d\uc778": 4296, "\u2581\uc0ac\ub791": 2590, "\u2581\ud5a5\ud55c": 5034, "\u258120%": 555, "\u2581\ubaa8": 2044, "\u2581\ub418\ub294": 1765, "\u2581\uc544\ub984\ub2e4\uc6b4": 3110, "\u2581\uc18c\uac1c\ud588\ub2e4": 2825, "SI": 345, "\u25812011": 568, "\uc2a4\ub7ec\uc6b4": 6667, "\u2581\uac19\ub2e4": 831, "\uae45": 5589, "\ub9cf": 6159, "\u2581\uac10\uac01": 785, "\u2581\ub2e4\uc6b4\ub85c\ub4dc": 1576, "\u2581\uacf5\uc0ac": 1043, "\ud2b9": 7663, "\u2581\uc5d4\ud654": 3294, "\u2581\ubaa8\ub4e0": 2048, "\u2581\uc0c1\ud669\uc774": 2693, "\uacfd": 5473, "\uae08\uc735\uadf8\ub8f9": 5555, "\uae41": 5587, "\ub0b5": 5681, "\ubcf8\ubd80\uc7a5": 6385, "\uc2dd\uc744": 6731, "\uc5b8\ub354\ud30c": 6866, "\ubd88": 6424, "\u2581\ud06c\ub9ac\uc2a4": 4687, "\u2581\uc2dc\uc810": 2997, "\u2581\ubc1c\uc0dd\ud55c": 2244, "\u2581\uc0c8\ub85c": 2698, "\u2581\ud611\uc870": 5080, "\uc544\ube60": 6799, "\u2581\ucca0\uac70": 4475, "\ub0ad": 5673, "\ud589": 7881, "LS": 315, "\ud3b8": 7720, "\u2581\ub77c\uc774\ube0c": 1878, "\u2581\uc5ec\uc790\uce5c\uad6c": 3319, "\ubb38\ud654\uc608\uc220": 6239, "\uc9dc": 7361, "\uac00\uad6c": 5332, "\ub123": 5701, "\u2581\ub192\uc740": 1520, "\ube7d": 6465, "\"": 8, "\u2581\uce74": 4635, "\uc81c\uc8fc": 7238, "\ud0c8\uc0bc\uc9c4": 7592, "06": 88, "\u2581\ub9de\ucd94": 1976, "\u2581\ub418\uace0": 1764, "\u2581\ucd9c\uc5f0\ud574": 4581, "\u2581\uba54\ub274": 2017, "\u2581\uc0c1\ud0dc\ub2e4": 2681, "\uc704": 7044, "\u2581\ub300\ud45c": 1674, "\u2581\uc2a4\ud1a0\ub9ac": 2941, "\ube60": 6459, "\u2581\ucc9c\uc548": 4472, "\ub8fb": 6102, "\u2581\uacf5\uac1c\ub410\ub2e4": 1027, "\u2581\uac10": 784, "\ube44\uce58": 6448, "\u2581\uc0ac\uacfc": 2579, "\u2581\uac10\uc5fc": 802, "\u2581\ubcf4\ud5d8": 2397, "\u2581\uac70\uccd0": 877, "\u2581\uc5c4\uaca9": 3256, "\u2581\uc5f4\ub78c": 3360, "\u2581\ud64d\uba85\ubcf4": 5109, "\u2581\ud560\ubd80": 4980, "\u2581\uc740\ud1f4": 3604, "\u2581\uccb4\uacb0\ud588\ub2e4": 4493, "\u110f": 492, "\uc0f5": 6549, "\ub0e5": 5690, "\u2581\ub3c4\uc804": 1721, "ter": 443, "\u2581\ubc1c\ud718": 2256, "\u2581-": 524, "\u2581\ud6c4\ubcf4\uc790": 5181, "\u2581\uacbd\uc7c1\ub825": 971, "\u2581\ube60\uc9c0": 2560, "\u2581\uc77c\ud658\uc73c\ub85c": 3823, "(2": 27, "\ube54": 6453, "\uc2dc\uac04": 6706, "\u2581\ucee4\uc9c0\uace0": 4654, "\ub2ec\ub7ec": 5795, "\u2581\ub04c\uc5b4": 1361, "\u2581\uc778\ubb3c": 3768, "\u2581\uc804\ub9dd\uc774\ub2e4": 4029, "\u2581\uae30\ub85d\ud558\uace0": 1274, "\uacf1": 5450, "\ud45c\ub97c": 7742, "\u2581\uc778\uc815\ubc1b": 3786, "\uc549": 6819, "\u2581\ubc95\uce59": 2330, "\uc2ec\ub9ac": 6746, "\u2581\uc787\ub530\ub77c": 3853, "\u2581\uc5c5\uccb4\ub4e4": 3269, "\u2581\uccbc\uc2dc": 4500, "200": 128, "\uae30\uc544\ucc28": 5576, "\u2581\uba54\uc774\ud06c\uc5c5": 2022, "\u2192": 508, "\u2581\uc190": 2860, "\u2581\uc804\ubc18\uae30": 4038, "\ud3ec": 7728, "\u2581\ubd84\ub2f9": 2470, "\u2581\ub04c\uace0": 1360, "\u2581\uc785\ub825": 3840, "\u2581\ud55c\ubc18\ub3c4": 4970, "\ub9ac\ub97c": 6125, "\u2581\ucc3d": 4438, "6": 188, "\u2581\ud0a4\uc2a4": 4694, "\ubca4": 6347, "\u2581\uc77c\ubc18": 3807, "\u2581\uc8fc\ubcc0": 4229, "94": 243, "\uc90c": 7293, "0": 60, "\u2581\ub178\ub798": 1479, "\ub808\uc2a4": 6053, ":00": 251, "\uc218\uc218\ub8cc": 6636, "\ube80": 6466, "\u3008": 5234, "\u2581\uc74c\uc6d0": 3611, "\uc870\uc815": 7259, "\ud611\uc815": 7917, "\ub77c\ub514\uc624\uc2a4\ud0c0": 6007, "\uccad": 7431, "\ub138": 5709, "\u2581\ub2e8\ucd95": 1595, "\ud328\uc158": 7699, "\uc911\uc2ec": 7300, "\u2581\uac15\ud55c": 821, "\u2581\uc228\uc84c\ub2e4": 2920, "\ub7ed": 6039, "\ub4e4\uc5b4": 5934, "\ud604\uc9c0\uc2dc\uac04": 7908, "\u2581\uc131\uacf5": 2783, "\ub2ac": 5769, "\u2581\uc0ac\uc2e4\uc774": 2607, "\ub760": 6001, "\uc2dd\ud488": 6732, "\ube4c\ub529": 6452, "\ucc2e": 7396, "\ub4dc\ub9bd\ub2c8\ub2e4": 5925, "\ud655": 7944, "\u2581\uc124": 2769, "31": 147, "v": 453, "\u2581\uacb0\ubcc4": 942, "\u2581\ub3d9\ubd80": 1749, "\u4e0b": 5245, "\ucc3d": 7402, "\ud188": 7627, "\u2581\uac15\ud558\uac8c": 820, "\u2581\uc549\uc544": 3145, "\uccb8": 7441, "33": 149, "\ub410\uc73c\ub098": 5883, "\ubc30\uc6b0": 6313, "\u25811990": 549, "\ub2f4\ubcf4\ub300\ucd9c": 5800, "\u2581\ub9fa": 2006, "\u2581\uc720\uc77c": 3588, "\u2581\ud655\uc815": 5134, "\ub0a8\uc790": 5668, "\ubcf4\uc99d": 6376, "\uc2dc\ubbfc": 6710, "\uc6ec": 7041, "08": 90, "\u2581\u25b3": 720, "\u2581\uc120\ubcf4\uc774\uba70": 2747, "\u2581\ub2e8\uc18d": 1590, "\u2581\uc0bc\uc131\uc804\uc790": 2653, "\ubb44": 6244, "\u2581\uc5c4": 3255, "\u2581CEO": 640, "u": 446, "EU": 284, "\uad50\uc12d": 5490, "\u2581\uc544\uc774\ub4e4": 3123, "\u2581\uc774\ub4e4\uc758": 3667, "\ub77c\uace0": 6004, "\u25813.3": 591, "\ud4e8": 7751, "\ub144\uc5d0": 5719, "\u2581\uc720": 3574, "\u2581\uc870\uc9c1": 4186, "\uace8\ud504": 5448, "\uc639": 6982, "\uc9c0\uac80": 7320, "\uc74c\uc744": 7092, "DB": 279, "\uc9c4\ub2e4": 7345, "\u2581\uadfc\ub85c": 1223, "\uce90": 7503, "\u2581\uc99d\uac00": 4286, "\u2581\uc57c\uad6c": 3208, "\u2581\uc5f0\uac04": 3333, "\uc911\uad6d": 7298, "\uc2a4\ud130": 6686, "\ud55c\ud14c": 7835, "\u2044": 506, "\u2581\ub300\ud574\uc11c\ub294": 1687, "\u2581\ub3d9\uc544\uc2dc\uc548\ucef5": 1752, "\u2581\ubc1c\uc0dd\ud588\ub2e4": 2246, "\u2581\ucc38\uc5ec": 4435, "e": 389, "\u2581\uc218\uae09": 2873, "\ub9f4": 6174, "\uc18c\ube44\uc790": 6611, "\u2581\uc120\uc815\ub41c": 2763, "\u2581\uc548\ud0c0": 3142, "\ud718": 7979, "\uad50\ud1b5": 5493, "\ub2f7": 5802, "\u2581\ud1a0\ub860\ud68c": 4739, "\u2581\uc5d8": 3295, "\uc804\uc7c1": 7215, "\u2581\uae30\ubc18\uc73c\ub85c": 1279, "\u2581\uc544\ub098\uc6b4\uc11c": 3095, "\ud588\uc73c\ub098": 7876, "\u2581\uadfc\ub85c\uc790": 1224, "\u8207": 5310, "\u2581\ubcf8\ub2e4": 2413, "\u2581\uc560\ud50c": 3200, "40": 160, "\ub9ac\ub294": 6124, "\u2581\ub300\uc2e0": 1655, "\u2581\uc0dd\ubc29\uc1a1": 2713, "\uae38": 5585, "\u2581\ubcc0\ud654": 2346, "\u2581\ucca0\uac15": 4474, "\ub825": 6064, "00": 79, "\u2581\uc815\ubd80\ub294": 4108, "\uc539": 6794, "\uc790\ub85c": 7156, "\u2581\uac83\uc778\uac00": 917, "\u2581\uc138\uc0c1\uc744": 2812, "\u3010": 5240, "1\u20444": 118, "\uc5c8\uc2b5\ub2c8\ub2e4": 6890, "\uacf5\uac04": 5453, "\uc720\ud1b5": 7065, "\u2581\uacaa": 934, "\uaf41": 5620, "\u2581\ub9de\ucdb0": 1979, "\ucda4": 7469, "\u2581\ubaa9\uc801": 2076, "kW": 416, "\u2581\ubb34\ub300\uc5d0": 2100, "\u2581\ud0a4\uc6cc": 4696, "\u2581\uc2dc\uc7a5\uc740": 2994, "\u2581\uc774\ub3d9": 3662, "\u2581\uc81c\uae30": 4134, "ra": 436, "\ub85c": 6079, "\uc587": 6850, "\u2581\ud32c\ub4e4\uc758": 4824, "\u2581\uad6d\ub0b4": 1138, "\ube0c\ub77c": 6433, "\ube90": 6468, "\ucd9c": 7468, "\u2581\uac1c\ud3b8": 857, "\u2581\uacbd\uae30\ub3c4": 958, "\u2581\uc758\uacac\uc774": 3620, "\u2581\ucca0\ud559": 4478, "\uacc1": 5435, "(12": 22, "net": 426, "\ub4ed": 5942, "\u2581\ud558\ub77d\ud55c": 4935, "\u2581\uae30\uc874": 1300, "\u2581\ubc1b\uc558": 2229, "\u2581\ud655\uc7a5": 5133, "ur": 450, "\ub82c": 6068, "\u2581\ucd94\uc5b5": 4551, "\u2581\ucd5c\uac15": 4520, "\uc5b4\uc694": 6857, "\uc801\uc73c\ub85c": 7203, "\ub4dd\uc810": 5927, "\ub8f8": 6100, "\u2581\uac70\ubd80": 872, "\u2581\uc2ec\uc0ac\uc704\uc6d0": 3066, "\u2581\uc758\ud55c": 3642, "2.8%": 126, "\u2581\uc3df\uc544": 3083, "\u2581\ub545\uc5d0": 1843, "\ucabd": 7376, "\u2581\uc2dc\uc791": 2986, "\u2581\ubcf4\uc644": 2382, "\uc2a8": 6696, "\uccb4": 7436, "\u2581\uc88b\uc9c0": 4210, "\u00ad": 473, "\ubcd0": 6360, "\uc5fd": 6942, "\ubcf8": 6383, "\u2581\ud654\uc7a5\uc2e4": 5118, "\u2019": 498, "\ubd80\ucc98": 6409, "\u2581\uadf8\ub824": 1206, "H": 294, "\u300d": 5237, "\u8ecd": 5317, "\ubb50": 6247, "\ud798": 8000, "\u2581\ub3d9\uc791": 1759, "\uc82f": 7244, "\uc950": 7307, "\u2581\ub05d\ub0b4": 1367, "\ub764": 6002, "\ucf67": 7545, "\u2581\ud55c\uad6d\uc740": 4960, "\ud401": 7740, "\u2581\uc0bc": 2650, "100": 106, "\ub7f0": 6040, "\uaff0": 5636, "\u2581\ubc29\uce68": 2282, "\uc571": 6840, "\u2581\uac10\uc18c\ud588\ub2e4": 798, "\ubcf4": 6364, "\ubd10\uc57c": 6394, "\u2581\uc8fc\uac00\uac00": 4215, "\ud53c": 7767, "\u2581\ubc97": 2331, "\u2581\uc120\uc9c4\uad6d": 2765, "\u2581\ucd9c\uc2dc": 4577, "(": 18, "\u2581\uc81c\uacf5": 4130, "\u2581\uc11d\uc720": 2733, "\u2581\ub2ec\ud55c\ub2e4": 1605, "\u2581\uc774\ub04c\uc5b4": 3654, "\ub418\uba70": 5891, "\uad8c": 5524, "43": 165, "\u2581\ub0b4\ub9b0": 1445, "\u2581\ub4e4\uc5b4\uac08": 1807, "\u2581\ucc59\uae30": 4462, "\u2581\ud45c": 4880, "\ub137": 5708, "\ub837": 6071, "\ub301": 5830, "\uc6d4\uc5d0": 7034, "!'": 6, "\u2581\uce68\uccb4": 4632, "\ud64d": 7939, "\ub77c\uc774\ud504": 6013, "\u2581\uc5c5\ubb34\ub97c": 3265, "\ud78c": 7997, "\uc9f8": 7369, "\ud004": 7558, "\u2581\ucf54\uc2a4\ud53c\uc9c0\uc218": 4673, "\u2581\uad6d\ubb34\ud68c\uc758": 1143, "\ub518": 5952, "\u2581\ud5a5\ud6c4": 5036, "(?)": 39, "\u2581\ub4e0\ub2e4": 1798, "\u2581\ub9cc\ud07c": 1948, "\u2581\ucc98\uc74c\uc73c\ub85c": 4469, "\uc54c\ub9ac\ubbf8": 6822, "\u2581\uc0c1\ub2f9\uc218": 2661, "\u2581\ub2e4\ub978": 1567, "\u2581\uc870\uae08": 4164, "\u2581\uc5b8\uc81c": 3245, "\u2581\uc99d\uc561": 4295, "\ub514\uc9c0\ud138": 5950, "\uac90": 5402, "\u2581\uac00\uc785\uc790": 759, "\uc218\uac00": 6630, "\u2581\ud504\ub85c": 4897, "\u2581\ucda9\uc871": 4596, "\uc774": 7096, "\u2581\ub2e4\uc12f": 1571, "\u253c": 516, "\ub825\uc774": 6066, "\u76e7": 5303, "29": 141, "GDP": 292, "\u2581\uc5c5": 3260, "1)": 96, "\u2581\ud0dc": 4720, "\u2581\ub2f9\uc120\uc778": 1625, "tion": 445, "\u2581\uc120\uc218\uac00": 2754, "\u2581\uc870\uc885\uc0ac": 4185, "\u2581\ub2e4\uc800\uc2a4\ub294": 1582, "\u2581\ubab0\uc544": 2083, "\ud330": 7703, "\ub5c0": 5977, "\ub9d8": 6162, "\ub9c8\uc74c": 6144, "\uad11\uc5ed\uc2dc": 5483, "\u2581\uadfc\uc721": 1227, "\ucfe4": 7553, "\u2581\ube60\ub974\uace0": 2556, "\u2581\uc120\uc218\ub2e8": 2755, "\u2581\uac00\ub2a5\ud558\ub2e4": 742, "\u2581\uc54c\ub824\uc838": 3170, "\u2581\uccb4": 4491, "\uc300": 6756, "\u2581\uc5f0\uc778": 3355, "\u2581\uc778\uc0ac\ub4e4": 3770, "\u2581\uba54\uc774\uc800": 2020, "\u2581\ubd24\ub2e4": 2422, "\uc60c": 6961, "\ub4e4\uacfc": 5932, "\ubc11": 6272, "\u2581\ubc31": 2298, "\uc2a4\ud3ec\uce20\uc870\uc120": 6695, "\u2581\ub9ac\ub354\uc2ed": 1903, "\u2581\uc900\uc6b0\uc2b9": 4251, "\uac1c\uc758": 5368, "\u2581\uc694\uad6c\ud588\ub2e4": 3483, "3%": 143, "GM": 293, "\uc5c5\ubb34": 6875, "\ud588\ub294\uc9c0": 7868, "\u2581\ubc1d\ud614\uc2b5\ub2c8\ub2e4": 2262, "\u2581\uc2e0\uace0": 3012, "\u2581\uc9d1\uacc4": 4385, "\u2581\uce58\ub978": 4622, "\uc0cc": 6539, "\ub9cc\uc73c\ub85c": 6156, "\u2581\ubd80\uc815": 2449, "\u2581\uc774\uc0ac\uc7a5": 3702, "\u2581\uc758\ub958": 3625, "\u2581\uacf5": 1023, "\u2581\uc2dc\ub108\uc9c0": 2967, "89": 233, "\uc2a4\ub7ec\uc6cc": 6668, "\uc73c\uba70": 7082, "\u2581\ub4f1\uc774\ub2e4": 1827, "\u2581\uc774\ub798": 3670, "\uaca8": 5411, "\u2581\ub4a4": 1783, "\ud2a0": 7657, "\u2581\uc2e0\ubb38": 3017, "\uaca0\ub2e4\uace0": 5407, "\u2581\uc788\uc73c\ub098": 3876, "\ubaa9": 6217, "\u2581\ub9d0\uc500": 1961, "\ub258": 5751, "\u2581&": 519, "\u2581\uc704\uae30": 3553, "\ub9db": 6164, "\u2581\uccad\uc57d": 4488, "\uc05c": 6489, "\u2581\ubd80\ubd84\uc774": 2438, "\u2581\ube44\uacfc\uc138": 2517, "\ucfe1": 7552, "\ub8e8": 6095, "\ud569\ub2c8\ub2e4": 7843, "\u2581\uc140\uce74": 2820, "\u2581\uac00\uc84c\ub2e4": 764, "\u2581S": 687, "\u2581\ubc1c\uc5b8": 2247, "\u2581\ube44\ub86f": 2524, "\ub834": 6069, "~": 463, "\u2581\ub9e4\uc8fc": 1999, "\u2581V": 697, "\u2581\uc7a5\ube44": 3961, "\uc2a4\ub7fd\ub2e4": 6671, "\uac38": 5375, "\u2581\uc55e\uc11c": 3187, "\u2581\uace7\ubc14\ub85c": 1015, "\u2581TV": 694, "\u2581\ube44\uc0c1": 2529, "\u2581\ube44\ub09c": 2521, "\u2581\uc0c1\uc704": 2675, "\u2581\uae30\uacc4": 1260, "\u2581\ub0a8\ud3b8": 1425, "\u2581\"": 518, "\u2581\uc18c\uac10\uc744": 2823, "\uc5f0\uad6c\uc6d0": 6931, "\uc80a": 7219, "\uc9c0\ub09c": 7325, "\uba5c": 6194, "\uacf3": 5451, "\uc6d4": 7028, "\u2581\ub3c8": 1730, "\u2581\uba54": 2016, "\u2581\uc5f4\uc560\uc124": 3369, "\u2581\ud559\uc2b5": 4954, "\uc9dd": 7363, "POP": 339, "\u2581\uc544\uc8fc": 3128, "\u2581\ud0c0\uc774\ud2c0\uace1": 4705, "\uc0ac\ub97c": 6500, "\u2581\uad50\uc218": 1107, "\u2581\uc11c\ubd80": 2723, "\u2581\uae30\ub300\ub41c\ub2e4": 1269, "\uba87": 6212, "\uc790\ub4e4": 7152, "-3": 52, "\ubbfc\uc8fc\ub2f9": 6265, "\ucd18": 7450, "\uc704\uc548": 7050, "\uc606": 6956, "\u2581\uc628": 3437, "\u2581\ub290\ub084": 1548, "\u2581\uc9c4\uc785": 4366, "\u2581\ucca0\ud68c": 4479, "\ubcf4\ud638": 6378, "\u2581\ubd81\ud55c\uc758": 2466, "\u2581\uc6cc": 3530, "\ub810": 6057, "\u2581[": 702, "=": 254, "\uc090": 6492, "\uc5ec\uc790": 6924, "\ud558\uac70\ub098": 7783, "\u00a4": 471, "\u2581\uc815\uce58\uc801": 4124, "\u2581\ud588\ub294\ub370": 5018, "\u2581\uc0ac\ub78c\uc774": 2589, "\u2581\ud0dd\uc2dc": 4727, "\u2581\uc138\uacc4\uc801\uc778": 2803, "\u2581\uc798\ubabb": 3943, "\ud30c\ud06c": 7685, "\uc228\uc5b4\uc788": 6647, "\uc789": 7144, "\uc5b5\uc5ec\uc6d0": 6860, "\u2581\ub3c4\ub85c": 1711, "\u2581\uc624\ub984\uc138": 3427, "\u00d7": 481, "\uac74\uc73c\ub85c": 5387, "\uc5d4\uc9c0\ub2c8\uc5b4\ub9c1": 6910, "\u2581\uac15\ub989": 813, "\u2581\uace0\ud1b5": 1012, "\u5831": 5261, "\u2581\ubb36": 2119, "\u2581\uc5c6\uc5c8": 3279, "\u2581\uc790\ub3d9\ucc28": 3893, "\ub410\ub358": 5881, "\uce21\uc740": 7480, "\u2581\ud558\uc9c0\ub9cc": 4946, "\u2581\uc601\uc5c5\uc815\uc9c0": 3386, "\uc774\ub780": 7107, "72": 211, "quot": 434, "\ud611\ub825": 7913, "50": 176, "\ud640": 7932, "\u2581\ucd9c\ud310": 4587, "\uc124\uba85\ud68c": 6568, "\u2581\uc0bc\uc9c4": 2656, "\u2581\uad11\uc8fc": 1098, "\u2581\uc9c0\uc2dd\uacbd\uc81c\ubd80": 4328, "\ucca0": 7427, "\u2581\uc99d\uad8c": 4291, "\u2581JTBC": 658, "\u2581\ud65c\ubc1c": 5143, "\u2581\ucc38\uc11d\ud588\ub2e4": 4434, "\u2581\uce7c": 4642, "\uad6d\ub0b4\uc678": 5506, "\u2581\uc18c": 2822, "\uc0ac": 6493, "\ud574\uc9c4": 7858, "8%": 220, "\u2581\ubc1b\uc544": 2226, "\u2581\ub300\uc0c1\uc790": 1653, "\u2581\ucd9c\uc785": 4583, "\u2581\ud638\ud154": 5095, "\u2581\uad00": 1073, "\u2581\uadf8\ub7ec\ub098": 1199, "\u2581\ub4e4\uc5b4\uac04": 1806, "\u2581\ub9cc\uc57d": 1945, "\u2581\ub290\uaef4": 1544, "\u2581\uc138\ud2b8": 2818, "\ub0a1": 5665, "\uc2a4\ud134": 6687, "\u2581\uc774\ub840\uc801": 3674, "\uc2dc\uaed8": 6707, "1.8": 104, "\ub2c8\ub2e4": 5772, "\uccad\uc18c\ub144": 7434, "\ud68c\ub2f4": 7954, "\u2581\uc11c\uc6b8": 2726, "\uc790\uc5d0\uac8c": 7164, "\ub080": 5652, "\u2581`": 703, "\u2581\uc870\uae08\uc529": 4165, "\u2581\uc2e4\ud328": 3055, "\ud558\ub2e4\ub294": 7800, "\u2581\ubc88\uc9f8": 2308, "\ub192": 5736, "\u2581\uc790\uc0b0": 3905, "\u25811%": 530, "\u2581\ud22c\uc218": 4765, "\ucc3d\uc5c5": 7403, "=\"\">": 256, "\u2581\uc774\uc900": 3745, "\u2581\uc544\ub2cc": 3105, "\ubca0\uc774\uc2a4": 6345, "\ucc29": 7394, "\uad00": 5474, "\u2581\ubcf4\uad00": 2360, "\ub7fc": 6043, "(18": 25, "\u2581\uc810\uc774": 4081, "\u2581\uce74\ub4dc\uc0ac": 4637, "\ub113": 5697, "\u2581\ud30c\uacac": 4800, "\u25812003": 560, "\uc2dc\ubd80\ud130": 6711, "\ud53d": 7772, "\u25811": 529, "25": 137, "\u2581\ube0c\ub79c\ub4dc": 2508, "\u4e09": 5243, "\u2581\uc8fc\uc81c\ub85c": 4240, "(5": 34, "\u2581\uc18c\ud658": 2855, "\u2581\uc804\ub9dd\ub41c\ub2e4": 4028, ")\u2019": 43, "j": 414, "\u2581\ud55c\ub2e4\uace0": 4966, "\u2581\ubbfc\uc8fc\uc8fc\uc758": 2178, "\u2581\uc704\ud611": 3572, "\u2581\uccb4\uacb0": 4492, "\ud558\ub294": 7794, "\u2581\uc801\uc6a9": 4004, "\u2581\uc790\ub3d9": 3892, "\u2581\ud1b5\ud55c": 4754, "\uad74": 5516, "\u2581\uc804\ub2f4": 4023, "\u2581\uc5c6\uc744": 3282, "\uc784": 7136, "\uc15c": 6603, "\u2581\ubd80\ubd84": 2437, "\uc678\uad6d\uc778": 6996, "\u2581\ubbfc": 2169, "\u2581\uc815\uc0c1\ud654": 4114, "\ud574\uc84c\ub2e4": 7855, "\u2581\ubbf8": 2149, "\u2581\ud504\ub85c\uc57c\uad6c": 4901, "\u2581\uac70\ub450": 863, "\u2581\uc678": 3468, "\u2581\ubc8c\uae08": 2310, "\u2581\uc870\uc0ac\ub97c": 4174, "\uae5d": 5599, "\uc2dc\uc7a5\uc5d0\uc11c": 6717, "\u2581\uc2f6\ub2e4": 3072, "\uc5c8\ub294\ub370": 6887, "DC": 280, "(19": 26, "\u2581\uadf8\ub798\ud53d": 1196, "\u2581c": 705, "\u2581\ubcc0": 2339, "\u2581\uc774\uc720\ub97c": 3735, "\ube0c\ub79c\ub4dc": 6434, "\ucd09": 7448, "\ud1a4": 7632, "\u2581\ub300\ud45c\ub294": 1675, "\uc5e3": 6914, "\u2581\ucc3e\uc744": 4449, "\ube10": 6437, "\u2581\uc9c0\uc6d0\ud558\ub294": 4333, "98": 247, "\u2581\uac10\uc18c": 796, "\uc82c": 7243, "\u2581\ucda9\ub3cc": 4591, "\ube0c": 6432, "\u2581\ucd95\uc18c": 4564, "\u2581\uad6c\ub2e8": 1118, "\u2581\uacf5\uacf5": 1032, "\ud558": 7782, "\ud5c8\uac00": 7888, "\ud658\uacbd": 7947, "\u2581\uce74\ub9ac\uc2a4\ub9c8": 4638, "\uc9c0\ub3c4": 7328, "\u2581\uc911\uc810": 4277, "\u2581\ube44\uac00": 2515, "\u2581\ub298\uc5b4": 1553, "\u2581\uce74\uce74\uc624": 4640, "\u2581\uc774\ubca4\ud2b8": 3699, "\u2581\ud504\ub9ac\ubbf8\uc5b4\ub9ac\uadf8": 4905, "\u2581\uad6d\ubb34\ucd1d\ub9ac": 1142, "\u2581\uc5f0\uacb0": 3334, "\u2581\uc81c\uc870\uc5c5\uccb4": 4153, "\u2581\uc131\uba85\uc744": 2791, "\u2581\uad6c\uc870": 1126, "\u2581\ub4e4": 1801, "\u2581\uba85\uc758": 2038, "\ubc16": 6284, "\u2581\uac1c\ud1b5": 856, "\u2581\uc528\uc5d4\ube14\ub8e8": 3092, "\ud3c9\uade0": 7726, "\u2581\uc544\uc774\uc720": 3125, "\uc13c\ud130": 6593, "\u2581\ubcf4\uc7a5": 2393, "\uacbc\ub2e4": 5423, "\u2581D": 644, "\u2581\uac78": 889, "\u2581\uad6c\uae00": 1117, "\ub3c4\uc2dc": 5863, "????": 262, "\ud3ec\ub7fc": 7729, "in": 409, "\u2581\uc774\ud6a8\ub9ac": 3755, "\ub2c8\uc2a4": 5773, "\ud558\ub2e4\uace0": 7799, "\u2581\uc218\ubaa9\ub4dc\ub77c\ub9c8": 2878, "\ub9e1": 6167, "\u2581\ubb3c\ub7c9": 2139, "\u2581\uc2e4\ub825": 3038, "\u2581\ube48\uc18c": 2548, "\u2581\uc815\ubd80\uac00": 4107, "\ucf54\ub9ac\uc544": 7535, "\u2581\ub9cc\ub4e4\uace0": 1941, "\u2581\ud55c\uce35": 4972, "\u2581\ubbf8\uc580\ub9c8": 2164, "ho": 403, "\ub93c": 6106, "\u2581\ub204": 1526, "\u2581\ub098\uc62c": 1393, "m": 423, "www": 456, "\u2581\uc0ad\uac10": 2638, "\u2581\ubc30\ub2f9": 2290, "\u25812007": 564, "\u2581\uc2e4\uc885": 3051, "\uce04": 7477, "\u2581\ub77c\ub514\uc624": 1876, "\ud55c\ub2e4\uace0": 7832, "\u2581\uc0ac\ud56d": 2632, "\u2581\ub0b4\uc218": 1447, "\u2581\uad00\uc2ec\uc744": 1090, "\u2581\ubaa9\ud45c\uc8fc\uac00": 2080, "\u258170%": 623, "\u2581\ud658": 5136, "\u2581\uc9c0\uae09": 4302, "\u2581\ud1b5\ud574": 4756, "\u2581\ub458\ub7ec\uc2fc": 1781, "\u2581\uc2dc\uc124": 2981, "\u2581\uac10\ub3c5\uc774": 790, "\u2581\uac15\ub825": 810, "\ube44\uc6a9": 6446, "\u2581KT": 665, "\ub2f9\uc120\uc778": 5806, "\ubc1b\uc558\ub2e4": 6292, "\ud558\uae30\ub85c": 7791, "\u2581\ud0c4\uc0dd": 4709, "\u2581\uc804\uc8fc": 4051, "\uae30\ub85d": 5572, "ay": 379, "\u2581\ud3b8\uc758\uc810": 4835, "\uad34": 5485, "\u2581\ub6f0\uc5b4\ub09c": 1869, "\u2581\ub05d\uc5d0": 1368, "\u2581\ubd88\ub9ac\ub294": 2494, "\ud558\uba70": 7810, "\u2581\ud37c": 4826, "\ud0dd": 7601, "\u258137": 602, "\uc2a4\ud2b8": 6691, "\u2581\ub9cc\ub0a8": 1936, "\uacbd\ucc30\uc11c\ub294": 5433, "\u2581\uadfc\ubcf8": 1226, "\u2581\uae30\uc900\uae08\ub9ac": 1302, "\u2581\uc18c\uc1a1": 2839, "\uc5c7": 6884, "\ub7ac": 6031, "\u2581\uc5b4\uc6b8\ub9ac": 3237, "\u2581\ub7f0\ub358\uc62c\ub9bc\ud53d": 1883, "\u2581\uc54c\ub9ac": 3174, "\uc544\ud504\ub9ac\uce74": 6810, "\u2581\uc0c1\ub2f9\uc758": 2662, "\u2581\ud589\ubcf4": 5024, "\u2581\ub3c5": 1725, "\u2581\ud734\ub300\ud3f0": 5194, "\ub9c8\ucf13": 6147, "\uc0c8\ub204\ub9ac\ub2f9": 6537, "\u2581\ub098\uc120": 1382, "\u25815": 611, "\u2581\uc555": 3178, "\ub3fc\uc57c": 5877, "\u2581\uc2dc\uc791\ud55c": 2989, "\u2581\uc528\ub294": 3090, "\u2581\uc774\uc5b4": 3716, "\u2581\uc788\uc5b4": 3868, "\u2581R": 686, "\u2581\ubc84\uc804": 2306, "\uafc8": 5632, "\u2581\ub545": 1841, "\ub3d7": 5871, "\u2581\ub3d9\uc0dd": 1750, "\ub054": 5646, "\u2581\ucd1d\uae30": 4514, "\uc544\uc6c3": 6803, "\u2581\ud68c\uc7a5": 5163, "\u2581\ud558\ub8e8": 4937, "78": 217, "\u2581\ud55c\uac15": 4956, "\uc698": 7002, "\u2581\ud558\ub294": 4930, "\u2581\uba39\uace0": 2011, "\ud649": 7938, "\u2581SBS": 688, "\u2581\ub300\ubd80\ubd84": 1647, "\ud654": 7941, "\u2581\uc720\ud29c\ube0c": 3596, "\u2581\ubcf4\uc870\uae08": 2394, "\u2581\uc2e0\uc138\uacc4": 3020, "\u2581\ud64d": 5108, "\u2581\ud68c\uc758\ub97c": 5162, "\u2581\uaca9\ucc28": 933, "\uc528": 6785, "\ube61": 6460, "\uad6c\uccad\uc7a5": 5502, "\ud301": 7680, "|": 461, "\uacbd\uae30\uc5d0\uc11c": 5426, "\ub124\ud2b8\uc6cc\ud06c": 5704, "\uac10\uc0ac": 5343, "\u2581APP": 636, "\u2581\ubcf4\uae30": 2362, "Z": 361, "\u2581\uc5f0\ub77d": 3343, "\u2581\uc608\ub2a5\ud504\ub85c\uadf8\ub7a8": 3400, "\u2581\ub418\uba74": 1766, "\uac15\uc2ec\uc7a5": 5352, "\uc528\ub97c": 6788, "\u258111": 538, "\ud3ec\ud2b8": 7733, "\u2581\uc120\uc608": 2759, "\u2581\uadfc\ud669": 1230, "\u2581\ud1b5\ud654": 4758, "\u2581Home": 654, "\ubc1c\uad74": 6296, "\uc0dd": 6542, "\uc2a4\ucfe8": 6681, "\ud68c\ucd08": 7961, "\u2581\uc804\uc7c1": 4050, "\ub9d0": 6160, "\ub96d": 6112, "\uc790\ub4e4\uc740": 7153, "\ud540": 7773, "\u2581\uc2dc\ub098\ub9ac\uc624": 2966, "\u2581\uc0ac\ud758": 2637, "\u2581\uac15\uc870": 818, "\u2581\ub2e8\ub3c5": 1588, "\uc9d5": 7357, "\u2581\ud558\ub2e4": 4932, "\u2581\uc0ac\uc548": 2608, "\ubd90": 6426, "\u2581\ubb34\uc0c1": 2109, "\u2581\uc5e0": 3296, "\u2581\ubc29\uce68\uc774\ub2e4": 2283, "\u2581\ub420": 1772, "\uc2a4": 6664, "\u2581\uc88b\ub2e4": 4206, "\u2581\ud558\uba74": 4939, "\uc57c\uad6c": 6845, "\u2581\ubc18\ub4dc\uc2dc": 2210, "\ub380": 5856, "\u4e0a": 5244, "\u2581\uc18c\uc15c": 2836, "\u2581\ubcf8\uc778": 2415, "\uacb0\ud63c": 5419, "\u2581\uc790\uc5f0": 3916, "\ub6f8": 5990, "\u2581\uce74\uba54\ub77c": 4639, "\ucf54": 7533, "\uc0bf": 6525, "\u2581\uc9c4\ud589\ub420": 4375, "\uba67": 6196, "\u2581\ubd81\ubbf8": 2463, "\u2581\uc0c1\ubc18\uae30": 2668, "\ud130": 7609, "\u2581\uc815\ubd80\uc640": 4109, "\uc218\ub85d": 6632, "\u2581\uc591\uce21": 3218, "\uc6d0\uc740": 7024, "\ud305": 7681, "\u25811.5": 532, "\u2581\uc778\uac04": 3759, "\u2581\uc2e0": 3010, "\ub8b0": 6092, "\uaf3c": 5618, "\u2581\uc77c\uc73c\ud0a8": 3816, "\ub2e4\ub978": 5783, "\u2581\ub530\ub77c\uc11c": 1836, "\uac11": 5345, "\u2581\uad50": 1103, "\ud55c\ub2e4\uba74": 7834, "\u2581\uadfc\ucc98": 1229, "\u2581\uc0dd\uba85": 2712, "\u2581\uc2a4\ud0c0\uc77c": 2939, "\u2581\uc9c4\ud589\ub410\ub2e4": 4371, "\uc790\ub97c": 7158, "\uc644": 6985, "\u2581\uc18c\ub4dd": 2828, "\u2581\ub3cc\uc544\uc628": 1737, "\u2581\ubd80\uc0c1": 2442, "\u2581\ud3ec\uc2a4\ucf54": 4858, "\u2581\ub0a8\uc544\uc788": 1421, "\u2581\uc804\ud6c4": 4066, "\u2581\uc808\ub300": 4069, "\ub5a1": 5970, "\ub193": 5737, "\ub3c4\uc9c0\uc0ac": 5864, "\u2581\uc608\uc0c1\uce58": 3408, "\u2581\uad50\uc218\ub294": 1108, "\u2581\uc544\ub798": 3108, "\uce84": 7501, "\ubcf4\ub2e4": 6371, "\ubd84": 6416, "\uc5c8\uc9c0\ub9cc": 6893, "\u2581\uc0c1\ud488": 2683, "\u2581\ucc28\uc138\ub300": 4410, "\u2581100%": 536, "\u2581\uc791\uc5c5\uc744": 3937, "\u2581\u7f8e": 727, "\u2581\uc801\ud569": 4011, "\ud0d0": 7593, "\u2581\ubcf8\uc0ac": 2414, "\u2581\uc5bb\uc744": 3250, "\u2581\uc54a\uc558\ub358": 3158, "est": 396, "\uc2a4\ud0a4": 6683, "\u2581\uc88b\uc544": 4207, "\u2581\uc774\ub300\ud638": 3660, "\uc601\ud654": 6954, "\u2581\uc778\ud130": 3793, "\u2581\ub18d\ud611": 1510, "\uadc4": 5531, "\uba40": 6186, "\uc88c": 7273, "\u2581\uc2a4\ud398\uc15c\uc62c\ub9bc\ud53d": 2943, "\u2581\uc0ac\ub78c\ub4e4": 2585, "\u2581\ub2f4\ubc30": 1611, "OC": 330, "\u2581\ubd24": 2421, "\u2581\uc120\uc218\ub4e4": 2756, "\ub0c5": 5685, "\u2581\ud544\uc694": 4919, "\ub3d9\ub9f9": 5873, "\ubc1c": 6295, "\ud608": 7909, "\uc11e": 6558, "\u2581\ube44\uc911\uc774": 2540, "\uad6c\ub098": 5496, "\u2581\ubb38\uc11c": 2121, "\uc988": 7310, "\uba38\ub2c8\ud22c\ub370\uc774": 6181, "\ub85c\uc6b4": 6082, "\u2581\ube7c\uc557": 2565, "\u2581\uc801\uadf9\uc801\uc778": 3999, "\u2581\uad6c": 1115, "\uc5d0\uac8c\ub294": 6898, "\u2581\uc774\ub904\uc84c\ub2e4": 3678, "\ubcf4\ub294": 6369, "\ucc98": 7416, "\u2581\ud654\uc131": 5116, "\ub178\ucef7": 5728, "\ucee5": 7513, "\u2581\uac74\ubb3c": 884, "\u2581\uc138\ub825": 2806, "3000": 146, "\u2581\uc800\ub141": 3991, "\ub5c4": 5978, "\u2581\uacc4\ud68d\uc774\ub2e4": 992, "\u2581\uc0ac\ub77c\uc9c0": 2583, "\ub2eb": 5792, "\uc9c0\uc9c0": 7340, "52": 180, "\ub1cc": 5741, "\ubc1c\uc5b8": 6297, "\ub52a": 5958, "4": 157, "\u2581\uc624\uc804": 3431, "\uac70\ub098": 5378, "am": 373, "\u25a0": 5217, "\u2581\uadf8\ub798\uc11c": 1195, "\u2581\ucc98\ub9ac": 4465, "\uce68": 7491, "95": 244, "FIFA": 288, "\u2581\ub180\ub77c": 1505, "\u2581\uc608\uc815\uc774\ub2e4": 3414, "\u2581\ucc98\ubd84": 4467, "\u2581\ub514\uc790\uc778": 1831, "\u2581\uc2e4\uc801": 3047, "\u2581\uc790\ubc1c\uc801": 3901, "\u2581\uc9c0\uba85": 4314, "\uc5ff": 6943, "\uaf43\ubcf4\ub2e4": 5623, "\u2581\ud55c\uad6d\uc758": 4962, "\uc2a4\uc758": 6676, "\ub354\ub77c": 5839, "\uacbd\uae30": 5425, "\u2581\ud53c\uc758\uc790": 4911, "\uad6d": 5503, "\u2581\uacbd\ube44": 966, "\u2581\uc2a4\uc2a4\ub85c": 2934, "\u2581\ubc30": 2287, "\u2581\ub098\ub780\ud788": 1377, "\u2581\uc218\uce58": 2907, "\u2581\uc784\uc6d0": 3834, "\u2581\uc11c\ube44\uc2a4": 2724, "\u2581\ud3ec\ud138": 4862, "ing": 410, "\uc384": 6769, "\u2581\uc5f0\ubd09": 3347, "\uc815\uae00\uc758": 7228, "\u2581\uc81c\ud488": 4158, "\ub178\uc870": 5727, "\u2581\uc904\uc5b4\ub4e4": 4254, "\ubd84\uacfc": 6417, "\ub72f": 5994, "\u2581\ub4f1\uc73c\ub85c": 1822, "HD": 295, "\u2581\uc694\uc998": 3489, "\uc218\uc6d0": 6638, "\uc068": 6491, "\ud0ed": 7605, "\u2581\uc5ed\uc0ac\uc801": 3326, "\u2581\ucc38\uc11d": 4431, "\uadf8": 5538, "\ud3fc": 7739, "\uad9c": 5527, "\u2581\uc1fc": 2870, "\u2581\ubaa8\uc2b5\uc744": 2058, "\u2581\ucef4\ubc31": 4659, "\u2581\ubd80\uc9c0": 2453, "\u2581\uc758\ud574": 3643, "\ub7ec": 6037, "\u2581\uac00\uc871": 765, "\u2581\ubcf5\ud569": 2407, "\u2581\ud55c\ub2e4": 4965, "\u2581\uae34\uc7a5": 1313, "\ub290": 5757, "\ub2f9": 5804, "\ucdb0": 7473, "\uc7a5\ube44": 7181, "\u2581\uc815\ub2f9": 4097, "\u2581\uacbd\ub825": 963, "\u2581\uacf5\ub7b5": 1037, "\u2581\ubaa8\ub2c8\ud130\ub9c1": 2045, "\u2581\ubaa9\uc18c\ub9ac\uac00": 2074, "\ubbff": 6266, "\ubc0c": 6269, "\u2581\uc5f4\ub9ac": 3362, "\uc2f6": 6751, "\uc790\uae08": 7149, "\u2581\ub3c4\uc6c0\uc744": 1718, "\u2581\ud604\ub300\uac74\uc124": 5052, "\u2581\ub418\ucc3e": 1769, "\u2581\ud2b9\uc704": 4784, "...'": 57, "\u2581\ubb3c\ub958": 2141, "\uc7ac\ud310": 7196, "\ud589\uc0ac": 7883, "\uccb4\uc721": 7438, "\u2581100": 535, "\ub300\ud45c": 5822, "\u2581\uac00\uc815": 762, "\uc138\ub97c": 6585, "\u2581\uba38\ubb3c": 2009, "\u2581\ubc30\ud130\ub9ac": 2297, "\ub79c\ub4dc": 6026, "\u2581\uae30\ud68d\uc7ac\uc815\ubd80": 1310, "\u2581\uc77c\uc8fc\uc77c": 3822, "\u2581\ub611\uac19": 1865, "\u2581\uc218": 2872, "\u2581\uc774\ubca4\ud2b8\ub97c": 3700, "\u2018": 497, "\u25811~2": 552, "\u2581\uacc4\uc0b0": 983, "\u2581\uc598\uae30": 3219, "\u516c": 5254, "\u2581\ubc15\uc9c0\uc131": 2204, "\u2581\ub9c8\ubb34\ub9ac": 1914, "\u2581\uae30\ub85d\ud55c": 1276, "\u2581\uad6d\uac00\uc548\ubcf4": 1136, "\uac1c": 5357, "\ud611\ud68c": 7918, "\uacb0\uc81c": 5418, "\u2581\uc784": 3826, "\uc704\ub85c": 7048, "\u2581\uad6d\uac00": 1133, "\ub9cc\uba85": 6152, "\u2581\ub300\ud1b5\ub839\uc774": 1670, "is": 412, "\u2581\uc9c0\uc218": 4325, "\u2581\uc0bc\uc131": 2651, "4%": 158, "\u2581\ud65c\ub3d9": 5141, "\u2581\ud558\uc9c0": 4945, "\u2581\uc8fc\ubaa9": 4225, "\u2581\uccad\uc8fc": 4490, "\uad6d\uc815\uc6d0": 5509, "\u2581\ub3d9\uc548": 1754, "\u2581\ud558\uc790": 4943, "\u2581\uc0c1\ud669": 2689, "\ucc38": 7398, "\u2581\uc0ac\uc720": 2617, "\ud558\uba74\uc11c\ub3c4": 7813, "\u2581\uc0ac\uc774": 2618, "\u2581\uc644": 3455, "\ub86f\ub370": 6090, "\u2581\uc2f8\uc774": 3077, "all": 372, "\ub109": 5693, "\uc6f9": 7043, "\u2581\ud310\uc0ac": 4812, "\u2581\ubd84\uc11d\ud588\ub2e4": 2478, "\ubb3b": 6240, "\u2581\uc548\ub0b4": 3136, "\ud611": 7911, "\u2581\ubcd1\uc6d0": 2353, "\uc13c\uc2a4": 6592, "\uc74c\uc5d0\ub3c4": 7091, "\u2581\ud56d\uacf5\uae30": 4994, "\ubf40": 6478, "\u2581\uc81c\ud55c": 4160, "\ud3f4": 7737, "60": 190, "\u2581\uc785\uac74": 3837, "\u2581\ud3c9\uc18c": 4848, "\uaf80": 5627, "\u2581\uadf8\uac83\uc774": 1188, "\uc4f8": 6781, "\u258122": 580, "\uc7ac\uc815": 7195, "\u2581\ubc1b\ub294\ub2e4": 2225, "\u2581\uc99d\uc2dc": 4294, "\ubc38": 6318, "\uc14b": 6599, "\u2581\uc81c\uc784\uc2a4": 4146, "\uc308": 6757, "\u2581\ub204\uad6c": 1528, "\ubcc4\ub85c": 6357, "\u2581\uac8c": 921, "\uaca0\uc9c0\ub9cc": 5410, "\u2581\uad50\uc0ac": 1106, "\ud1b5": 7636, "\u2581\uc774\ub2ec": 3659, "\uc2f1": 6750, "\u2581\ub300\uc911\uad50\ud1b5": 1662, "\u2581\ube44\ub300\uc704": 2522, "\u2581\ub5a8\uc5b4\uc838": 1857, "\u2581\ubcf4\uc5ec\uc900": 2378, "\u2581\ubc00\uc5b4": 2183, "\u2581\ube45": 2546, "\u2581\ud2f0\uc800": 4795, "\ub410\uace0": 5879, "\ub728": 5991, "\u258116": 545, "\u2581\uc9c4\ud589\ud55c\ub2e4": 4377, "\ub838\ub2e4": 6074, "\uc774\ub098": 7098, "\u2581\ud6a8\uc728\uc131": 5174, "\ucea3": 7511, "\uccad\ub2f4\ub3d9": 7432, "\uc168": 6604, "\u2581\ub0a8\uc790\uce5c\uad6c": 1424, "\u2581\uc120\uc81c\uace8": 2764, "\u2581\ub9e4\uac01": 1987, "\u2581\ub9e4\uc6b0": 1995, "\u2581\uc55e\ub454": 3186, "\u2581\uc911\uc18c": 4263, "\u2581\ub2e4\ub140": 1563, "\uc561": 6835, "\uc5f0\ud328": 6937, "\u2581\ubbf8\uce60": 2167, "\u2581\uc54c\ub838\ub2e4": 3173, "\u2581\ube4c": 2549, "\u2581\ud568": 4982, "\u2581\uc810\uc744": 4080, "\u2581\uc870\uba85": 4170, "\u2581\uad6c\uc870\uc870\uc815": 1127, "\u2581\ud589\uc704": 5029, "\uc778\uc9c0": 7123, "\uc0ac\ud56d": 6513, "\u2581\uc0ac\ub78c\uc740": 2587, "\u2581\ubd09": 2418, "\ud6fc": 7978, "\ud574\uc8fc\uace0": 7856, "\uc6d0\uc758": 7026, "\u2581\ucc3d\uc6d0": 4441, "\uc501": 6783, "\u2581\uc774\uc2b9": 3711, "\u2581\uc218\uc11d\ub300\ud45c": 2886, "\u2581\uc6d0\uc815": 3541, "\u2581\uc0ac\ud1f4": 2631, "\u2581\uc544\uc774\ud3f0": 3127, "\ub2cc": 5776, "D": 278, "\u2581\uc124\uba85\ud588\ub2e4": 2775, "\uc801\uc774\ub2e4": 7205, "\u2581\ub86f\ub370": 1893, "\uc9c0\uace0": 7321, "\ucf64": 7543, "\u2581\uc758\uc9c0\ub97c": 3641, "\ud588\ub2e4\ub294": 7871, "\ubd80\ubb38": 6404, "\uadf8\ub798": 5540, "5%)": 174, "\u2581\ub450\uace0": 1774, "\u2581\uacf5\ud654\ub2f9": 1056, "\u2581\ub545\ubcfc": 1842, "\u2581\ud45c\uba85": 4881, "\u2581\ucc29\uc218": 4423, "\uac81": 5397, "\u2581\ub313\uae00": 1697, "\u2581\uc0c1\ub2f4": 2659, "\uc78a": 7145, "\u2581\uc11c\ub958": 2721, "\uc2e0\ubb38": 6735, "\u2581\uc0ac\ub098\uc774": 2581, "\u2581\ud3ec\uc988\ub97c": 4860, "\u2581\uc694\ub9ac": 3486, "\uacfc\uc815\uc5d0\uc11c": 5470, "\u2581\uad6d\ud1a0\ud574\uc591\ubd80": 1161, "\u2581\ubaa9": 2068, "\ucc4c": 7412, "\u2581\uac10\uc548": 800, "\uac71": 5383, "\u2581\ub4dc": 1788, "\ub984": 6117, "\u2581\uc9c1\uc7a5\uc778": 4356, "\uc0ac\uace0": 6496, "\u2581\ub204\ub9ac\uafbc\ub4e4": 1531, "\u2581\uac70\ub9ac": 871, "\u2581\ubcf4\uc720\ud558\uace0": 2384, "\ud799": 8001, "\u2581\uc218\uc8fc": 2902, "\ub5a8": 5972, "\u2581\ub9e8\uc720": 2005, "\ub9c8": 6141, "\u2581\uc77c\uc73c\ud0a4": 3815, "\uc2a4\ud1a0\ub9ac": 6689, "\ud504\ub85c\uadf8\ub7a8": 7757, "62": 194, "=\"\"": 255, "\u2581\uad6d\ubbfc\uc740\ud589": 1147, "\uc8fc\uc138\uc694": 7282, "\uc219": 6642, "\ucf30": 7532, "\uc218\uc775\ub960": 6640, "\u2581\ub355": 1701, "IA": 297, "\u2581\ub192\uac8c": 1512, "\uac1c\uc120": 5364, "\u2581\ub0b4\ub838\ub2e4": 1443, "\u2581\ud734\uac00": 5192, "\ub7ad": 6032, "\ud558\ub824\ub294": 7808, "\u2581\uc4f4": 3086, "\uc0ad": 6515, "\u2581\ube44\ub86f\ud574": 2526, "\uc548\ud0c0": 6818, "\u2581\uc77c\uc815": 3820, "\u2581\ubc29\ubc95": 2270, "\u2581\uc788\uc5b4\uc11c": 3869, "\uc11c\ube44\uc2a4": 6555, "\u5e73": 5275, "\u2581\uac1c\ucd5c": 854, "\u2581\uc9c1\uc5c5": 4352, "\u2581LTE": 670, "\u2581\ud655": 5124, "\uc81c\ub3c4": 7235, "\u2581\uac70\uc758": 873, "\u2581\uacb0\uc815\ud588\ub2e4": 946, "\u2581\uc77c\uc81c\ud788": 3821, "\uac80": 5392, "\uc88b\uc740": 7272, "~5": 467, "\u2581\uc904\uc5b4\ub4e0": 4253, "\u2581\uc9c0\uc18d\uc801\uc73c\ub85c": 4323, "\ucf70": 7547, "\u2581\uc784\uc2e0": 3833, "\u2581\uacf5\ubb34\uc6d0": 1039, "\u2581\uc5b8\uae09": 3242, "\uaecd": 5608, "\ubf08": 6477, "\u2581\uc5ec\ub7ec\ubd84": 3305, "\uc6d0\uc5d0": 7021, "\u2581\ud798\uc785\uc5b4": 5215, "\u2581\uacc4\uc57d": 985, "\u2581\ud0a4\uc6cc\ub4dc": 4697, "\u2581\uc758\ubb38": 3627, "24": 136, "27": 139, "\uac80\uc0ac": 5393, "\u2581\ubc95\ubb34\ubd80": 2324, "\ubb49": 6246, "\ubbf8\uad6d": 6256, "\u2581\ud604\uc7ac": 5064, "\uc5f0": 6928, "\ub514\uc2a4\ud06c": 5948, "\u2581\ub418": 1763, "\u2581\uc788\ub2e4": 3862, "\u2581\ub300\ud55c\ubbfc\uad6d": 1683, "\ubc84\ub9b0": 6325, "\ub540": 5963, "\u2581\ubd80\ub2f4": 2426, "\u2581\uc120\uc5b8": 2758, "\uc5b8": 6865, "\u2581\uc885\ub958": 4201, "\ucc98\uc74c": 7420, "\u2581\ud68c\uc7a5\uc774": 5166, "\ud320": 7694, "\uc2dc\uccad": 6719, "\u2581\ub4f1": 1815, "\u2581\ubfd0\ub9cc": 2572, "\u2581\uccab": 4481, "\ub514": 5947, "\ubcf4\ub4dc": 6373, "\u2581\uc30d\uc6a9\ucc28": 3078, "\u5c71": 5271, "\u4e0d": 5246, "\u2581\ub2f9\uc2dc": 1626, "\u2581\uc815\ud655\ud788": 4126, "\u2581\ud5a5\ud574": 5035, "\u2581\uc218\uc900": 2903, "\u5b89": 5267, "\u2581\uc131\ud615": 2800, "\u91cd": 5320, "\ub77c\ub3c4": 6006, "\uc0f4": 6548, "\u2581\uc5f0\uacc4": 3335, "\u2581\ub3d9\uc544\uc81c\uc57d": 1753, "2.5": 124, "\u2581\uc804\ub825": 4026, "\u25811,2": 531, "\u201d,": 503, "\u2581\uacf5\uc720": 1050, "\u2581\uc0b4\ud3b4\ubcf4\uba74": 2647, "\u2581\uc5b5\uc6b8": 3239, "\u2581\uc218\uc775": 2896, "\u2581\uae30\ub2e4\ub9ac": 1266, "\ub274\uc2dc\uc2a4": 5755, "\u2581\ube44\uad50\ud574": 2520, "\u2581\ubb38\ud654": 2132, "\u2581\ub17c\ub9ac": 1501, "\u2581\uc0b0\uc5c5": 2641, "\u2581\ud3c9\uade0": 4845, "\u2581\ucee8\ud2b8\ub864": 4657, "\ub17c": 5731, "\u2581\uc77c\uc5b4\ub09c": 3814, "\u2581\uac1c\ucc99": 853, "\u2581\uc774\ub978\ubc14": 3685, "\u2581\uc5f0\ubc29": 3346, "\u2581\ub4a4\ub2a6\uac8c": 1784, "\u2581\ub192\ub2e4": 1513, "\uc8fc\uc2dd": 7283, "\u2581\ubd81\uce21": 2464, "\u2581>": 632, "\uc2a4\uce74": 6677, "\uc9c0\uc218": 7335, "1": 93, "\u2581\uc560\ub2c8\uba54\uc774\uc158": 3196, "\uc148": 6597, "\uc8fc\uc758\ubcf4": 7285, "\u2581\ubc30\ub824": 2291, "\uad50\uc721": 5491, "\u2581\uc124\ub4dd": 2771, "\u2581\uc778\ud130\ub137": 3794, "\u2581\uc9c1\uc804": 4357, "\u2581\ud544\ub9ac\ud540": 4917, "\uc6b1": 7009, "\u2581\uc815\ube44": 4112, "\u2581\ub9d0\ub808\uc774\uc2dc\uc544": 1960, "\uaecf": 5609, "0.7": 75, "\uadf8\ub7f0": 5541, "\uba84": 6203, "\ubb38\ud559": 6237, "\u2581\uc804\ud30c": 4058, "\uc724": 7068, "\u2581\uac8c\uc2dc\ud310\uc5d0": 925, "\u2581\uc62c\ud574\ubd80\ud130": 3451, "\u2581\uc7a0\uc2dc": 3946, "\u2581\uc2e0\uc18d": 3021, "\u2581\uc790\uce6b": 3927, "\u2581\uce58\ub974": 4621, "\u2581\uc778\uad8c": 3761, "\ub370": 5850, "\u2581\uacf5\uc57d": 1047, "\ub418\ub3c4\ub85d": 5890, "\uc2dc\ud0a4": 6722, "\uc790\uc758": 7167, "\u2581\uc0b4\ud3b4": 2646, "\u2581\uc54c\ub824\uc9c4": 3172, "\u2581\uc6b0": 3498, "\u2581\uc77c\ubd80": 3811, "\uc5d0\ub108\uc9c0": 6899, "\u2581\uc544\ube60": 3114, "\u2581\ub098\uc624": 1388, "\u2581\uc774\ub984": 3687, "\uc6d0\uc73c\ub85c": 7023, "\u2581\uacb0\uacfc\ub97c": 939, "\u2581\uc9c0\ub09c\ud574": 4306, "\ud508": 7760, "\u2581\uc18c\uc694": 2843, "\ub904": 6104, "\uae0b": 5559, "\uc6b0\ub9ac": 7007, "\ud300": 7678, "\u2581\ub9e1": 1980, "\u2581\uc788\ub3c4\ub85d": 3866, "\u2581\uc721\ubc15": 3599, "\u2581\ucc28": 4402, "\ubd80\uc7a5\uac80\uc0ac": 6407, "\u2581\uadf8\ub7ec": 1198, "\ub18d": 5734, "\u2581\ubaa8\uc790": 2066, "\u2581\ub180\ub77c\uac8c": 1506, "\u2581\ube44": 2514, "\u2581\ubc8c": 2309, "\u2581\uacbd": 953, "\uc564": 6837, "\uc694": 6999, "\u2581\uc601\uad6d": 3378, "\u2581\uc2dc\uc7a5\uc5d0": 2992, "\u2581\uc2e0\uaddc": 3014, "\ub09c": 5663, "\u2581\uad00\ub828\ub41c": 1084, "\u2581\ud074\ub7fd": 4692, "\u2581\ub355\ubd84\uc5d0": 1702, "\u2581\uac10\uc18c\ud55c": 797, "\u2581\uc5b4\ub9b0\uc774\uc9d1": 3235, "\u2581\uc0ac\uc5f0": 2612, "B": 270, "\u2581\uc194\ub8e8\uc158": 2868, "\u2581\ube44\ub300\uc704\uc6d0\uc7a5": 2523, "\u2581\uc9c0\ub3c4": 4310, "\uc708": 7058, "\ucd5c\uace0": 7459, "\u2581\ubc29\uc548\uc744": 2280, "\u2581\ud588": 5017, "\u2581\ub178\ub825": 1481, "\ud558\ub294\ub370": 7795, "\ud50c\ub77c\uc774": 7762, "\ub800": 6046, "\u2581\uc138\ube10": 2810, "\u2581\uad6d\uc815": 1152, "\u2581\ub290\ub08c": 1549, "\u2581\ub370": 1706, "\u2581\uc544\ubb34": 3111, "\u2581\uc778\ucc9c\uc2dc": 3792, "\ub9f9": 6177, "\uc158": 6602, "\u2581\uc0ac\uc9c4": 2627, "\u2581\uc528\uc2a4\ud0c0": 3091, "\u2581\ub9c8\uc74c": 1917, "\ub300\uad50": 5811, "\uae30\ub3c4": 5570, "\ub410\uc73c\uba70": 5884, "\u2581\ubc1c\uc0dd": 2243, "\ub72c": 5993, "\u2581\uc0dd\ud0dc\uacc4": 2716, "\u2581\ub180": 1504, "\u2581\ub454": 1777, "\u2581\ub9de\uc558\ub2e4": 1975, "\u2581\ubd99": 2503, "\ucca8": 7428, "\ud0d4": 7596, "\ud314": 7690, "\u2581\uac1c\uc778\uc815\ubcf4": 848, "\u2581\ubcf4\uc0c1": 2373, "\ucdc4": 7474, "\u2581\ucabd": 4398, "\ub46c": 5914, "\u2581\ubc14\ub2e5": 2192, "\u2581\ud14c\ub9c8": 4735, "\uc18d": 6615, "\u2581\ucda9\uaca9": 4589, "\uc27d": 6657, "\u2581\uadfc": 1221, "\ubc29\uc548": 6308, "\u2581\ube14\ub799": 2510, "\u2581and": 704, "\ubc1c\ud45c": 6300, "\ub6ab": 5986, "\ubb34\ud55c\ub3c4\uc804": 6231, "\uac8c\uc784": 5401, "\u2581\ubc84\ub514": 2304, "\u2581\uc2ec\ud654": 3069, "\u2581\ubbf8\ub9ac": 2159, "\ub108\ubaa9\ub4e4": 5692, "\u2581\uad6c\uccb4\uc801\uc73c\ub85c": 1128, "\u2581\ubcf4\ud5d8\uc0ac": 2399, "\ub300\ud1b5\ub839": 5821, "\u2581\ud06c\ub2e4": 4684, "\u2581\uc7a5\uba74": 3960, "\ub125": 5705, "\u2581\uac15\ud589": 822, "\u2581\uc774\uc6c3": 3731, "\u2581\uc804\ubc18": 4037, "\u2581\ub9de\uc544": 1974, "\u2581\uc774\ub984\uc744": 3688, "\ub790": 6021, "\u2581\ub85c\uc774\ud0b4": 1891, "\u2581\uae5c\uc9dd": 1341, "\u2581\uc989": 4279, "\u2581\ub098\uc654\ub2e4": 1396, "\u2581\ud65c\uc6a9": 5146, "\ud22c\ub370\uc774": 7642, "\u2581\ubb38\uc81c\uac00": 2126, "\u2581\ube0c\ub9ac\ud551": 2509, "\u2581\uc0c1\ubb34": 2667, "\u2581\ub958\ud604\uc9c4\uc740": 1899, "\u2581\uc804": 4012, "\ub4e4\uc5d0": 5935, "\uc548\uc744": 6815, "x": 457, "\u2581\uaf2d": 1347, "\ucf58": 7539, "\ud38c": 7710, "\u2581\uc11c\ub85c": 2720, "\ubc0b": 6268, "\u2581\uc788\ub2e4\ub294": 3864, "\u2581\uafb8": 1353, "\u2581\ub118\uaca8": 1462, "\uaf49": 5624, "\u2581\uc5bc\ub9c8\ub098": 3253, "\u2581\ucf54\ub125\uc2a4": 4667, "\ub04c": 5644, "-": 47, "\u00a7": 472, "\u2581\ucc3d\uc870": 4442, "\u2581\ubc95\uc815": 2329, "\u2581\uc0ac\uc7a5": 2623, "\u2581\uc9c0\ud718": 4348, "O": 329, "\ubbf8\uc2a4\ud130": 6260, "\u2581\uc740\ud589": 3605, "\u2581\ud1b5\ubcf4": 4746, "\ub2db": 5780, "\u5c0f": 5270, "\u2581\ub530\ub77c": 1835, "\uc654\ub2e4": 6990, "\u2581\uc288\ud305": 2927, "\u2581??": 634, "\u2581\ub0a8\ub140": 1413, "\u2581\uacac": 936, "\ud504": 7753, "-20": 51, "\u2581\ubcf4\ub3c4\ud588\ub2e4": 2371, "\u2581'": 520, "\u2581\uc774\ubbf8": 3692, "\ub418\uba74": 5892, "\u2581\uac00\uc9c0\uace0": 768, "\u2581\ubd80\ub3d9\uc0b0": 2431, "\u300c": 5236, "\ub3c5": 5865, "\u2581\ubc84\uc2a4": 2305, "\u2581\uc5bb\uc5b4": 3247, "\u2581\ubaa8\ub978\ub2e4": 2051, "\u2581\uc885\ub85c\uad6c": 4199, "\ubba4\uc9c1": 6252, "\u2581\uac15\ud638\ub3d9": 823, "\ub9ac\ubc14\uc6b4\ub4dc": 6126, "\u2581\uacf5\uc2dc": 1044, "\u2581\uc0c1\ud669\uc774\ub2e4": 2694, "\u2581\uc778\uad6c": 3760, "\u2581\uc704\uc6d0\uc7a5": 3558, "NLL": 325, "\u2581\uc804\uc790": 4049, "\u2581\ud3c9\uac00\ud588\ub2e4": 4844, "\u2581\ub300\uc548": 1656, "\u500d": 5252, "\ub0ac": 5671, "\u2581NH": 677, "\u884c": 5313, "\u2581\ud3ec\ud568\ub41c": 4867, "\u2581\uc804\uc6a9": 4047, "\u2581\uc54c\uc81c\ub9ac": 3176, "\u2581\uc704\ud574\uc11c": 3568, "\u2581\ud5c8\uac00": 5038, "\ub2a6": 5767, "\u2581\uc800\uc7a5": 3994, "\u2581\uc790\uc874\uc2ec": 3923, "\u258132": 597, "\uba4b": 6188, "\u2581\ud2b9\ubcc4\uc0ac\uba74": 4779, "\u2581\ub2f4\ub2f9": 1610, "\ub538": 5962, "\u2581\uc5c6\uace0": 3271, "\u2581\ucc44\uc6a9": 4455, "\u2581\ub2ec": 1597, "\u2581\uc900": 4246, "\u2581\uc695": 3492, "\u2581C": 638, "\u2581\ud654\uc81c\ub2e4": 5122, "\u767e": 5302, "\uaf2c": 5615, "\u2581\uc758\ub8b0": 3623, "\ub85c\ubd80\ud130": 6080, "\u2581\uc790\ud68c\uc0ac": 3929, "\u2581\uc778\uae30\ub97c": 3764, "\ud559\uacfc": 7822, "\u2581\ucf54\uc2a4\ud53c": 4672, "\ubb38\uc81c": 6236, "\u2581\ubcf4\uc774": 2387, "\u2581\uc911\uac04": 4258, "\u2581\uccb4\ud5d8": 4499, "\u2581\uc815\uaddc\uc9c1": 4095, "\u2581\uc5f0\uc608": 3352, "\ub284": 5756, "\u2581\ud1b5\uc77c\ubd80": 4751, "\u258148": 610, "\ubc88\uc9f8": 6329, "\ud398\uc774\uc2a4": 7714, "28": 140, "\u2581\uc758\uc9c0": 3640, "\u2581\uc2dc\uc7a5\uc758": 2995, "\uc2a4\ucf00": 6679, "\u2581\uc870": 4162, "\u2581\ucda9\uc2e4": 4595, "\u2581\ud63c": 5100, "\u2581\uc900\ub2e4": 4248, "\u2581\uc5d0\uc774\uc2a4": 3290, "\u2581\uac10\uc0ac": 793, "\u2581\uc218\uc900\uc774\ub2e4": 2905, "\u2581\ub9d0\uae4c\uc9c0": 1959, "\u2581\ud22c": 4762, "\uad6c\uc870": 5501, "\u2581\uc0ad\uc81c": 2639, "\u2581\uc774\uac19\uc774": 3649, "\ud399": 7715, "\u2581\ub3d9\uc601\uc0c1": 1756, "\u2581\uadf9\uc911": 1219, "\u2581\ud648\ub7f0": 5106, "\ub839": 6077, "\u2581\ub5a8\uc5b4\uc9c4": 1860, "\ud788": 7996, "\u2581\ud604\ub300\ucc28": 5056, "\u2581\uc0ac\ub85c\uc7a1\uc558\ub2e4": 2594, "\u2581\ub204\uad70\uac00": 1530, "\u2581\ubfd0": 2571, "\uc791\uc5c5": 7171, "\u2581\uc778\ud130\ubdf0\uc5d0\uc11c": 3796, "\ubab8": 6222, "\u2581H": 652, "\u2581\ub300\ud55c": 1682, "BC": 271, "\u2581\uac15\uc6d0\ub3c4": 816, "\u2581\uae4a\uc774": 1339, "\u2581\ub9dd": 1968, "\u2581\ubd81\ud55c\uc774": 2467, "\u2581\ud604\ub300\uce90\ud53c\ud0c8": 5057, "\u2581\uae30\ubd84": 1282, "\u2581\uc9c4\ud654": 4378, "\u2581\uc5ed\uc2dc": 3327, "\u82f1": 5311, "\u25814": 605, "\u2581\uac00\uc2a4": 754, "\uc9c0\ubc29": 7332, "\ud56b": 7844, "\ucf20": 7531, "5000": 178, "\u2581\u4e2d": 726, "\u2581\uac15\uc6d0": 815, "\u00f8": 486, "\u2581\uc798": 3942, "58": 186, "\u2581\ub9de\ucda4\ud615": 1978, "\u2581\uc0dd\uac01\ud55c\ub2e4": 2708, "\ubc00": 6267, "\uc735": 7073, "\u2581\uc608\uce21": 3415, "\u2581\uc6d0\uc7a5": 3539, "\u2581\uc815\ub9d0": 4102, "\u2581\ub124\ud2f0\uc98c\ub4e4": 1473, "\ub274": 5753, "\ucc44": 7405, "\uafc0": 5630, "b": 380, "\ub35f": 5844, "\uba4d": 6189, "\u2581\uc704\ud5d8": 3571, "\u2581\ubbf8\uc0ac\uc77c": 2162, "\u2581\uc120\ucd9c": 2766, "\ucf54\uc2a4\ud53c": 7537, "\uc640": 6983, "\uc7ac\ub2e8": 7192, "\ubcbc": 6353, "\u2581\uc18c\uc9c0\uc12d": 2848, "\u2581\uad6d\uac00\ub300\ud45c": 1135, "\ucd08\ub4f1\ud559\uad50": 7447, "(20": 28, "\u2581\uc2dc\ud589": 3004, "...": 55, "\u2581\uc6b0\ub824\uac00": 3500, "\u2581\uc801\ubc1c": 4001, "\u2581\uc758\uacb0": 3621, "\ub098\ub294": 5658, "\u2581\ub2e4\ub9cc": 1569, "\u2581\uc774\uc885\uc11d": 3744, "\u2581\uc904\uc5ec": 4256, "\ub2ed": 5796, "\ud1a0": 7628, "\u2581\ucd9c\uad6c\uc804\ub7b5": 4569, "\uc370": 6764, "\u2581\ud638\uc870": 5093, "\ubd84\uc57c": 6422, "\ubc30": 6312, "\uc8fc\ud0dd": 7286, "\u2581\uc758\ud639": 3644, "\u2581P": 681, "\u2581\ud544\uc694\ud55c": 4923, "\ud050": 7563, "\u2581\uc5c4\ub9c8": 3257, "\u2581\uc81c\ud488\uc744": 4159, "\u2015": 496, "(23": 29, "\uc2e4\uc5d0\uc11c": 6740, "\u2581\uc5f0\uc608\uc778": 3354, "\uc0c8": 6536, "\u2581\uba85\uc608": 2037, "\u2581\ucc28\uc9c0\ud55c": 4417, "\u2581\ud638\ud3c9": 5097, "\ud2cb": 7672, "\u2581\uc2e0\uc778": 3026, "\u2581\ub4e4\uc5b4\uc624": 1810, "\u2581\uc790\uc2e0\ub4e4": 3911, "\uc5ec\uac74": 6918, "\ub8f9": 6101, "\uc20d": 6627, "\u2581\uc5c6\uc5c8\ub358": 3281, "\u2581\ubc30\uce58": 2296, "\uc11d": 6557, "\ub098\ub77c": 5659, "\u2581\uc77c\uc0c1": 3812, "\ub871": 6091, "\u2581W": 699, "\ube68": 6461, "\u2581\uc801\uc9c0": 4010, "\u2581\ucf54\uc2a4": 4670, "\u2581\ub0a8": 1409, "\ubab9": 6223, "\u2581\uadf8\ub7f0": 1201, "\u2581\ub4dc\ub7ec\ub09c": 1791, "\u2581\ucd5c\ub300\ud55c": 4529, "\u2581\ub5a0\uc624\ub974": 1855, "\u2581\uacf5\uaca9\uc218": 1031, "\ub465": 5913, "\ud0b7": 7579, "\u2581\ub3d9\uc591": 1755, "\ud600": 7899, "\uc5d0\ub3c4": 6901, "bp": 381, "\u2581\uc720\uac10": 3576, "\u2581\ucf54\uc2a4\ub2e5": 4671, "\u2581\uace0\ub824": 999, "\u2581\uaddc\uc815": 1182, "\uae4e": 5594, "\ubb38": 6234, "\u2581\uc804\ub0a0\ubcf4\ub2e4": 4017, "\u2581\ub370\ubdd4": 1707, "\ubc85": 6327, "\u2581\uad00\uac1d\ub4e4": 1075, "\ud601": 7900, "\u119e": 495, "\u2581ETF": 647, "\u2581\ucde8": 4598, "\u2581\uc9c0\ub2cc": 4309, "\u2581\ud22c\ud45c": 4772, "\uad76": 5518, "\u2581\ub9e4\ucd9c\uc561": 2002, "\u2581\uc601": 3376, "\u2581\uc190\ub2d8": 2861, "\u2581\uc774\uc815\ud604": 3741, "\u2581\ud588\uc9c0\ub9cc": 5021, "\ubcfc\ub137": 6387, "\u2581\ub208\ubb3c": 1537, "\u2581\uc804\ub144": 4019, "\u2581\ud3c9\ucc3d": 4849, "\u2581\ud55c\ud30c": 4973, "\u2581\ud610\uc758": 5070, "\u2581\uc778\uc0ac\ub97c": 3771, "\u2581\ubc1d\uc740": 2257, "\uacb9": 5421, "\u2581\ubc95\uc548": 2325, "ow": 431, "\ub2e8\uacc4": 5789, "\uc8fc\ub144": 7279, "\uc9c4\ud765\uc6d0": 7349, "\u25812005": 562, "ST": 350, "\u2581\ucd5c\uc800": 4537, "\u2581\ud480\uc774\ub41c\ub2e4": 4890, "19": 116, "\u2581\ubcf5\uadc0": 2402, "\u2581\uce58\ub7ec": 4618, "\uacfc": 5468, "\uad88": 5523, "\u2581\ud6a8\uacfc\uc801": 5173, "\u2581VIP": 698, "\u2581\ub0b4\ub193": 1438, "\uba70": 6197, "\uc3dc": 6772, "\u2581\ud574": 4998, "\u2581E": 645, "\u2581\ud56d\uc18c\uc2ec": 4997, "\ub77c\uc774\ud2b8": 6012, "\u2581\uac00\uc871\ub4e4": 766, "\uc0c1": 6527, "\u2581\ub300\ud574\uc120": 1689, "\u2581\ucd94\uac00\ub85c": 4543, "\u2581\uc190\uc5f0\uc7ac": 2863, "\u2581\uc2dc\uc7a5": 2991, "\u2581\uc804\uc561": 4044, "\ubd80\ub294": 6400, "\u2581\ub2e4\uc2dc": 1574, "\uc5ec\uba85": 6920, "\u2581\uc8fc\ub294": 4219, "://": 250, "\u2581\uac83\uc774\ub77c\uace0": 914, "\u4eac": 5249, "\u2581\uaca9\ub824": 932, "\u25812013.07.2": 574, "\u2581\uad6d\uc81c": 1155, "\u2581\ucda9\ubd84\ud788": 4594, "\uce58\uace0": 7484, "\ucbe4": 7382, "1.6": 101, "\ud0b4": 7578, "\u2581\uac78\uc5b4": 893, "\u2581\ud504\ub85c\ubaa8\uc158": 4900, "\u2581\ub300\ud615": 1690, "\u2581\ub098\uc130\ub2e4": 1386, "\ubd80\ub3d9\uc0b0": 6402, "\u2581\uae30\uc6b8": 1297, "\uc804\uc5d0": 7210, "\u2581\ube44\ud310": 2542, "\ub480": 5915, "38": 154, "\u258110": 533, "\u2581\uac80\uc99d": 899, "\u2581\uae40\uc601": 1326, "\u2581\ub2f4\uae34": 1609, "\ud6a8\uc728": 7967, "\uc911\uacac\uae30\uc5c5": 7296, "\u2581\uc601\uc5c5\uc775": 3385, "\u2581\uc678\ud658\uc740\ud589": 3478, "\u2581\ub3d5\ub294": 1740, "\u2581\uc790\uc804\uac70": 3922, "\u2581\ud130\uce58": 4729, "\ucf00\ubbf8\uce7c": 7524, "2013": 132, "\u2581\ub3d9\ubb3c": 1746, "\ub418\uc9c0": 5898, "\uc810\uc774": 7224, "\uace1": 5443, "\u2581\ub9c8\ub4dc\ub9ac\ub4dc": 1910, "\u2581\ud0c4": 4707, "\u2581\uc774\uc720\ub85c": 3734, "\uc790\uc640": 7165, "\uc7a5\uc5d0\uc11c": 7184, "\uacb8": 5420, "\uc57d\ud488": 6847, "\u2581\ubc1c\uae09": 2239, "\u2581\uc11c\ucd08\uad6c": 2731, "NTSB": 327, "\u2581\ud1b5\ud569": 4755, "\uc820": 7241, "\u2581\uc18d\uc5d0\uc11c": 2859, "\uc67c\ucabd": 6998, "\u2581\uc774\uc6a9": 3726, "\u2581\uc544\uc2dc\uc544\ub098": 3117, "!\u201d": 7, "\u2581\uad6c\ud604": 1131, "\u2581\ub808\uc54c": 1886, "\u2581\uc5b4\ub290": 3222, "\u2581\uc9d1\ud589": 4390, "\u2581\ubd88\ubc95": 2496, "\u2581\ud0dc\uad6d": 4721, "\u2581\uc8c4": 4212, "\u2581\uc81c": 4128, "\u2581\ud22c\uc790\uc758\uacac": 4769, "\ud0a4\ub85c": 7574, "\u2581\uaddc\ubaa8": 1179, "14": 111, "\u2581\uc0c1\ub300\ub85c": 2665, "\u2581\uc560\ucd08": 3199, "\u2581\uae08\ud488\uc744": 1249, "\u2581\uc2e4\uc2dc\uac04": 3044, "\u2581\uadc0": 1174, "\u2581\uc644\uacf5": 3456, "\uc624\ub298": 6966, "\uc787": 7140, "\ub3c4\ub85c": 5860, "\u2581\ubb34\ub9ac": 2107, "\u2581L": 666, "\u2581\uc0dd\uc0b0": 2714, "\uc2e4\ub9ac\ucf58": 6739, "\ud31f": 7693, "\u2581\uc8fc\uac70": 4216, "\u2581\ud0c0\uc790": 4706, "\u2581\uc5b4\uba38\ub2c8": 3236, "\ud559\uc2b5": 7826, "\u2581\ubc1b": 2220, "\u2581\ubabb\ud558\ub294": 2088, "\u6545": 5280, "\ub748": 5999, "\u2581\uc0ac\uc7a5\uc740": 2624, "\u2581\uc21c\ub9e4\ub3c4": 2914, "\u2581\uac00\uc785": 758, "\u2581\uc5f4\uc560": 3368, "\u2581\uaca8\uc6b8": 930, "\ubca0\uc774": 6344, "\u2581\uc644\ub8cc": 3457, "\u2581\ubb34\uc2b9\ubd80": 2111, "\uc5ee": 6927, "7": 202, "\u2581\ud0c8\ucd9c": 4713, "\ud5ec": 7897, "\u2581\ucf58\uc149\ud2b8": 4677, "\ud68c\uc758\ub97c": 7958, "\u2581\ubb34\uc774\uc790": 2115, "\u2581\uc751\ub2f5": 3614, "\ud22c\uc790\uc99d\uad8c": 7646, "\ub9dd": 6165, "\u2581\uc6b4\ub3d9": 3514, "\u2581\ubcf8\uaca9": 2409, "\u2581\uc788\ub294": 3860, "\uc794": 7172, "\u2581\uc218\ub9bd": 2876, "\ub534": 5961, "\u0301": 487, "ed": 390, "\u2581HOT": 653, "\u2581\uc11c\uc6b8\uc911\uc559\uc9c0\uac80": 2729, "\uad50\uc0ac": 5489, "\u2581\uc18c\ud654": 2854, "\ubd99": 6429, "\u2581\uc65c": 3466, "\ud22c\uc790": 7645, "\u2581\uae08\uc735\uac10\ub3c5\uc6d0": 1241, "\u2581\uc54a\ub294\ub2e4": 3152, "re": 437, "\u2581\uc2dc\uae30": 2965, "\u2581\uc678\uad50\ubd80": 3470, "\u2581\uc8fd": 4244, "\u2581\ud754\ub4e4": 5199, "\u25b7": 5223, "\ube8f": 6467, "\uc0c1\ub2f9\ud788": 6530, "\u2581\uba54\uc2dc\uc9c0\ub97c": 2019, "\ucc99": 7421, "\u2581\uc57d\uc138": 3212, "\ub611": 5981, "\uc53b": 6795, "\u2581\uace0\uac1d": 994, "\u2581\ud558\ub77d\ud588\ub2e4": 4936, "\ud558\uac8c": 7784, "\u2581150": 544, "\uc5d0\ub9cc": 6902, "\uc720\ub7fd": 7064, "18": 115, "\uc9c0\uad6c": 7322, "65": 197, "\u2581\uace7": 1014, "\u2581\ub9c8\ub828\ud588\ub2e4": 1912, "\u2581\ubd88\ub9cc\uc744": 2495, "\u2581\uc11d": 2732, "\u2581\ube60\ub978": 2557, "\u2581\uc131\ud3ed\ud589": 2798, "\u2581\ucd5c\uace0": 4522, "\ubcf4\uc7a5": 6375, "\u2581\ubba4\uc9c0\uceec": 2147, "\u2581\ub098\uac08": 1372, "\u2581\ubd84\uc57c\uc5d0\uc11c": 2480, "TV": 354, "\u2581\uccb4\uc81c": 4496, "\uc0ac\uc5c5\ubcf8\ubd80": 6504, "\u2581\ubd80\uc11c": 2443, "\u2581\uc6d4\ud654\ub4dc\ub77c\ub9c8": 3549, "\u2581\uc601\uc5c5": 3382, "\uba39": 6183, "\ucef7": 7521, "\u2581\uad1c\ucc2e": 1100, "\u2581\uc9c0\ucd9c": 4341, "\uc2e4": 6738, "\u2581\ubc14\uafb8": 2187, "\u2581\ub2f4\ubcf4": 1612, "\uccbc": 7442, "\u2581\ub098\uac00": 1371, "\u2581\uc804\ub144\ub3d9\uae30": 4021, "\ub300\uc0ac\uad00": 5815, "\ud5cc": 7890, "\u2581\ud6c8\ub828": 5184, "\u2581\uacfc\uc2dc\ud588\ub2e4": 1062, "\ub20c": 5746, "\uc2a4\ub9c8\ud2b8": 6673, "\uacb0\uacfc": 5416, "\u2581\uc804\ud658": 4065, "\ub9ac\uc9c0": 6131, "\ud14c\ud06c": 7619, "\u2581\uad6d\ubc29": 1149, "\uad70\uc758": 5514, "\u2581\uc77c\uc5b4\ub098": 3813, "\u2581\uc9c0\ub09c\ub2ec": 4305, "\u6771": 5287, "\ud241": 7652, "\u2581\uc778\uc2dd": 3781, "\u2581\uc801\uc774": 4007, "\uac70\ub798": 5379, "AT": 269, "02-": 84, "\u2581\uad6d\ud1a0\ubd80": 1160, "\u2581\uae09": 1250, "\u2581\ub2f9\uae30\uc21c\uc774\uc775": 1620, "\u2581\ubaa8\ubc14\uc77c": 2053, "\ucce4\ub2e4": 7445, "\u2581\uac16\ucd94": 827, "\u2581\uc678\ud658": 3477, "\u2581\uc18c\ubc29": 2830, "\u2581\ub108\ubb34": 1458, "\u2581\ud638": 5090, "\uc11c\ub294": 6554, "\u2581\uc911\uc2ec": 4267, "\u2581\uc9c0\ub3c4\ubd80": 4311, "\u2581\ubd84\uc7c1": 2484, "\uacbd\ucc30\uc11c": 5432, "\uc774\ub2e4": 7100, "\u2581\ub0b4\uc57c": 1448, "\u2581\uc5fc": 3374, "\ud3c4": 7722, "\u2581\uacc4\uc88c": 989, "\u2581\ub4e3\uace0": 1800, "\ub4f1": 5944, "\u97d3": 5327, "\u2581\ub3d9\ub8cc": 1745, "\u2581\uc120\ubc30": 2744, "\u2581\uc54a\uc744": 3163, "\u897f": 5314, "\ub3c4\ub85d": 5861, "\ub38c": 5858, "\u2581\ub450\uc0b0": 1776, "\u2581\ubaa8\uc9d1": 2067, "\u2581\uc608\uc57d": 3411, "\u2581\ud559\uc0dd\ub4e4": 4953, "\u2581\ub4ef\ud55c": 1814, "\u2581\ubc1b\uac8c": 2221, "\ucc38\uc5ec": 7399, "\uac08": 5340, "\u2581\uc6a9": 3494, "\u2581400": 608, "\u2581\uba74\uc811": 2032, "\uc6d4\ub4dc": 7030, "\uc704\ub97c": 7049, "\ub838": 6072, "\u2581\ubbfc\uc871": 2174, "\u2581\uc120\ud638": 2768, "\u2581\uacf5\ub2e8": 1035, "\uc8e0": 7275, "\uc808\ucc28": 7218, "\u2581\uc608\uc058": 3403, "\ub0b4\uac00": 5679, "\ubd24": 6395, "\uc558\uc9c0\ub9cc": 6830, "\u2581\uc804\ud600": 4062, "\u2581\ud544": 4916, "\ub51c": 5954, "et": 397, "\u2581\uac00\ub2a5\uc131\uc744": 740, "\u2581\ucf54\uce58": 4674, "ol": 428, "\u2581\ubc1c\ud0c1": 2250, "\uc3d8": 6770, "\ubca0\ub974": 6342, "\ucd2c\uc601": 7457, "\ud480": 7747, "\u2581\ub098\uc624\uace0": 1389, "\u2581\uc5c6\ub294": 3272, "\ud558\uaca0\ub2e4": 7785, "\u2581\uc54a\ub3c4\ub85d": 3154, "\u110b": 491, "\uc804\uc6b0\uce58": 7212, "\uace0\uc18d\ub3c4\ub85c": 5442, "\u2581\ub9c9": 1927, "\u2581\uc5ec\ub7ec": 3304, "\u2581\uad6d\ubbfc\uc5f0\uae08": 1146, "\u2581\ucc38\uac00": 4428, "\u2581\uc788\uc744": 3880, "\u5c0d": 5269, "\uae30\uae08": 5566, "\uc804\uc5d0\uc11c": 7211, "\ub41c\ub2e4\uba74": 5901, "\u2581\uc624\ub298\uc758": 3420, "\uc778": 7119, "\uc954": 7308, "\ucc0d": 7384, "\u2581\uc774\ub904": 3677, "\u2581\ucc98": 4464, "\u2581\ud130\ud0a4": 4730, "\u2581\uac8c\uc784": 926, "\ud6c4\ubcf4": 7969, "\u2581\uc5bc\ub9c8": 3252, "\ud5a5": 7886, "\u2581\ud658\uc790": 5140, "\u2581\ub0a0": 1407, "\ud558\uae30\ub3c4": 7790, "\u2581\u25c7": 724, "\ucc39": 7400, "\ub8cc": 6093, "\u2581\uc790\ubcf8\uc2dc\uc7a5": 3903, "\u2581\ud3d0": 4852, "\uc0dd\ud65c": 6545, "\u2581\uc2dc\uce74\uace0": 3003, "\uc648": 6986, "\u2581\uc81c\uce58\uace0": 4157, "\ud558\ub3c4\ub85d": 7803, "\u2581\uc601\ud654": 3394, "\u2581\uc778\uc6d0": 3783, "\u2581\uc218\ub3c4\uad8c": 2875, "\uc871": 7263, "\u2581\ubcf4\ub0b4": 2363, "\u2581\uac00\ub2a5\uc131": 738, "\u2581\ud6c4\ubb38\uc774\ub2e4": 5177, "\u2581\ub3c4\uc6c0": 1717, "ent": 393, "\u2581\uae40\uc885\ud559": 1332, "\u2581\uc131\uc7a5": 2792, "\ub974": 6113, "\ub0ae": 5674, "73": 212, "\uac14\ub2e4": 5349, "\u2581\uc5f0\uadf9": 3339, "\ubdf0": 6431, "\u2581\uc601\uc785": 3388, "\u2581\ucd08\ub300": 4504, "um": 448, "\u2581\ud32c\ub4e4": 4822, "\u2581\u2502": 716, "\u2581\uad6d\ubbfc": 1144, "\u2581\ub4b7\ubc1b\uce68": 1787, "\ud558\ub354\ub77c\ub3c4": 7801, "\u2581\ub86f\ub370\ub9c8\ud2b8": 1894, "\ube44\uc728": 6447, "\u2581\ubc1d\ud78c": 2264, "\ucc28\uc775": 7392, "\ud0a4": 7573, "0.8%": 78, "\u2581\uac83\uc774\ub780": 916, "\ub300\ud45c\ud300": 5823, "\u2581\uc815\uaddc": 4094, "\u2581\uadf8\ub9cc\ud07c": 1213, "\u2581\ubcf4\ub2c8": 2367, "\ubc8c": 6332, "\u2581for": 706, "\u2581\ub2e4\uc74c": 1577, "\ubc84\uc2a4": 6326, "\u2581\ube44\uc815\uaddc\uc9c1": 2538, "\u2581\uc774\uc6a9\ud560": 3729, "\u2581\ucc45\uc784\uc744": 4459, "\ud0c0\uc790": 7587, "\u2581\uc99d\uac00\ud55c": 4288, "\uc138\uc694": 6586, "\uc528\uc5d0\uac8c": 6789, "\uc138\uacc4": 6581, "\u2581\uac15\ub825\ud55c": 811, "\u2581\uc120\uc0dd\ub2d8": 2752, "\u2581\ub192\uc544\uc9c0\uace0": 1516, "\u2581\uc5c5\ubb34": 3264, "\ub144\ub9cc\uc5d0": 5716, "\u2581\ubd80\uc0b0\uc2dc": 2441, "\ubc84\ub9ac": 6324, "\uc2e0\uccad": 6736, "\u2581\uac19\uc740": 833, "\uc2dd": 6730, "\u2581\uc9c1\uc6d0": 4353, "\ub3d9\uc548": 5874, "\uc5b5\uc6d0\uc758": 6864, "\ucc54\ud53c\uc5b8": 7414, "\u2581\ub354": 1698, "\u2581\uad00\ub9ac": 1088, "\uad04": 5479, "\ud3a0": 7717, "\u258131": 596, "\u2581\uac00\uaca9\uc774": 730, "4%)": 159, "\u2581\uc785\ub2e8": 3839, "\u2581\uc694\uccad": 3490, "\uc810\uc744": 7223, "\u2581\uc2ec\ud310": 3068, "\uc558\ub2e4": 6828, "\u2581\uc758\uc7a5": 3638, "\u2581\uac83\uacfc": 906, "\u2581\ubcbd": 2338, "\u2581\uc784\uc9c1\uc6d0": 3835, "\uc131\uc744": 6576, "\u2581\uba64\ubc84\ub4e4": 2028, "\ub108": 5691, "C": 274, "\u2581\ub9cc\ub4e0": 1939, "\u2581\ubd80\uc791\uc6a9": 2448, "\u2581\ud558\uc774": 4942, "SK": 346, "\u2581\ub0b4\ub2ec": 1441, "\u2581\uc804\uc9c0\ud604": 4052, "\u2581\uae40\uc6a9": 1327, "\ub987": 6119, "\u2581\uae30\uc628": 1296, "\u2581\uc790\uc544\ub0c8\ub2e4": 3915, "\u2581\ube44\uc11c\uc2e4\uc7a5": 2531, "\u2581\ub04a\uc784\uc5c6": 1359, "\u2581\uace0\uc6a9": 1010, "\ub07d": 5651, "\ub860": 6084, "\uc600\uace0": 6945, "\uaf08": 5614, "\u2581\uc124\uba85\uc774\ub2e4": 2774, "\uba38\ub9ac": 6182, "\u2581\ubab8": 2084, "\uc774\uc0c1": 7110, "\u2581\uadc0\uc5fd": 1177, "lo": 422, "\u2581\uacf5\uc2dd": 1046, "\ud130\ubbf8\ub110": 7610, "\u2581\ud310": 4805, "\u2581\ub0b4\uc6a9\uc774": 1453, "\uc30c": 6758, "\uc6a9": 7003, "\u2581\ub178\ub7c9\uc9c4": 1480, "\uc218\ub97c": 6633, "\u2581\ubcf4\uc600\ub2e4": 2381, "61": 193, "\u2581\ud3ec\uae30": 4857, "\u2581\uc0ac\uc5c5\uc790": 2611, "\ub5d0": 5979, "\u2581\uc7a5\uad00\uc740": 3956, "\uace4": 5444, "\uc9ec": 7367, "55": 183, "\u2581\ub300\ube44": 1649, "\uc6d4\ubd80\ud130": 7033, "\u2581\ud604\ub300\uc790\ub3d9\ucc28": 5054, "\ucde8": 7476, "26": 138, "\uba48": 6187, "2)": 121, "\u2581\ub300\ub2f5": 1642, "\u2581\uc774\ud0c8\ub9ac\uc544": 3749, "\ub294": 5760, "\u2581\uc5f0\uc138\ub300": 3348, "\u2581\uc870\uc0ac\ud558\uace0": 4175, "\u2581\uc5ed\ub7c9": 3324, "\uc5d0\uac8c": 6897, "\uae4a": 5590, "\ub9e5": 6172, "\ub010": 5638, "\uc728\uc744": 7071, "\u2581\uc560\ud50c\ub9ac\ucf00\uc774\uc158": 3201, "\uacf5\uc5c5": 5461, "\u2581\ubd88\ud22c\uba85": 2498, "\uc57c": 6844, "\ucc2c": 7395, "\u2581\uc5f0\uc7a5": 3356, "\u2581\ub3c4\ucc29": 1723, "\u2581\ubd80\ub2f4\uc774": 2428, "\u2581\ucc28\ubcc4\ud654\ub41c": 4409, "\ud31d": 7692, "\u2581\uac10\ub3c5\uc740": 788, "\u2581\ub3c5\uc790": 1728, "\u2581\ub4e4\uc5b4\uac00": 1805, "\u2581\ubc16\uc73c\ub85c": 2206, "\u2581\ubbfc\ub0af": 2171, "\ub313": 5834, "\u2581\uae30\uae30": 1262, "\u2581\ubb34": 2095, "\u2581\ubb3c\ub180\uc774": 2138, "\u2581\ud615\uc2dd": 5084, "\u2581\uc815\ucc29": 4118, "\u2581\ub300\ud45c\uc774\uc0ac": 1677, "\u2581\uc694\uae08": 3484, "\u2581\uac83\uc744": 911, "\u2581\uc9c4\ud589\ud558\uace0": 4376, "\u2581\ub610\ub294": 1862, "\uc719": 7062, "\ubcf8\ubd80": 6384, "\u2581\uc8fc\ub9d0": 4223, "\u2581\uc785\uc8fc": 3847, "\u2581\uc194\ub85c": 2867, "\u2581\ucc3e\uc558\ub2e4": 4447, "\uc5bc": 6870, "\u2581\uc2a4\ud0dc\ud504": 2940, "\u2581\uc9c1\uc7a5": 4355, "\u2581\ube14\ub85c\uadf8": 2512, "\u2581\ubc15\uc778\ube44": 2203, "\u2581\ubc18": 2207, "\u2581\ucd1d\uad04": 4513, "\u2581\ub9de\ucd98": 1977, "----------------": 48, "\u2581\uc788\uc9c0\ub9cc": 3885, "\u2581\ub9ce\uc740": 1955, "\u2581\uc6d0\ud558\ub294": 3544, "\uc778\ub370": 7120, "\uc81c\ud488": 7239, "\u2581\uc131\uacfc": 2785, "\u2581\uc228": 2919, "\u2581\uc62c\ub9bc\ud53d": 3447, "\u2581\uc544\ub4e4": 3107, "\u258129": 587, "\u2581\uc804\ubd80\ud130": 4039, "\u2581\ub4f1\ub3c4": 1817, "\u2581\ub9d0": 1958, "\ucc9c\ub9cc": 7423, "\u2581\uae40\ud0dc\ud76c": 1335, "\ud168": 7626, "\ud68c\uc758\uc5d0\uc11c": 7959, "\uc6d4\uc5d0\ub294": 7035, "\ub3cb": 5867, "\ub98e": 6121, "\uc6d4\ub4dc\ucef5": 7031, "\u2581\uc0ac\uc6a9": 2613, "\u2581\uc591\uad6d": 3215, "\u2581\ucf00\uc774": 4663, "\u2581\ub8e8": 1895, "~6": 468, "\u2581\ud074": 4689, "\u2581\uc77c\uc744": 3817, "\u2581\ubd84\uc704\uae30": 2482, "\u2581\uc870\uc131\ubbfc": 4178, "\u2581\ub9de": 1970, "\uc77c": 7126, "\u2581\uc790\uc2e0\uc758": 3913, "\u6c5f": 5293, "\uc73c\ub098": 7075, "\uade0": 5536, "\uc728\uc774": 7072, "\u2581\uc804\uac1c": 4013, "\u1112": 493, "\u2581\ub298\uc5b4\ub0ac\ub2e4": 1557, "\u2581\uc0ac\uac74\uc744": 2575, "\u2581\uc0c1": 2658, "\ud6c8": 7970, "\ubcb5": 6352, "48": 170, "\u2581\ub9cc\ub4e4": 1940, "\u2581\ub0ae\uc740": 1431, "\u2581\ub9cc\ub09c": 1934, "\ud65c\ub3d9": 7949, "\u2581\uc5f4\ub9b4": 3366, "\u2581\ub958": 1897, "\uc774\ub77c": 7101, "\u2581\ud1b5\uc0b0": 4747, "\u2581\ucd95\uc81c": 4565, "\u2581\uba87": 2043, "\u2581\uc6d0\uc804": 3540, "\u2581\uaddc\uc81c": 1183, "\u2581\uc0bc\uc131\uc0dd\uba85": 2652, "\ub10b": 5694, "\u2581\uad00\uc2ec\uc774": 1091, "\u2581\uc870\ub9cc\uac04": 4169, "\u2581\ud3bc\uce58\uace0": 4839, "\ubb3c\uc744": 6242, "\u2581\ud655\uc2e4\ud55c": 5128, "\u2581\ub728\uac70\uc6b4": 1871, "\u2581\uc0b4": 2643, "\u2581\uacc4\uae30\uac00": 981, "\u2581\uc758\uc6d0\uc740": 3636, "ER": 283, "\ud2b9\ud788": 7667, "\uc0ac\uc774\ud2b8": 6510, "\u00df": 483, "\uc653": 6988, "\u2581\uc774\ub0a0": 3656, "\ud614": 7919, "\u2581\uc544\uc774\ud15c": 3126, "\u2581\ucd5c\ub300\uc8fc\uc8fc": 4528, "\u2581\uc758\uc2ec": 3632, "\u2581\uc774\ub85c\uc368": 3675, "\ub77c\uba74": 6009, "\u2581\ub0b3": 1433, "\uac80\ucc30": 5396, "71": 210, "\u2581\ubbfc\uc8fc\ud1b5\ud569\ub2f9": 2179, "\uac12": 5346, "\ud68c": 7953, "\u2581\uc57c\ub2f9": 3209, "\u2581\uc0bc\uccad\ub3d9": 2657, "LPGA": 314, "\uae5c": 5597, "\u2581\ud398\uc774\uc2a4\ubd81": 4831, "\ub300": 5808, "66": 198, "\u2581\ud558\ub098\ub85c": 4929, "\u2581\uc9c0\ub09c": 4304, "\u2581\uac10\uc548\ud558\uba74": 801, "ic": 406, "\uc2b7": 6702, "\u2581\uc26c": 2923, "\u2581\uc0ac\uc6a9\ud560": 2616, "\uc2dc\ud0ac": 6727, "\u2581\ubc1d\ud614": 2260, "47": 169, "\u2581\uac00\uc838": 763, "\u2581\uc5ec\uc720": 3316, "\u2581\uc61b": 3416, "\u2581F": 648, "\u2581\ucd08\uccad": 4508, "\u2581\ubc1c\uacac": 2236, "\u2581\uc6d0\ud654": 3545, "\ub300\ud55c": 5827, "\u2581\uac15": 807, "\uce35": 7482, "\uc838": 7245, "\u2581\ucde8\uae09": 4599, "il": 408, "\ud0d1": 7594, "\uc580": 6848, "\u2581\uc774\ub0b4": 3657, "\u2581\ubc1c\uc5b8\uc744": 2248, "\u2581\ubabb": 2086, "\u2581\uc0ac\uc804": 2625, "\u2581\uc99d\uac00\ud588\ub2e4": 4289, "\u2581\uacbd\uae30\uac00": 957, "\u2581\uc790\uc138\ud55c": 3908, "\u2581\uc7ac\uc6d0": 3983, "\ub420": 5902, "\u2581\uc815\uce58\uad8c": 4123, "\ud558\uc138\uc694": 7814, "\u2581\ubcf4\uc218": 2374, "\u2581\ub0a8\uacbc\ub2e4": 1411, "\u2581\ub300\uccb4": 1665, "\u2581\uc2b9\uc6a9\ucc28": 2956, "\u2581\uc555\ub958": 3181, "\ubc88\ud638": 6330, "\u2581\ube14\ub8e8": 2513, "\ub2f7\ucef4": 5803, "\u2581\ubd80\ud65c": 2460, "\ub79c": 6025, "\u2581\ubcf4\uc5ec\uc92c\ub2e4": 2380, "\u2581\uad6d\ub0b4\uc5d0\uc11c": 1139, "\u2581\ub1cc\ubb3c": 1525, "\ucc45\uc784": 7410, "\u2581\ub9c8\uc9c0\ub9c9\uc73c\ub85c": 1920, "\u2581\uac1c\uc131": 845, "\u2581\uc544\ud30c\ud2b8": 3131, "\uad6d\ubbfc": 5507, "\u2581\ucde8\uc7ac": 4607, "\u2581\ud2b9\uc218": 4783, "\u2581\ud1b5\uacfc": 4745, "\uad90": 5526, "\ub204": 5743, "\u2581\uac16\ucdb0": 829, "\u2581\ub125\uc13c": 1475, "\u2581\uc190\ud574\ubc30\uc0c1": 2865, "\u25812002": 559, "\u2581\uac01\uac01": 774, "\ud558\uc5ec": 7815, "\ud569": 7842, "\uc96c": 7309, "\u2581\uc1fc\ud551": 2871, "\u2581\uc644\uc804\ud788": 3462, "\ub2a5\ub825": 5766, "\u2581\ucd9c\ubc94": 4574, "\uad0c": 5480, "\u2581\ub3d9\ub0a8\uc544": 1744, "\u2581\uc81c\uc791\ubc1c\ud45c\ud68c": 4148, "\u2581\uc874\uc911": 4194, "\ubc29\ud5a5": 6310, "\u2581\ube60\uc838": 2558, "\u6587": 5281, "\ub4e0\uc9c0": 5929, "\uc885": 7268, "\u2581\ucd1d\uc7ac": 4517, "\uce78": 7499, ":": 249, "97": 246, "\ud614\ub2e4": 7920, "\u2581\ub4dc\ub7ec\ub098": 1790, "\u2581\ub3c4\uc640": 1716, "\u2581\uc131\ub2a5": 2788, "\u2581\ub2e4\ub8ec": 1565, "\u2581\ub2f9\ud669": 1632, "\u2581\ubc18\uc751\uc744": 2218, "\uacb0": 5415, "\uac00\uc871": 5334, "\uae5c\ucc0d": 5598, "\u2581\uc0ac\uc774\ubc84": 2619, "\u2581\uba85\ub2e8": 2035, "\u2581\uc774\ub044\ub294": 3652, "\uacbd\uc7c1\ub825": 5429, "\u2581\uc77c": 3803, "\u2581\ub300\ud654": 1692, "\uc7a5\uce58": 7189, "\u2581\uac1c\uc778": 847, "\u2581\uc2f8": 3076, "\u2581\uc81c\uae30\ub418\uace0": 4135, "\u2581\uace1": 1013, "\u2581\uad00\uad11\uac1d": 1081, "42": 164, "\u2581\uac15\uc81c": 817, "\u2581\ud3ec\ud56d": 4870, "\uc5d1\uc2a4": 6908, "\ud2ac": 7658, "\u2581MBC": 672, "\ud1a8": 7633, "\u2581\uc785\ud559": 3851, "\u2581\uc870\uc815": 4184, "\ud47c": 7746, "\uc774\uc5b4\uc11c": 7111, "\u6c11": 5292, "\ub838\uace0": 6073, "\ud3ed\ub825": 7735, "\u2581\uad6c\uccb4\uc801\uc778": 1129, "\u2581\uad6d\ubbfc\ub4e4": 1145, "\u2581\uac70\ub798": 867, "2011": 130, "\u2581\uc774\ub7f0": 3672, "\u2581\ud074\ub798\uc2dd": 4691, "\ucda7": 7471, "\uc544\ubc84\uc9c0": 6798, "\u2581\ucd1d\uc7a5": 4516, "\uc0bc\uc131\uc804\uc790": 6523, "\uc368": 6761, "\u2581\uac00\ub2a5\uc131\ub3c4": 739, "\u2581\uc62e\uaca8": 3452, "75": 214, "\ud22c\uc218": 7643, "\u2581\uc608": 3396, "\u2502": 514, "\ub1a8": 5740, "\u2581\ubcf4\uace0\uc11c": 2359, "\u2581\ubd84\ub9ac": 2473, "\u2581\uad50\ub958": 1105, "\ub86c": 6086, "\u2581\uc790\uc2e0\uc744": 3912, "\ud2f8": 7677, "\u2581\ucf00\uc774\ube14": 4664, "\ucfe0": 7550, "\u2581\uce68": 4630, "\u2581\uc804\ud574": 4059, "\u258120": 554, "\u2581\uac78\uccd0": 894, "\u2581\uadfc\uc808": 1228, "\u2581\uc5c5\uacc4": 3261, "\u2581\uc774\uc57c\uae30\ub97c": 3715, "\uad6d\ud68c": 5511, "\u2581\ubc1c": 2235, "\ub4e4\ub3c4": 5933, "\ubd81": 6412, "\u2581\uc778\uc218\uc704": 3778, "\uad6c\ub2e8": 5497, "\u2581\uae30\uc0ac": 1283, "\u2581\uba38": 2007, "\u2581\uac71\uc815": 880, "\u2581\uc608\uc220": 3410, "\ucc9c\uba85": 7425, "\u2581\ub098\uc124": 1384, "1,000": 97, "\u2581\uc774\ub974\ub294": 3682, "\u2581\ucd9c\uc11d": 4576, "\u2581\ucc2c\uc131": 4426, "\u2581\ucc54\ud53c\uc5b8\uc2ed": 4460, "\u2581\ub208\uae38\uc744": 1536, "\u2581\ud560\uc778": 4981, "\uc778\uc218\uc704": 7122, "\u2581\ucca0\uc800\ud55c": 4476, "\ub2ee": 5797, "\u2581\uc5f0\uc608\ubcd1\uc0ac": 3353, "\ud48d": 7750, "\u25b3": 5221, "\uc6d4\ub9d0": 7032, "\u2581\uc9c0\ud45c": 4345, "\u2581\ucc38\uc11d\ud55c": 4432, "\u2581\uae40\uc528\ub294": 1323, "\ubafc": 6226, "\ud074\ub77c\uc6b0\ub4dc": 7569, "\u2581\uc548\uc804": 3139, "\uba54": 6190, "\uc98c": 7312, "\uc270": 6654, "\u2581\ubc8c\uc5b4\uc9c4": 2313, "\u2581\uc804\ub0a8": 4018, "\u2581\uadf8\ub8f9": 1208, "\u2581\ucd9c\ub3d9": 4572, "\u2581\uc0c1\uc9d5": 2678, "\u2581\uc785\uc7a5": 3844, "\u2581\uc5f4\uc5c8\ub2e4": 3371, "\u2581\uc778\uc0c1": 3773, "\u2581\uce6d\ucc2c": 4634, "\u2581\ubbf8\ub4dc\ud544\ub354": 2153, "\uc5c8\ub2e4": 6888, "\u2581\ud558\uba70": 4938, "ir": 411, "\u2581\ub0b4\ub824": 1442, "\u2581\uac01": 773, "\u2581\ud758\ub9ac": 5202, "\uc288": 6658, "\u2581\ub2e4\uc9d0": 1583, "\u2581\ubb34\ub300\ub97c": 2099, "\u2581\uc0c8\ubcbd": 2701, "\u2581\ub274\uc2a4": 1542, "\u2581\ub9e1\uc558": 1983, "\uc528\uc640": 6790, "\u2581\ub300\ubc95\uc6d0": 1645, "\u2581\uc758\uc874": 3639, "\ud6a1": 7964, "\ub0d0": 5689, "\ub989": 6120, "\u25812013": 570, "\u2581\uadf8\ub9bc": 1212, "\u2581\ub3c4\uc2ec": 1714, "\u2581\ub4f1\uc744": 1824, "\u2581\ubaa8\uc5ec": 2064, "\u2581\uc7a5\ud559\uae08": 3968, "\ucc28\ub7c9": 7390, "\ud560": 7836, "\u2581\ud559": 4948, "\u2581|": 711, "\u2581\ubc18\uc804": 2219, "f": 398, "\u2581\uc608\uace0": 3397, "DI": 281, "\ubb3c": 6241, "\ud770": 7995, "\u2581\ub2e4\ub9ac": 1568, "\uac1c\uc6d4": 5366, "\u2581\uc2eb\uc5b4": 3059, "\u2581\ub098\uc654": 1395, "\u2581\ub9e4": 1986, "\ub4dc\ub294": 5921, "\u2581\uc9c0\uc801\ud588\ub2e4": 4337, "\u2581\ub300\ud559\uc0dd": 1681, "\u2581\ud638\uc18c": 5091, "\uc544\uce74\ub370\ubbf8": 6807, "\u2581\ub0b4\uc6a9\uc744": 1451, "\u2581\uc18c\ud3ed": 2851, "\u2581\uccb4\ud06c": 4497, "\u2581\uacc4": 980, "\u2581\uc131\ub0a8": 2787, "\uc5b5": 6858, "\u2019(": 499, "\u2581\uac00\uacc4": 731, "\u2581\ubc29\uc2dd\uc73c\ub85c": 2278, "\ub2f4": 5798, "\uc640\uc758": 6984, "\uc911\uc559": 7301, "\u2581\uce58": 4617, "\uc120\uac70": 6560, "\uc774\uae30\ub3c4": 7097, "\u2581\ubaa8\uc2b5\uc774": 2059, "\uacf5\ud654\uad6d": 5466, "AP": 266, "\u2581\uac83\uc73c\ub85c": 909, "\u2581\ud798\uc744": 5214, "\ub7ff": 6045, "\uc774\uba70": 7108, "\u2581\uacbd\ub0a8": 962, "\u2581\uadf8\ub824\uc84c\ub2e4": 1207, "\u2581\uae38": 1315, "IN": 302, "\uac24": 5371, "\ub9ac\uc2a4\ud2b8": 6128, "\uc544\uc774": 6804, "\u2581\ub9c8\uac10\ud588\ub2e4": 1909, "\u2581\uc790\uc2e0\uac10": 3910, "\u2581\uc528": 3088, "\u2581\ub099\ucc30": 1405, "\u2581\uc804\uad6d": 4014, "\u2581\ubaa8\ub378": 2046, "g": 399, "\uae30\uc220": 5575, "PD": 335, "\u2581\ub300\ud55c\ud56d\uacf5": 1684, "\ub418": 5886, "\u25c6": 5227, "\u2581\uc544\ub0b4": 3096, "\ud559\uc6d0": 7827, "\u2581\ud3ec\ud568\ub3fc": 4865, "\ud234": 7650, "\u2581\ub4dc\ub808\uc2a4": 1796, "\u2581\uc11c": 2718, "\u2581\uc138\ubd80": 2809, "\u2581\ucde8\uc18c": 4602, "\uc131\uc7a5": 6578, "\u2581\uafc8\uafb8": 1357, "\u2581\uc528\uac00": 3089, "\u2581\uc678\uad6d\uc778": 3472, "\u2581\ubc84": 2302, "\ubc31\ud654\uc810": 6315, "\u2581\uae68": 1342, "\u2581\uacbd\ud5d8": 979, "\uc120\uc218": 6562, "\u2581\uc81c\uc548": 4142, "\u2581\uc2e0\ud55c\uc740\ud589": 3032, "\u2581SNS": 691, "\ucee8\uc124\ud305": 7515, "\u2581\uacb0\uacfc": 938, "\u2581\uc0b4\uc544": 2644, "LED": 312, "\uad75": 5517, "\uc18c\ub9ac": 6609, "\u2581\ubb3c\uc5b4": 2143, "\u2581\ud6a8\uacfc": 5170, "\u2581\uc804\ubb38\uac00\ub4e4\uc740": 4036, "\u2581\uae30\uc220": 1289, "CI": 277, "\u2581\ud328": 4815, "\u2581\uc5f4\uc2ec\ud788": 3367, "\u2581\uc870\uc120": 4176, "\u2581\ud615\uc0ac": 5082, "\ubd89": 6425, "\ucea0\ud37c\uc2a4": 7508, "\u2581\uac80\uc0ac": 897, "\u2581\uce58\ub8cc\ub97c": 4620, "\uaebc": 5604, "\uc791": 7170, "\ubbf9": 6261, "\u2581\uac19\uc544": 832, "\u2581\ubc29\uc1a1\ub41c": 2274, "\u2581\ud68d\ub4dd": 5167, "\uc369": 6762, "\u2581\ub9c8\uce5c": 1925, "\uc81c": 7234, "\u2581\ub2e4\ud558\uaca0\ub2e4": 1584, "\ud2bc": 7668, "\u2581\ub113": 1459, "\u2581\uad00\ub828\ud55c": 1086, "\u2581\uc808": 4067, "\u2581\ucd09\uad6c": 4509, "\u2581\ud50c\ub7ab\ud3fc": 4907, "NS": 326, "\u2581\uc774\ud589": 3753, "\u2581\ucd9c": 4568, "\u2581\uacfc\uc5f0": 1063, "\u2581\ub0a0\uc528": 1408, "\u2581\ud729\uc4f8": 5190, "\ubd59": 6397, "\ub308": 5832, "\u2581\ubc1c\ubaa9": 2241, "\u2581\uac8c\uc7ac": 927, "\u2581\ub05d\ub09c": 1366, "\u2581\ub9c8\ub9ac": 1913, "\ud588\ub2e4": 7869, "\ub371": 5853, "t": 442, "\ubd24\ub2e4": 6396, "69": 201, "\uad8c\uc744": 5525, "\uc601\uc0c1": 6952, "\ud45c": 7741, "\u2581\ub808": 1884, "\ub9bd": 6137, "\ub9cc\uc6d0\uc744": 6155, "\u2581\uc0c1\uc2b9\uc138\ub97c": 2672, "\uc601\ud654\uc81c": 6955, "\ub2f9\uad6d": 5805, "\u2581\uac80\ucc30\uc5d0": 901, "\u2581\ubabb\ud560": 2091, "\u2581\uc774\ub77c\ud06c": 3669, "\u2581\ucd5c\uc18c": 4531, "\ub561": 5968, "\u2581\uc0c1\ud5a5": 2686, "\u2581\uacf5\uac10": 1025, "\u2581\uc5ec\ubc30\uc6b0": 3309, "\ud55c\uad6d": 7829, "\u2581\ud3b8\ub9ac\ud558\uac8c": 4833, "\u2581\ucd2c\uc601": 4518, "\u2581\uc120\uc218\ub4e4\uc774": 2757, "\ud56d\uacf5": 7847, "\u2581\uc9c0\ub098": 4303, "[": 362, "\uc500": 6782, "\u2581\uad49\uc7a5\ud788": 1102, "\u2581\ubba4\uc9c1\ube44\ub514\uc624": 2148, "\u2581\uaf43": 1351, "\u2581\uc81c\uc870": 4151, "\u2581\uac00\ub7c9": 746, "\uaca0": 5405, "\uc3e0": 6774, "\u2581\uc0c1\ud558\uc774": 2684, "\ud574": 7848, "\u2581\uc0c1\uc2b9": 2670, "\u2581\ud328\ubc30": 4817, "\uafc7": 5631, "\u2581\uc774\ud6c4": 3756, "\ud0a8": 7576, "NA": 323, "\u2581\uac00\ub2a5": 737, "\u2581\ubaa9\uc801\uc73c\ub85c": 2077, "\uc774\ub77c\uba74\uc11c": 7106, "\u2581\uc800": 3990, "\u2581\uc55e\uc5d0": 3190, "\uaca0\ub2e4": 5406, "\ud2b9\uc9d5\uc8fc": 7666, "\u6d77": 5294, "\ud6d4": 7973, "\ub3d5": 5870, "\u2581\ubca4": 2336, "\u2581\uc5f0\uae30\ub97c": 3342, "\uacf5\uc6d0": 5463, "\u2581\uad6d": 1132, "\uc7ac\uc0b0": 7194, "\u2581\ud574\uc678": 5012, "\uc800": 7199, "\u2581\uc81c\ud734": 4161, "\u2581\uac1c\ud601": 859, "\u2581\uc218\uc11d": 2885, "\u2581\uacfc\uc2dc": 1061, "\uc544\uc2dc\uc544": 6800, "\u2581\ube44\uc11c\uc2e4": 2530, "\ud22d": 7648, "\ub9d9": 6163, "\ubbf8\ub798": 6258, "\ud0f1\ud06c": 7608, "\uace8": 5446, "\u2581\uc5bb\uc5c8\ub2e4": 3248, "\u201c": 501, "\uc313": 6760, "\u2581\uc608\uc815": 3413, "\u2581\uc9c0\uc6d0": 4331, "\u25811998": 551, "\u2581\uc704\ud0c1": 3565, "\u2581\uc5b4\ub824\uc6c0": 3228, "\u2581\ud611\uc57d": 5077, "\uc0dd\uba85": 6543, "\u2581\uc678\ubaa8": 3473, "\u2581\ub514": 1830, "\uc178": 6606, "\u2581\ubcc0\ud638\uc0ac": 2345, "\u2581\ub4f1\uc5d0": 1820, "\u2581\uae00\uacfc": 1232, "\u2581\uac83\uc774": 912, "\u2581\uc2dc\uac04\uc744": 2963, "\u2581\ubabb\ud558\uace0": 2087, "\u2581\uc694\uae08\uc81c": 3485, "\u2581\uae30\ub2a5\uc744": 1265, "\u2581\uc7a5\uc560\uc778": 3964, "\ub754": 6000, "\u2581\uc790\uae08": 3889, "\u2581\ud6c4\ubcf4": 5180, "\ub378": 5855, "\u2581\uc218\uc815": 2901, "\u2581\uadf8\ub294": 1191, "\u2581\uc801\uadf9\uc801\uc73c\ub85c": 3998, "\u2581\ubd80\ucc44": 2455, "\ubee5": 6476, "\u91d1": 5322, "\u2581\ud568\uaed8": 4983, "\u2581\uac00\uc9c0": 767, "\u2581\u25b7": 721, "\u2581\uac1c\ub9c9": 838, "%": 11, "80": 222, "\u2581\uad50\ud658": 1114, "\u2581\ubc18\ubc1c": 2214, "\u2581\ubc1d\ud600\uc84c\ub2e4": 2259, "\u2581\uc758\ud68c": 3646, "\u2581\uc784\uae08": 3827, "\u2581\uc18c\ud1b5": 2850, "\uafb8": 5628, "\uc784\uc744": 7137, "\uc625": 6970, "\u2581\uba5c\ub85c": 2026, "\ud2c0": 7670, "\ud638\ud154\uc5d0\uc11c": 7929, "\ub418\uc5c8": 5895, "\ud2b8\ub9ac": 7662, "\uc637": 6981, "\u2581\uc0c1\ud55c\uac00": 2685, "\ucfe0\ud0a4": 7551, "\u2581\uc5c6": 3270, "*": 44, "\u2581\uc778\uc0ac\uccad\ubb38\ud68c": 3772, "6%": 189, "49": 171, "\u2581\ubbf8\ub904": 2158, "\uba85\uacfc": 6205, "\u2581\uc6a9\uc0b0": 3495, "\u2581\ub192\uc774": 1521, "\u2581\uc313": 3079, "\u2581\uc6b4\uc601": 3517, "\u2581\uc6b4\uc6a9": 3519, "\ubca8": 6349, "\u2581\ub300\ub2e8": 1641, "\uac13": 5347, "\ub364": 5845, "\u2581\ube44\ub86f\ud55c": 2525, "\ub2dd": 5781, "\u2581A": 635, "\u258121": 579, "\uac15\ub0a8\uc2a4\ud0c0\uc77c": 5351, "\ubc84": 6323, "\u2581\uacf5\ud56d": 1055, "\u2581\uac80\ucc30\uc740": 902, "\ud2b8\ub85c": 7661, "\u2581\uc608\uc804": 3412, "\uba85\uc758": 6210, "\u2581\ucc44": 4451, "\u25c8": 5229, "\uc694\uae08": 7000, "\u2581\uacb0\ud569": 949, "\uc584": 6849, "\uc5f0\ub9f9": 6933, "\uc804\ubb38": 7209, "\u2581\ud3ed\ud48d": 4877, "\uac77": 5389, "\uc3d9": 6771, "\u2581\ubaa8\uc591": 2063, "\uc624\ud1a0": 6968, "\u2581\uc9c0\uc810": 4338, "\u2581\uc788": 3854, "\u2581\uc2e4\uc9c8\uc801\uc778": 3052, "\u2581\uadf8\ub807\uac8c": 1204, "\u2581\ucc38\uc5ec\ud55c": 4436, "\uad11": 5481, "\uc7a5\uc560\uc778": 7183, "\ub838\uc9c0\ub9cc": 6076, "9000": 239, "\u2581\uc601\ud5a5\ub825": 3391, "\u2581\ucd94\uaca9": 4544, "\uc6f0": 7042, "\u2581\ubaa9\uaca9": 2069, "\u2581\ubc8c\uc600\ub2e4": 2314, "\u2581\ud32c\ub4e4\uc5d0\uac8c": 4823, "\u2581\ub2f4": 1607, "\uacaa": 5413, "\u2581\uc6b0\ub9ac\ud22c\uc790\uc99d\uad8c": 3506, "\uc84c": 7248, "en": 392, "K": 307, "\u2581\ucc28\uc9c0\ud558\ub294": 4416, "\u2581\uc131\ud5a5": 2799, "\u2581\uc5b4\ub9b0\uc774": 3234, "\ud0c1": 7589, "\u2581\uc9d1\uad8c": 4387, "\ud138": 7613, "\u2581\ubb3c": 2135, "\u2581\ud574\uc591": 5011, "\u7fd2": 5308, "\u2581\uc804\uc5ed": 4046, "\uc77c\uae4c\uc9c0": 7128, "\u2581\uc8fc\uace0": 4217, "\u2581\ub9e4\uc7a5": 1998, "\uc3df": 6773, "\u2581\ud655\uc778\ud560": 5132, "\u2581\ud0d0": 4714, "\uc548": 6812, "03": 85, "\ud3ab": 7718, "\ub0c8": 5686, "\uc7a0": 7175, "\u2581\ucc3d\uc5c5": 4440, "\u2581\uae08\uc561": 1239, "\ub4e4\uc774": 5940, "\u2581\uc778\uae30": 3763, "\u5bb6": 5268, "\u2581\ub2e4\uc800\uc2a4": 1581, "\u2581\ubbf8\uad6d\uc758": 2151, "\u2581\uae40\uc5f0\uc544": 1325, "\u2581\ud3ec\ud568\ud574": 4869, "\uae08\uc561": 5553, "\u2581\ubc14\ub010": 2190, "\u2581\ub9cc\ub0ac\ub2e4": 1937, "\uc790\ub9c8\uc790": 7160, "\u2581\uace0\uc704": 1011, "\u2581\uc2ec\uacbd": 3063, "\ubd80": 6398, "\u2581\uce21\uc815": 4616, "\u2581\ub124\uc774\ubc84": 1470, "\u2581\uc720\uc5d4": 3587, "\u2581\ud6e8\uc52c": 5187, "\u2581\uc21c\uac04": 2913, "\u2581\ub9c9\ud310": 1930, "\u2581\uc7a1\uc558\ub2e4": 3953, "\u2581\ubbf8\ub9cc": 2160, "\u2581\ubbfc\uc0dd": 2172, "\ud035": 7561, "\u2581\uacfc\uac10": 1057, "\u2581\uc774\uc0c1": 3704, "\u2581\ub454\ud654": 1778, "\ud50c\ub79c\ud2b8": 7763, "\ud53c\uc2a4": 7768, "\u2581\uc2dc\uc2e0": 2984, "\u2581\uc774\uc5b4\uc84c\ub2e4": 3719, "\u2581\ud2f0\uc544\ub77c": 4794, "\uc813": 7226, "\uca61": 7374, "\ubcf4\ub2e4\ub294": 6372, "\u2581N": 675, "\u2581\ub4e3": 1799, "\ubca0": 6341, "\ub824\uba74": 6063, "\u2581\uc0ac\ub840": 2592, "\u2581\uc815\ubcf4\ub97c": 4104, "\u2581\uacfc\uc815": 1065, "\u2581\ubaa8\ube44\uc2a4": 2054, "\uc2dc\ucf30\ub2e4": 6721, "\u2581\ubcf4\ud1b5": 2396, "\u2581\uc18d": 2856, "\u2581\ubc1b\uc544\ub4e4\uc774": 2228, "\u2581\uadf8\ub7f0\ub370": 1202, "\ud544": 7774, "\ubc15\uadfc\ud61c": 6281, "\ub545": 5964, "\u2581\ucde8\uc7ac\uc9c4": 4608, "\ub828": 6067, "\ud3c8": 7723, "\u2581\uc120\uace0": 2736, "\u2581\uc6b4\uc1a1": 3516, "\ucef8": 7522, "\ud638\ud154": 7928, "\u2581\ud654": 5112, "\ud145": 7617, "\u2581\ubd80\uacfc": 2425, "\u2581\uc801\uc790": 4008, "\ubc45": 6321, "\u25b2": 5220, "\u2581\ud751\uc790": 5198, "\u2581\uc0ac\ubb34\ucd1d\uc7a5": 2601, "\u2581\ubc14\ud0d5\uc73c\ub85c": 2198, "\u2581\ud53c\ud574": 4912, "\uad00\ub9ac": 5478, "\u2581\uad00\ub828": 1083, "\u2581\uae30\uc870": 1299, "\ud0a5": 7575, "\u2581\ud53c": 4909, "\u2581\uc815\ud655\ud55c": 4125, "\uc84c\ub2e4": 7250, "\uc560": 6834, "\u2581\uc0b0": 2640, "\u2581\uc560": 3194, "\u2581\ub9cc\ub0a0": 1935, "\u2581\ub108": 1457, "\u2581\uac80\ucc30": 900, "\ub2e8\uccb4": 5791, "\u2581\uc99d\uba85": 4293, "\u2581\ub458": 1779, "\u2581\uc5d0\ub108\uc9c0": 3285, "\u2581\uc778\uc0dd": 3774, "\uc378": 6765, "\u25812001": 558, "\u2581\uae30\ub300\uac10": 1268, "\u2581\uc0ac\ubb34": 2599, "\ub730": 5995, "\ud30c\uc6b4\ub4dc": 7683, "\uc73c\uba74": 7083, "\ud380": 7707, "\u2581\ub808\ub4dc\uce74\ud3ab": 1885, "A": 264, "\u2581\uc801\uc740": 4005, "\u2581\ubcf4\uace0": 2358, "\u2581\uac81\ub2c8\ub2e4": 904, "\u2581\ub098\ub220": 1374, "\u25b6": 5222, "\uacbd": 5424, "\u2581\ub9e4\ub2ec": 1989, "\u2581\uc788\uc5c8": 3871, "L": 311, "\u2581\uc2a4\ud53c\ub4dc": 2947, "\uadf8\ub3d9\uc548": 5539, "\u2581\uc0c1\ud669\uc5d0": 2690, "\u2581\uc774\ucc98\ub7fc": 3748, "\ucc28\ub840": 7391, "\u2581\ud604\uc7a5\uc5d0\uc11c": 5063, "\ud3ed": 7734, "\ube57": 6455, "\uae50": 5595, "\u2581\ub3cc\uc544\uac00": 1735, "\uc0ac\ub791": 6499, "\u2581\uc54c": 3166, "\ud765": 7991, "\u2581\ubcf4\uba74": 2372, "\u25812~3": 588, "\u2581\uac1c\ubc29": 840, "\u2581\ubc18\ubc15\ud588\ub2e4": 2213, "\u2581\uc9d0": 4383, "\u2581\uc815\ubd80\uc758": 4110, "us": 451, "\u2581\uba85": 2034, "\u2581\uc774\uc720\ub294": 3733, "\uc989": 7311, "\u2581\ub2e4\ubb38\ud654": 1570, "\u2581\uc120\ud0dd": 2767, "\u2581\ud2b9\ud61c": 4791, "\ubc94\uc8c4": 6334, "\ud478\ub4dc": 7744, "~1": 464, "\ud588\uace0": 7865, "\u2581\uae30\uad00": 1261, "\u2581\ub098\ud0c0\ub098": 1399, "\u2581\uc704\ucd09": 3561, "\u2581\uc788\uac8c": 3855, "on": 429, "\ucce4": 7444, "\u2581\uad50\uc721": 1109, "\u2581\ubc29\ud1b5\uc704": 2284, "\uc790\uc0b0": 7162, "\uae40": 5586, "\u2581\ud574\uc11c": 5007, "\uc790\uc0b0\uc6b4\uc6a9": 7163, "\uc379": 6766, "\u2581\uc6b4\ud589": 3523, "\u2581\uae30\ud68d": 1309, "\uae0d": 5560, "\u2581\ubb3c\ud488": 2144, "\uc704\uc6d0": 7052, "\u2581\uc695\uc2ec": 3493, "\u2581\uacf5\uc815\uc704": 1053, "\ud479": 7745, "\u2581\uac70": 862, "\u2581\uc774": 3647, "\ud074\ub9ac": 7571, "\u2581\uc5f4\uc815": 3372, "\u2581\uc9c1\ubb34": 4351, "\ud54c": 7777, "\u2581\ubcf4\uae09": 2361, "\u2581\uc608\uc0c1\ud588\ub2e4": 3409, "\u2581\ud55c\uacc4": 4957, "\u2581\uc801": 3996, "\u2581\ud56d": 4992, "\uc21c\uc704": 6644, "\u25812013-0": 571, "\u2581\ub098\uc11c": 1381, "\u2581\ud798\ub4e4": 5213, "\u258130": 592, "\u2581\ube60\uc84c\ub2e4": 2559, "\uc5fc": 6941, "\uc8c4": 7274, "\uc6b4": 7010, "\ud131": 7611, "\u2581\ub098\uc911\uc5d0": 1398, "\uc5d0": 6896, "\u2581\ub2e8\uc21c": 1591, "\u2581\uc8fc\ubbfc": 4228, "\uc73c\ub85c\ubd80\ud130": 7079, "\u2581\uc0dd\uae34": 2711, "\uc9e7": 7366, "\u2581\ud0dc\uc591\uad11": 4725, "\ud61c\ud0dd": 7924, "\uadfc": 5546, "\uc138": 6579, "\uc7ac\ub8cc": 7193, "\u2581\uc545": 3133, "\u2581\ub17c\uc758": 1502, "\u2581\ub300\ub9ac\uc810": 1643, "\u2581\uacf5\ubc31": 1041, "\u2581\ud638\ud22c": 5096, "\ubc0d": 6270, "\uae4c": 5591, "(15": 23, "IS": 304, "\u2581\uc9c1\ud6c4": 4359, "\u2581\ud300": 4797, "\uac74\uac15": 5385, "\u2581\ub0a9\ud488": 1428, "N": 322, "\u2581\uc62c\uc2a4\ud0c0\uc804": 3449, "\uc635": 6979, "FI": 287, "\u2581\uad6c\uc18d\uae30\uc18c": 1123, "\uc2b5\ub2c8\ub2e4": 6701, "\u2581\uc9c0\uc18d\ub420": 4322, "\u2581\uc5bb\uace0": 3246, "\ud074": 7568, "\u2581\ubc29\uc1a1": 2272, "\u2581\uba74\ubaa8\ub97c": 2031, "\u2581\ub178\ud2b8\ubd81": 1490, ")'": 41, "\ud558\ub2c8": 7797, "\u2581\uc7a5\uc810": 3966, "\u2581\uad6c\uc131": 1120, "\u2581\uc571": 3205, "\u2581\ubbf8\uce58\ub294": 2165, "\u2581\uc778\ud558": 3800, "\u2581\uc790\uc0ac": 3904, "\ub048": 5642, "\ub9f7": 6176, "\ube45": 6449, "\u2581\ub9c8\uc74c\uc744": 1918, "\u2581\ud488": 4891, "\u2581\uacfc\uc81c": 1068, "\u2581\ud6fc\uc190": 5188, "\u2581\ud574\uc6b4\ub300": 5013, "\u2581\uc99d": 4285, "\u2581\ub4f1\ub85d": 1818, "\u2581\uc2e4\uc801\uc774": 3048, "\u2581\ucc38": 4427, "\u2581\ubcf8": 2408, "\u2581\uc624\ud508": 3432, "\u2581\uace0\uc2a4\ub780\ud788": 1007, "\u2581\uc0ac\uc2e4\uc744": 2606, "\u2581\uc9c0\uc18d": 4321, "\u2581\ubd84\uc57c": 2479, "\u2581\uc99d\uad8c\uc0ac": 4292, "\u2581\ud2b9": 4777, "\u2581\ud310\ub2e8": 4807, "\u2581\uc124\uc815": 2778, "\u2581\ud504\ub9ac\ubbf8\uc5c4": 4906, "\ub354": 5837, "??": 260, "\ucd94\uc9c4": 7462, "\ud141": 7615, "\uac1c\ub97c": 5361, "\u8349": 5312, "\ud50c\ub808\uc774": 7765, "\uacbd\uc81c": 5430, "\uc911\uc18c\uae30\uc5c5": 7299, "\ub729": 5992, "\u2581\ub0a8\ubd81\uad00\uacc4": 1417, "\uc9c0\uc6d0": 7338, "\uc5bd": 6871, "\ub3c8": 5866, "\u2581\uc54a\uc740": 3162, "\u2581\uc6b0\ub9ac\ub098\ub77c": 3503, "1\u20442": 117, "\uc0b0": 6516, "\uc0ec": 6547, "\uc601": 6951, "\u2581G": 650, "at": 377, "\uace7": 5445, "\ub9cc\ub2ec\ub7ec": 6151, "\u00ae": 474, "le": 421, "\u2581\uc131\uacfc\ub97c": 2786, "\uc218\uc9c0": 6641, "\uc900\ube44": 7289, "\ub110": 5696, "\ud398\uc2a4\ud2f0\ubc8c": 7713, "\u25812010": 567, "\u2581\uc810\ud3ec": 4085, "\uc9c4\uc601": 7346, "\u2581\ube4c\ub824": 2550, "\u2581\uc9c4\ubcf4": 4363, "\uc2a4\ub294": 6666, "\u2581LG": 668, "\u2581\uc778\uadfc": 3762, "\ub3d9\ud5a5": 5875, "\u2581\uacbd\uc81c\uc131\uc7a5\ub960": 973, "\ub5bc": 5976, "\u2581\uacbd\uc6b0\uac00": 969, "\ubc14\ub974\uc140\ub85c\ub098": 6276, "\u2581\uc190\uc744": 2864, "\uc19f": 6620, "\u2581\ub179": 1494, "\u2581\uc804\ubb38\uac00\ub4e4": 4035, "\u2581\uc18c\uc7ac": 2846, "\u2581\uac1d\uad00\uc801": 860, "\ud140": 7614, "\uc5ec\uac1c": 6917, "\uc7a3": 7177, "\uad50": 5488, "\u2581\ubd80\uc0ac\uc7a5": 2439, "\u258190": 628, "\u2581\uce90\ub098\ub2e4": 4644, "\ub4c8": 5919, "\u2581\ud55c\ub2e4\ub294": 4967, "\ud669": 7951, "\u2581\uc774\ub4e4\uc774": 3668, "\u25812008": 565, "\uc7a5\uc740": 7186, "\u2581\ub098\uc120\ub2e4": 1383, "\uac00\ub7c9": 5333, "\uba74\uc138\uc810": 6201, "\ud575": 7859, "\u2581\uc2dc\uc2a4\ud15c": 2982, "\u2581\uc544\ub2c8\ub77c": 3101, "\ud558\ub77c": 7804, "\u2581\ub9ac": 1900, "\u2581\uac00\uc218": 753, "\u6027": 5279, "\ube91": 6469, "\ubca0\ub97c\ub9b0": 6343, "\u2581\ub0a8\ubd80": 1415, "\u2581\ub4f1\uc740": 1823, "\u2581\ubc31\ud654\uc810": 2301, "\u2581\ubd80\ubd80": 2436, "\u2581\uad00\ub828\uc0ac\uc9c4": 1085, "\ubc18": 6286, "\ub36e": 5849, "\ud1a0\ud06c": 7630, "\ud69f": 7963, "\u2581\uacb0\uc81c": 947, "\u2581\uac74\uc124\uc0ac": 886, "\u2581\uac1c\uc124": 844, "\u3011": 5241, "\u2581\uae08\uc735\ud22c\uc790": 1246, "\u2581\ud3c9\uade0\uc790\ucc45\uc810": 4846, "\u2581\uc2e4\ubb34\ud68c\ub2f4": 3041, "\u2581\ud3ec": 4856, "),": 42, "kg": 417, "\u2581\uc2dc\uccad\uc790": 3000, "\ub0a0": 5664, "\uce21": 7479, "\ud4f0": 7752, "\ubfb0": 6482, "\u2581\ubcf4\uac74\ubcf5\uc9c0\ubd80": 2357, "\ub85d": 6083, "\u2581\uc758\ub8cc": 3624, "\uacac": 5414, "\u2581\ud654\uc7a5\ud488": 5119, "\u2581\ud655\uc778": 5130, "\uc120\uc218\uad8c\ub300\ud68c": 6563, "\u2581\ub9cc\ub4e4\uae30": 1942, "\u2581\ucc28\uad00": 4403, "\uc0ac\ud68c": 6514, "\u2581\ud68c\uc6d0\uac00\uc785": 5159, "\uc2dc\uc7a5": 6716, "(3": 32, "\u2581\ubc1b\uace0": 2222, "\u2581\ub610": 1861, "\u2581\ubd88\uac00\ub2a5": 2486, "\u2581\uc6d0\ub798": 3537, "\u2581\ubcf4\uc774\uace0": 2388, "\u2581\uc5c6\uc5b4": 3278, "\u2581\ucea0\ud398\uc778": 4648, "\u2581\ucc98\ubc8c": 4466, "\u2581\uc7ac\ubc8c": 3981, "\u5dde": 5273, "\u2581*": 523, "\u2581\ucd09\uc9c4": 4511, "\u2581\uc6d0\ub0b4\ub300\ud45c\ub294": 3536, "\u2581\uacc4\uc5f4\uc0ac": 987, "\u2581\ub0a8\ubd81": 1416, "\ub410\ub2e4": 5880, "\ud6e4": 7976, "\u2581\uc774\ub04c": 3653, "\u2581\uc791\ud488": 3940, "\u2581\uc911\ubc18": 4262, "\u2581\ucc3e\uc9c0": 4450, "\u2581\ub0a8\uc131": 1419, "\u2581\uae30\ub85d\ud588\ub2e4": 1277, "\uc5d0\ub294": 6900, "\ucca9": 7429, "\uc77c\ubcf4": 7130, "S": 343, "\u2581\uccad\ubb38\ud68c": 4486, "\u2581\ud488\ubaa9": 4892, "\u2581\uc2dc\ub300": 2970, "\uc6d0\uc5d0\uc11c": 7022, "\u2581\ub9e4\ub144": 1988, "\u2581\uac8c\uc7ac\ud588\ub2e4": 928, "\u2581\ud61c\ud0dd": 5088, "\u2581MC": 673, "\uc2a4\uac00": 6665, "\ucc98\ubd84": 7419, "\uac80\uc0c9": 5394, "TI": 352, "\u2581\ud589\uc0ac": 5026, "\u2581\ub9c8\ucc2c\uac00\uc9c0": 1921, "\u9ad8": 5328, "\u2581\uc870\uc5b8": 4180, "ation": 378, "\u2581\uc218\uc775\uc131": 2898, "\u2581\uc9c0\ud558": 4346, "\u2581\uc7ac\uac74\ucd95": 3972, "\uc18c\ud504\ud2b8": 6614, "\u2581\ud138\uc5b4\ub193": 4731, "\ud06c\ub808": 7566, "\u2581\ub193": 1522, "\u2581\ud544\uc694\uc131": 4921, "\u2581\uc8fc\ub9d0\ub4dc\ub77c\ub9c8": 4224, "\uc5d1": 6907, "\u2581\uac04": 777, "\u00b6": 477, "\u2581\ubb3c\ub860": 2140, "\uc13c\ud2b8": 6595, "\u2581\uc18c\ub140": 2826, "\u2581\ud6c4\ubc18\uae30": 5179, "ver": 454, "\u2581\uc811\ud55c": 4091, "\u2581\uace0\ub839": 1001, "\u2581\uae08\uc735\ud68c\uc0ac": 1247, "\u2581\uc0cc\ud504\ub780\uc2dc\uc2a4\ucf54": 2703, "\u2581\ucef4\ud4e8\ud130": 4660, "\u2581\uc608\uc0b0": 3404, "\uc52c": 6793, "\uc9e4": 7365, "\u25815000": 615, "\uc18c\ubc29\uc11c": 6610, "\uadf9\uc7a5": 5545, "\u2581\uc790\ub9ac\uc5d0": 3899, "\uc728": 7069, "\uae00": 5547, "\u2581\ucc28\ub840": 4407, "\u2581\uc2f1\uac00\ud3ec\ub974": 3070, "\u2581\uc801\uadf9": 3997, "\ud76c\ub9dd": 7994, "\u2581\uc7a0\uc2e4": 3947, "\ud53c\uc544": 7769, "\u2581\ucd95\uad6c\ud611\ud68c": 4563, "\ub9c9": 6149, "\u2581\ub193\uace0": 1523, "\u2581\uac83\uc774\ub77c\ub294": 915, "\uac01": 5336, "\u2581\uc9c8": 4379, "\u2581\ucd08": 4501, "\ub369": 5848, "00000": 81, "\u2581\uc57d\uc18d": 3213, "\u2581\uc758\ubb34": 3626, "\u2581\ub4f1\ud310": 1829, "\u2581\ubc1b\uc544\ub4e4\uc5ec": 2227, "\u2581\uc644\ubcbd\ud55c": 3459, "\u2581\uc5b4\ub514": 3223, "\u2581\ud64d\ucf69": 5111, "d": 388, "\u2581\ub098\ud0c0\ub09c": 1400, "\u2581\uac00\uc9dc": 770, "76": 215, "\u2581\uc790\ub791": 3894, "\ub3d4": 5869, "\ub86f": 6089, "\uc600\ub2e4": 6946, "\u2581of": 707, "\ud5c8": 7887, "\uc544\uc2dc\uc544\ud22c\ub370\uc774": 6802, "\u2581\uccab\ub0a0": 4482, "\uae30\uc790": 5580, "\uc635\uc158": 6980, "\uc870\uac74": 7254, "\u2581\ud589\uc0ac\ub97c": 5027, "16": 113, "\uc790\ub8cc": 7157, "\u2581\ud504\ub85c\uadf8\ub7a8\uc744": 4899, "\ud615": 7921, "\u2581\uc0b0\ud558": 2642, "\u2581\ub54c\ubd80\ud130": 1851, "\u2581\uc544\ud514": 3132, "\u2581\uba38\ub9ac": 2008, "\u2581\uae30\ud68c": 1307, "\uc870\uc9c1": 7260, "(10": 21, "\u2581\uc21c\uc704": 2916, "\u2581\ubc14\uc774\ub7ec\uc2a4": 2197, "\u2581\uae40\uc7ac": 1329, "\u2581\ubd84\uba85": 2474, "\uc149": 6598, "\u2581\uc815\ub3c4\ub85c": 4100, "\u3003": 5233, "\u2581\uc624\uc5f0\uc11c": 3430, "\u258128": 586, "\u2581\ubaa9\ud45c\ub85c": 2079, "\u2581\ubb3c\uac74": 2137, "\uc5b5\uc6d0": 6861, "\uc6d0": 7020, "\uad6c\ub97c": 5498, "\ud640\ub529\uc2a4": 7933, "\u2581\ubabb\ud574": 2092, "\u2581\uae09\uc5ec": 1254, "\u2581\uadf9\ucc2c": 1220, "\u2581\ub4e4\ub824": 1803, "\ud50c": 7761, "\u2581\uc54c\uace0": 3168, "\u2581\uc5ec\uac74": 3300, "\u2581\uc778\ud574": 3802, "\u2581\uc7a5\uae30": 3957, "es": 395, "\u2581\ud574\ub2f9\ud558\ub294": 5001, "\ud64d\ubcf4": 7940, "\u2581\uacfc\uc815\uc744": 1067, "\ubcf4\uace0\uc11c": 6367, "\u2581\ube5a": 2552, "\u2581\uc9c4\ub2e8": 4361, "\uac14": 5348, "\uc5b5\ub2ec\ub7ec": 6859, "85": 229, "\u2581\ud589\ub3d9": 5023, "\ub9bc": 6136, "\u2581\uac15\ub82c\ud55c": 812, "\u2581\uc0c1\ub300\uc801\uc73c\ub85c": 2666, "\uc7ac": 7191, "\u784f": 5305, "\uc6e8": 7038, "\u2581\uc720\uba85": 3585, "\ub450": 5907, "\u2581\ucc38\uac00\uc790\ub4e4": 4429, "\u2581\uad00\uad11": 1080, "1.4%": 99, "\uc2dc\ud5d8": 6729, "\u2581\uc6c3": 3528, "\u2581\uc810": 4074, "\uacc4": 5436, "\uc2a4\ub97c": 6672, "\uaddc": 5532, "\u2581\ub7ad\ud0b9": 1880, "\u2581\uad34": 1101, "\u2581\uc544\uc774": 3121, "\u2581\ud56d\uacf5": 4993, "\u2581\uc544\ub2c8\uba74": 3102, "\u2581\ud558\ub77d\uc138": 4934, "\u2581\ud604\ud669": 5068, "\u2581\uc5f4\ub9b0": 3364, "\u2581\ubc1b\uc740": 2232, "\u2581\uc18c\uc7a5": 2845, "\u2581\uc804\ud654": 4064, "\u2581\ud754\uc801": 5200, "\ub220": 5749, "\ucdcc": 7475, "\u2581\uc704\ucd95": 3562, "\u2581\ucd9c\ucc98": 4586, "\ud76c": 7993, "\u2581\uc815": 4092, "\u2581\ubc84\ub0c9\ud0a4": 2303, "\u2581\ub2a5\ub825\uc744": 1560, "\u2581\u25c0": 722, "\u2581\uc62c\ub9b0": 3446, "\u2581\uc6a9\uc758\uc790": 3496, "\u2581\ubf51": 2568, "\ud39c": 7716, "\u2581IT": 656, "\ud761": 7990, "\u2581\ub2e4\uc74c\ub0a0": 1578, "\ubc14": 6273, "E": 282, "\u2581\uba55\uc2dc\ucf54": 2024, "\u2581\ubc24": 2265, "\u2581\ubcf4\uc774\ub294": 2389, "\u2581\uc18c\ud615": 2853, "\u2581\ucd5c\uc885": 4538, "\u2581\uc218\ub3c4": 2874, "(25": 31, "\uc13c\ud130\uc5d0\uc11c": 6594, "\ud654\ub97c": 7942, "\u2581\ub0c8\ub2e4": 1455, "\u2581\ub2f9\uc7a5": 1628, "\u2581\uce58\uc5f4": 4624, "\u2581\uc815\ub3c4": 4099, "\u2581\uad8c\ub825": 1171, "\u2581\uc5f0\uad6c\uac1c\ubc1c": 3337, "\ub300\ud68c": 5829, "s": 440, "\uc1a5": 6622, "\uc774\uc775": 7114, "\uc788": 7141, "\u2581\uc54a": 3146, "\u2581\uc601\uc5c5\uc774\uc775\uc740": 3384, "\u25812014": 575, "\u2581\uc9c0\uc815": 4339, "\u2581\uc131\uaca9": 2782, "\ub4dc": 5920, "\u2581\uc0c1\uc0dd": 2669, "\ubcf4\ub2c8": 6370, "\u2581SK": 689, "\uc9c8\ud658": 7352, "\ud034": 7560, "\ub298": 5762, "\u2581\uad70": 1165, "\u2581\uc788\uae30": 3858, "\u2581\uac16\uace0": 826, "\u2581\ucd95": 4561, "\u2581\uc2f1\uae00": 3071, "\u2581KBS": 662, "\u2581\ubaa9\ub85d": 2071, "\u2581\uc790\uc138": 3907, "\u2581\uc6c0\uc9c1\uc784": 3527, "\uae30\uac00": 5562, "\u2581\ubcf4\uc721": 2386, "\u2581\uc218\uc601": 2891, "\ubb18": 6227, "56": 184, "\u2581\uc9c0\uc801": 4336, "\u2581\ud2c0": 4793, "\ud558\uc6b0\uc2a4": 7816, "\ud588\uc5c8\ub2e4": 7875, "\u2581\uac00\ub9f9\uc810": 751, "\u2581\uc548": 3135, "\u2581\uc990\uae30": 4283, "\ud558\ub298": 7796, "\u2581\ud5cc\ubc95": 5043, "\uc575\ucee4\uba58\ud2b8": 6843, "\uc911\uc778": 7302, "\u2581\ud68c\uc0ac": 5156, "\u203b": 505, "\u2581\uc218\ud589": 2909, "\u2581\uc138\uc6b0": 2813, "\ud6e8": 7977, "\u25812013.07.1": 573, "\u2581\ub4e4\uc5b4\uc11c": 1809, "\u2581\uc6b4\ud56d": 3522, "\u2581\ud0dc\ube14\ub9bf": 4723, "\uaebe": 5605, "\u2581\uc7a1": 3950, "\u2581\uc55e\uc120": 3188, "\u2581\ucc2c": 4425, "\ud0e4": 7603, "\uc9c8": 7350, "\u258145": 609, "\ube55": 6454, "\u2581\uc6b0\uc988": 3512, "\u2581\ub4e4\uc5b4\uac14\ub2e4": 1808, "KBS": 309, "\uae30\uc5d0": 5579, "\u2581\ubb38\uc81c\uc810": 2131, "\u2581\uc0ac\ub85c\uc7a1": 2593, "\ubc29\uc2dd": 6307, "\u2581\ub124\ud2b8\uc6cc\ud06c": 1471, "\u2581\uc644\ubcbd": 3458, "\u2581\uc5ed\ud560\uc744": 3331, "\u2581\uc989\uc2dc": 4281, "\ud150": 7621, "\u2581\ub098\uc628": 1391, "\uc704\uc6d0\ud68c": 7054, "\u2581\uacbd\ucc30\uc740": 978, "\u2581\uc228\uc9c4": 2921, "\u2581\ud1b5\uc0c1": 4748, "\uc2a4\ud0e0": 6685, "\u2581\uc288\ud37c": 2928, "\u2581\ud0dc\uc591": 4724, "\u2581\ucd08\uc810\uc744": 4507, "\uc0f7": 6550, "\uc5f0\uad6c\uc18c": 6930, "\u2581\uae30\ud0c0": 1306, "\u2581\uc624\ub79c": 3423, "\u2581T": 693, "\u25812016": 577, "\u2581\uc870\uae30": 4166, "\uc528\ub294": 6787, "\u2605": 5231, "\u2581\uc544\ub2c8\uc5c8\ub2e4": 3103, "\u258113": 541, "\u2581\ubaa8\ub974": 2049, "\u2581\ubd88\ud669": 2501, "OSEN": 332, "\u2581\uc11c\uc6b8\uc2dc": 2728, "\ub7ab": 6030, "\ucc22": 7388, "\u2581\uc804\uccb4\ud68c\uc758": 4055, "W": 358, "\u2581\ub178": 1476, "\u2581\ud575\uc2e4\ud5d8": 5015, "\ud0dc": 7598, "\u2581\uc2e0\uccad": 3030, "\u2581\ud654\uc81c": 5121, "\u2581\ud654\uc774\ud2b8": 5117, "IP": 303, "\u2581\uba3c\uc800": 2012, "\u3009": 5235, "\u2581\uad6d\ub0b4\uc678": 1140, "\u2581\uacbd\ubd81": 965, "\u2581\ubc30\uc81c": 2294, "\u2581\uc784\uc2dc": 3831, "\u2581\ud604\ub300": 5051, "\u2581\uc77c\ub2e8": 3805, "\uad81": 5521, "\ucc54": 7413, "\u2581\ubc1b\uc73c\uba70": 2231, "\u2581\uc9c4\uc220": 4364, "\u2581\ucd95\ud558": 4566, "\ub300\ud654\ub85d": 5828, "\ub77c\uc778": 6014, "\u2581\ubb38\uc81c\uc5d0": 2130, "\uc544\uc2dc\uc544\uacbd\uc81c": 6801, "\u2581\ucca0\uc800\ud788": 4477, "\uae30": 5561, "\u2581\uc131\ub9e4\ub9e4": 2790, "\u2581\ub9de\ub300\uacb0": 1972, "\u2581\uc6d0\uc815\uacbd\uae30": 3542, "\uc2ec\uc744": 6748, "ul": 447, "\u7368": 5296, "\u2581\uc815\uc0c1\ud68c\ub2f4": 4115, "\u2581\ud0c0": 4698, "600": 191, "\u2581\uae08\uc9c0": 1248, "\u2581\uc218\uc0ac": 2882, "\uc2dc\uc544": 6714, "\ubca1": 6346, "\ubc34": 6316, "\u2581\ud1b5\uacc4": 4744, "\ud1a0\ub85d": 7629, "\u2581\uc27d\uac8c": 2924, "\ub7b4": 6033, "\u2581\uc790\uc728": 3921, "\u2581\ub178\ud64d\ucca0": 1492, "\u2581\ub9cc\uc871": 1947, "\u2581\ubc1d\ud788": 2263, "\uce74": 7495, "\u2581\ud640": 5103, "\u2581\ub2e8\uc7a5": 1592, "\u2581\uacbd\uc7c1": 970, "\u2581\uc804\uc138\uacc4": 4042, "\ud588\uae30": 7866, "\u2581\uc911\uc559": 4269, "\ucc0c": 7383, "\u2581\uc218\uc6d0": 2895, "\u2581\ud604\uc7ac\uae4c\uc9c0": 5065, "93": 242, "\u2581STX": 692, "\uac70\ub798\uc77c": 5381, "\ud5e8": 7896, "\u2581\ub367\ubd99\uc600\ub2e4": 1705, "\u2581\uc815\uccb4": 4121, "\u2581\ud0dc\ub3c4": 4722, "(0": 19, "\u2581\ud5cc\ubc95\uc7ac\ud310\uc18c\uc7a5": 5044, "\ub9e4": 6168, "\u2581\uad11": 1096, "\u2581\uac04\ubd80": 779, "\u2581\uc62c\ub77c": 3440, "\u2581\uc774\uc0c1\uc758": 3705, "\u251c": 515, "\u2581\uc774\uc5b4\uc9c8": 3723, "\ud568": 7837, "\uce69": 7492, "\u2581\uc2a4\uc704\uc2a4": 2935, "\u2581\uacbd\uace0": 955, "\u2581\ubc29\uc548": 2279, "\u2581\uc704\uce58\ud55c": 3564, "\u2581\ucd09\uad6c\ud588\ub2e4": 4510, "\uc600\uc2b5\ub2c8\ub2e4": 6948, "\u2581\ud638\uc8fc": 5094, "\u2581\ud478\uc774\uadf8": 4887, "\u2581\uc6b4\uc804\uc790": 3521, "\ubd84\uae30": 6418, "\uc608\uc220": 6960, "\uc73c\uba74\uc11c": 7084, "\ub428\uc5d0": 5904, "\uac89": 5399, "\ub7ec\uc2a4": 6038, "\u2581\uc2dc\ub9ac\uc544": 2972, "\u2581\uc704\ud574": 3567, "\u2581\ub3cc\uc785": 1738, "\u2581\ub0b4\ub9ac": 1444, "\u2581\ucd94\uac00": 4542, "\u2581\uc0ac\uc9c4\uc774": 2629, "\uce59": 7488, "T": 351, "\u2581\uadf8\ub807\uc9c0": 1205, "\u2581\ubf50\ub0b4": 2566, "\ub9ad": 6132, "\ubcf6": 6382, "\uc131": 6573, "\ucc59": 7415, "\ucffc": 7556, "\u2581\uc81c\uc2dc\ud55c": 4140, "\ub2c9": 5775, "\u2581\uc2b9\ubb34\uc6d0": 2953, "\u2581\uc8fc\uc778\uacf5": 4235, "\u2581\ubb50": 2145, "\u2581\uc815\ubcf4\ud1b5\uc2e0": 4105, "\u2581\ucc44\uad8c": 4452, "\u2581\uc54a\ub2e4": 3153, "\u2581\ud22c\uc790\uc790\ub4e4": 4771, "\u2581\ucc38\uace0": 4430, "\ud0e0": 7602, "\u2581\uaebc": 1344, "\ub2ec\ub77c": 5794, "\u2581\ud558\ub294\ub370": 4931, "\ucef4": 7518, "\uc804": 7207, "\uad1c": 5484, "\uc918": 7303, "FC": 286, "{": 460, "\ub85c\uc11c": 6081, "\u2581\ud1b5\uc77c": 4750, "k": 415, "\u2581\uc218\uc785": 2900, "\ub124": 5702, "\u2581\ucd08\uae30": 4503, "\u2581\uc5b5\uc81c": 3240, "\u2581\uc790\uae30": 3890, "\u2581\uc218\uc5c5": 2890, "\u2581\ub2f9": 1618, "\uc870\uc6d0": 7258, "\u2581\ud654\uba74": 5114, "\u2581\ub300\ud68c\uc5d0\uc11c": 1695, "\u2581\uc608\ube44": 3402, "\u2581\uc774\ubbfc": 3695, "\u2581\ucc29\uacf5": 4421, "\u2581\uc0ac\uace0\ub85c": 2578, "\uc0ac\uc758": 6508, "\ubd84\uc11d": 6421, "7%": 203, "\ubed1": 6472, "\u2581\uac8c\uc2a4\ud2b8": 923, "\u2581\ubcd1\ud589": 2354, "\ucffc\ud130": 7557, "35": 151, "\u2581\ubcf5\uc218": 2404, "\ub098": 5655, "\uc20f": 6628, "\uc84c\uc9c0\ub9cc": 7252, "\u2581\uc120\ubcf4\uc778": 2748, "\u2581\uc2b9": 2949, "\ud6cc": 7972, "\u2581\uc81c\uc8fc\ub3c4": 4155, "ar": 375, "\u2581\ubb34\ub8cc\ub85c": 2104, "\uace8\uc744": 5447, "\uc774\uc790": 7115, "\u2581\ud0d4\ub2e4": 4719, "\ud1f4": 7640,
[...]
